!
"
#
##0
##00
##000
##1
##10
##100
##11
##12
##13
##14
##15
##16
##17
##18
##19
##2
##20
##200
##21
##22
##23
##24
##25
##26
##27
##28
##29
##3
##30
##31
##32
##33
##34
##35
##36
##37
##38
##39
##4
##40
##41
##42
##43
##44
##45
##46
##47
##48
##49
##5
##50
##51
##52
##55
##56
##57
##58
##59
##6
##60
##64
##65
##66
##67
##68
##69
##7
##70
##77
##78
##79
##8
##80
##81
##85
##86
##87
##88
##9
##90
##95
##97
##99
##a
##aa
##aaf
##aan
##aannya
##aat
##ab
##abad
##abah
##aban
##abar
##abaran
##abarkan
##abas
##abat
##abatan
##abe
##abel
##abet
##abeth
##abi
##abil
##abila
##abilitas
##abilitasi
##abis
##abisan
##abisi
##abiskan
##able
##abor
##aborasi
##abung
##abut
##ac
##aca
##acak
##acam
##acap
##acara
##ace
##aceae
##ach
##ache
##achi
##aci
##acita
##ack
##acle
##aco
##act
##action
##acu
##acun
##acunan
##acy
##ad
##ada
##adaan
##adaannya
##adaban
##adah
##adahi
##adai
##adak
##adakan
##adan
##adana
##adang
##adangan
##adani
##adanya
##adap
##adaptasi
##adar
##adaran
##adari
##adarma
##adat
##adaya
##add
##ade
##adel
##adem
##aden
##ades
##adewa
##adh
##adi
##adia
##adian
##adik
##adikan
##adiksi
##adilan
##adin
##adinya
##adio
##adiri
##adis
##ado
##adona
##ador
##ads
##adu
##aduan
##adw
##adwalkan
##ady
##adz
##ae
##af
##afa
##afal
##afalkan
##aff
##afi
##afs
##aft
##aftar
##aftaran
##aftarkan
##ag
##aga
##agah
##agak
##agal
##agam
##agama
##agaman
##agan
##agang
##agangan
##agangkan
##aganya
##agar
##agara
##agat
##age
##agen
##ager
##ages
##agh
##agi
##agia
##aging
##agn
##agnet
##ago
##agon
##agri
##agu
##ague
##agukan
##agung
##agus
##ah
##aha
##ahal
##aham
##ahaman
##ahami
##ahan
##ahanan
##ahankan
##ahannya
##ahap
##ahari
##ahas
##ahasa
##ahat
##ahatan
##ahaya
##ahi
##ahir
##ahit
##ahkan
##ahl
##ahter
##ahteraan
##ahu
##ahuan
##ahul
##ahulu
##ahului
##ahun
##ai
##aian
##aib
##aight
##aih
##aikan
##ail
##ain
##ainan
##ainkan
##ains
##ainya
##air
##ais
##aitan
##aitu
##aiyah
##aj
##aja
##ajah
##ajahan
##ajai
##ajak
##ajakan
##ajal
##ajan
##ajang
##ajar
##ajaran
##ajari
##ajat
##ajaya
##aji
##ajian
##ajib
##ajibkan
##ajikan
##aju
##ajuan
##ajukan
##ajur
##ajurit
##ak
##aka
##akah
##akai
##akaian
##akal
##akala
##akan
##akannya
##akapan
##akar
##akaran
##akarida
##akarsa
##akarta
##akarya
##akas
##akat
##akata
##akatan
##akatau
##ake
##akel
##aken
##aker
##akes
##akh
##akhir
##aki
##akiman
##akinya
##akit
##akkan
##akm
##akmuran
##akn
##akna
##aknya
##ako
##aks
##aksa
##aksaan
##aksan
##aksana
##aksanaan
##aksanakan
##aksi
##aksian
##aksikan
##aksinya
##aksir
##aksis
##aksud
##akter
##akti
##aktif
##aktor
##aktur
##aku
##akuan
##akuasi
##akukan
##akum
##akunya
##akup
##akur
##akura
##akwa
##akwah
##al
##ala
##alaba
##alah
##alahan
##alahannya
##alahkan
##alai
##alak
##alakan
##alal
##alam
##alaman
##alamannya
##alami
##alan
##alang
##alangan
##alanya
##alap
##alar
##alas
##alat
##alau
##alayan
##ald
##ale
##alem
##ales
##ali
##alia
##alian
##alib
##alif
##alifah
##alifikasi
##alih
##alik
##alikan
##alin
##alinan
##aling
##alip
##alis
##alisasi
##alisasikan
##alisi
##alisir
##alisis
##alism
##alisme
##alitas
##alk
##alkan
##all
##alla
##allah
##allahu
##alnya
##alo
##alog
##alon
##alonkan
##als
##alsuan
##alsukan
##alt
##alth
##alu
##aluan
##aluasi
##alui
##alukan
##alum
##alurkan
##alus
##alut
##aly
##am
##ama
##amaan
##amad
##amah
##amai
##amaian
##amakan
##amal
##aman
##amana
##amanan
##amankan
##amanya
##amar
##amas
##amat
##amata
##amatan
##amater
##amatkan
##amb
##amba
##ambah
##ambahan
##ambahkan
##ambakan
##ambang
##ambangan
##ambangkan
##ambar
##ambaran
##ambarkan
##ambat
##ambatan
##ambi
##ambil
##ambu
##ambung
##ambungan
##ambut
##ame
##amen
##ament
##amer
##amerika
##amerkan
##ami
##amid
##amil
##amin
##amina
##aminan
##aminasi
##amis
##amkan
##amo
##amon
##amp
##ampaian
##ampaikan
##ampak
##ampakan
##ampakkan
##ampang
##ampar
##ampaui
##ampek
##ampi
##ampil
##ampilan
##ampilkan
##amping
##ampingan
##ampingi
##ampingkan
##ampir
##ampton
##ampu
##ampuan
##ampung
##ampungan
##ampuni
##ampur
##ampuran
##ampurkan
##amu
##amuk
##amus
##an
##ana
##anaan
##anah
##anahan
##anai
##anam
##anaman
##anan
##anangkan
##anas
##anc
##anca
##ancam
##ancang
##ancangan
##ancar
##ancaran
##ancarkan
##ance
##anced
##ancing
##ancis
##ancong
##ancur
##ancuran
##ancurkan
##ancy
##and
##anda
##andak
##andakan
##andal
##andalan
##andan
##andang
##andangan
##andanya
##andar
##andaran
##andarkan
##andasi
##andaskan
##andeng
##ander
##andi
##andia
##andikan
##anding
##andingan
##andingi
##andingkan
##ando
##andra
##andu
##anduan
##anduk
##andung
##andy
##ane
##anegara
##ang
##anga
##angan
##angani
##angannya
##angat
##ange
##anger
##angg
##angga
##anggal
##anggan
##angganan
##anggang
##anggap
##anggar
##anggaran
##anggih
##anggil
##anggu
##anggung
##angi
##angk
##angka
##angkaan
##angkah
##angkai
##angkal
##angkalan
##angkali
##angkan
##angkap
##angkara
##angkas
##angkasan
##angkat
##angkatan
##angkatkan
##angkau
##angkis
##angkit
##angko
##angku
##angkung
##angkut
##angkutan
##angnya
##angs
##angsa
##angsaan
##angsang
##angsanya
##angsari
##angsung
##angsungan
##angsungkan
##angsur
##angu
##angun
##ani
##ania
##anian
##anie
##aninya
##anium
##anj
##anja
##anjaan
##anjak
##anjang
##anjangan
##anjar
##anji
##anjian
##anjikan
##anjing
##anjiri
##anjuk
##anjung
##anjur
##anjut
##anjutan
##anjutkan
##anjutnya
##ank
##ankan
##ann
##annya
##ano
##anon
##ans
##ansyah
##ant
##anta
##antah
##antai
##antan
##antang
##antap
##antar
##antara
##antas
##antasan
##antasi
##antau
##ante
##anten
##anth
##anti
##antian
##antik
##antikan
##antin
##antina
##anting
##antinya
##antis
##anto
##antoro
##ants
##antu
##antul
##antulkan
##antum
##antumkan
##antung
##anty
##anus
##any
##anya
##anyak
##anyakan
##anyang
##anye
##anyi
##anyikan
##anyol
##ap
##apa
##apahit
##apai
##apak
##apan
##apar
##aparan
##aparkan
##apas
##apasan
##apat
##apatan
##apati
##ape
##apel
##aper
##aph
##api
##apian
##apis
##apkan
##apor
##aporkan
##app
##aps
##aptis
##apu
##apun
##apur
##apura
##apus
##aput
##aq
##ar
##ara
##araan
##arab
##arah
##arahan
##arahi
##arai
##araja
##arak
##arakan
##aram
##aran
##arang
##arani
##arankan
##arannya
##aranya
##arap
##arapan
##arapkan
##aras
##arasi
##araskan
##arat
##arau
##arawa
##arawan
##arch
##ard
##ardi
##ardjo
##ardo
##are
##aren
##areng
##aret
##arga
##arget
##argetkan
##ari
##aria
##ariah
##arian
##ariannya
##ariat
##arif
##arifikasi
##arik
##arikan
##arin
##aring
##aringan
##arinya
##ario
##aris
##ariskan
##arit
##aritas
##arium
##ariyah
##arja
##arjo
##ark
##arkan
##arkas
##arki
##arkis
##arl
##arm
##arman
##arn
##arna
##arno
##arnya
##aro
##arong
##ars
##arso
##art
##arta
##artemen
##arth
##arti
##arto
##aru
##aruan
##aruh
##arui
##arum
##arung
##arut
##arutkan
##ary
##as
##asa
##asaan
##asah
##asakan
##asaki
##asama
##asan
##asana
##asang
##asannya
##asanya
##asar
##asari
##asarkan
##asat
##ase
##asem
##aser
##ash
##asha
##ashi
##asi
##asia
##asiakan
##asian
##asiat
##asib
##asih
##asik
##asikan
##asil
##asila
##asilan
##asilitasi
##asilkan
##asin
##asinya
##asio
##asional
##asis
##asiswa
##ask
##askan
##asm
##asnya
##aso
##ason
##asp
##ass
##assar
##assi
##assus
##ast
##asta
##aster
##asti
##astian
##astis
##astr
##astra
##astraan
##asw
##aswasta
##asy
##at
##ata
##ataan
##atai
##atak
##atakan
##atalkan
##atan
##atang
##atangan
##atani
##atannya
##atanya
##atap
##atar
##atarbelakangi
##atas
##atasan
##atasi
##atat
##ate
##ated
##aten
##ater
##ateral
##ates
##ath
##atha
##athan
##ather
##ati
##atian
##atib
##atic
##atif
##atifikasi
##atiga
##atih
##atik
##atika
##atikan
##atin
##ating
##atinya
##atio
##ation
##ational
##ations
##atis
##atisme
##ativ
##ative
##ativitas
##atkan
##atnya
##ato
##aton
##ator
##atorium
##atory
##atra
##atri
##atria
##ats
##att
##atta
##atu
##atua
##atuan
##atuh
##atuhan
##atuhkan
##atukan
##atul
##atum
##atur
##atural
##aturan
##ature
##atus
##au
##auh
##aul
##aulat
##aun
##aut
##aux
##av
##aw
##awa
##awab
##awah
##awahan
##awai
##awak
##awal
##awali
##awan
##awanan
##awancara
##awancarai
##awang
##awannya
##awar
##awaran
##awari
##awarman
##awarsa
##awasan
##awat
##awatan
##awati
##awatir
##awatirkan
##away
##awe
##awi
##awijaya
##awin
##awir
##awiyah
##ax
##ay
##aya
##ayaan
##ayaannya
##ayah
##ayak
##ayakan
##ayaknya
##ayam
##ayan
##ayana
##ayang
##ayangan
##ayangkan
##ayani
##ayanya
##ayap
##ayar
##ayasa
##ayat
##ayati
##ayo
##ays
##ayu
##ayun
##ayung
##az
##b
##ba
##bab
##baban
##babkan
##bac
##bach
##back
##bag
##baga
##bagaan
##bagai
##bah
##baharui
##baiki
##bak
##bal
##bali
##ball
##ban
##band
##bang
##bank
##bannya
##bar
##barang
##barkan
##baru
##barui
##bas
##basi
##bat
##batu
##bau
##bawa
##bawi
##bay
##baya
##bb
##bc
##bd
##be
##bek
##bel
##bell
##ben
##ber
##beratkan
##berg
##beri
##berry
##bers
##bert
##bes
##bet
##bh
##bi
##bia
##biakan
##bian
##bid
##bie
##bih
##bil
##bilitas
##bility
##bin
##bing
##bir
##bis
##bit
##biyah
##bk
##bl
##ble
##bm
##bn
##bo
##board
##bok
##bol
##bola
##bon
##book
##bor
##bos
##bour
##bourne
##bow
##box
##boy
##bp
##br
##bre
##bro
##bs
##bu
##buah
##buan
##buat
##bud
##budaya
##bug
##buh
##buhan
##buhi
##buhkan
##buk
##buka
##bukan
##bukannya
##bukkan
##bul
##bulan
##bullah
##bum
##bun
##bung
##bur
##burg
##burn
##buruk
##bury
##bus
##but
##by
##c
##ca
##cabang
##cal
##can
##cana
##cang
##cap
##car
##cara
##card
##cas
##case
##cast
##castle
##cat
##caya
##cc
##ce
##cel
##cer
##ces
##ch
##cha
##chan
##change
##char
##che
##chen
##cher
##chi
##ching
##ci
##cia
##cial
##cin
##cing
##cis
##cium
##ciuman
##cius
##ck
##cl
##cle
##cm
##co
##coin
##col
##com
##come
##con
##cons
##core
##count
##cow
##cr
##craft
##cript
##cs
##ct
##cter
##cu
##cul
##cus
##cut
##cy
##d
##da
##dad
##dah
##dal
##dam
##dan
##dar
##das
##date
##day
##daya
##dayaan
##dayakan
##db
##dc
##de
##dem
##den
##der
##des
##dh
##di
##dia
##dian
##did
##die
##dik
##dikan
##dil
##dim
##din
##ding
##diq
##dir
##dirkan
##dis
##dm
##dn
##do
##dom
##don
##dong
##door
##dot
##down
##dp
##dr
##ds
##du
##duk
##dut
##dy
##e
##ea
##ead
##eae
##eal
##eam
##ean
##ear
##earch
##eas
##ease
##eb
##ebak
##ebal
##ebalan
##eball
##ebang
##ebar
##ebaran
##ebas
##ebasan
##ebat
##ebatan
##ebatkan
##eber
##ebes
##ebet
##ebo
##ebob
##ebol
##ebon
##ebook
##ebr
##ebra
##ebunan
##ebus
##ebut
##ebutkan
##ec
##eca
##ecah
##ecahan
##ece
##ech
##ecil
##eck
##eco
##ecom
##econ
##ect
##ecta
##ected
##ection
##ective
##ector
##ecuali
##ed
##eda
##edaan
##edah
##edahan
##edak
##edakan
##edan
##edang
##edar
##ede
##eder
##ederasi
##edes
##edi
##edia
##ediakan
##edian
##edikasikan
##edis
##edit
##edo
##edral
##edulikan
##edy
##ee
##eed
##eee
##een
##eer
##ees
##eet
##ef
##efa
##eff
##efinisi
##efinisikan
##efisi
##efisien
##eg
##ega
##egah
##egahan
##egal
##egan
##egang
##egangan
##egar
##egara
##egaraan
##egaran
##egas
##egasi
##egat
##ege
##eger
##egi
##egitu
##ego
##egon
##egosiasi
##egr
##egradasi
##egu
##eh
##eha
##ehan
##ehat
##ehi
##ehkan
##ei
##ein
##ej
##eja
##ejo
##ek
##eka
##ekaan
##ekah
##ekal
##ekalan
##ekali
##ekam
##ekan
##ekanan
##ekar
##ekaragaman
##ekaran
##ekasan
##ekat
##ekatan
##eke
##eker
##ekerj
##ekerja
##ekerjakan
##ekerta
##ekh
##eki
##eko
##ekolah
##ekor
##eks
##eksi
##eksinya
##eksual
##ektar
##ektif
##ektor
##eku
##ekuensi
##ekuk
##ekusi
##ekutu
##el
##ela
##elah
##elahan
##elai
##elajar
##elajaran
##elajari
##elajarinya
##elak
##elakang
##elam
##elan
##eland
##elang
##elangan
##elapan
##elar
##elaran
##elas
##elasan
##elasi
##elaskan
##elat
##elatan
##elawan
##eld
##ele
##elek
##elen
##eleng
##eles
##eless
##elet
##eli
##elia
##elih
##elihara
##eliling
##elin
##eline
##eling
##elis
##elit
##eliti
##ell
##ella
##elle
##eller
##elli
##elling
##ello
##ellow
##elo
##elon
##elor
##els
##eluk
##elur
##elus
##ely
##em
##ema
##emah
##emahan
##eman
##emanan
##emar
##emaran
##emari
##emas
##emasan
##emat
##ematan
##ematis
##emb
##embada
##embah
##embahan
##embahkan
##embang
##embangan
##embangkan
##embar
##embara
##embatani
##ember
##embung
##embunyi
##embuskan
##eme
##emen
##ement
##emer
##emi
##emia
##emik
##emin
##emis
##emo
##emon
##emonstr
##emp
##empang
##empar
##emparkan
##empat
##empatan
##empit
##emprot
##empur
##empuran
##empurn
##empurnaan
##empurnakan
##emput
##emu
##emuan
##emuk
##emukan
##emur
##emy
##en
##ena
##enaga
##enah
##enak
##enakan
##enal
##enalkan
##enam
##enan
##enang
##enangan
##enangi
##enangkan
##enankan
##enaran
##enarkan
##enc
##encan
##encana
##encanaan
##encanakan
##ence
##encer
##ences
##enci
##encia
##ency
##end
##enda
##endah
##endaharaan
##endahkan
##endaki
##endam
##endang
##ended
##endek
##ender
##enderungan
##endi
##ending
##endiri
##endo
##endong
##endor
##endra
##endum
##endung
##endy
##ene
##enep
##ener
##enerasi
##eng
##engah
##engahan
##engan
##engar
##engarkan
##engaruh
##engaruhi
##engat
##enge
##enger
##engetahuan
##engg
##enggal
##enggam
##enggang
##enggarakan
##enggel
##enggelamkan
##engger
##enggung
##enggut
##engk
##engka
##engkap
##engkapan
##engkapi
##engkar
##engku
##engs
##engsi
##enh
##eni
##enia
##ening
##enis
##enium
##enius
##enix
##enj
##enjak
##enjang
##enjangan
##enjar
##enk
##enna
##eno
##ens
##ensasi
##ense
##ensi
##ensia
##ensial
##ensif
##ensik
##ensinya
##ensis
##ensor
##ensus
##ent
##enta
##entak
##ental
##entang
##entangan
##entangkan
##entar
##entara
##entase
##entasi
##entasikan
##entaskan
##ente
##enteng
##enter
##enti
##ential
##entian
##entif
##entik
##entikan
##entina
##enting
##entingan
##ento
##entr
##entralisasi
##entrasi
##entrian
##entris
##ents
##entu
##entuan
##entuh
##entuhan
##entuk
##entukan
##entum
##enuhan
##enuhi
##eny
##enya
##enyapkan
##enz
##enza
##eo
##eon
##eong
##ep
##epak
##epan
##epankan
##epat
##epatan
##epend
##eph
##epi
##epit
##epokan
##epon
##eport
##epos
##epr
##eps
##epsi
##ept
##epuk
##er
##era
##erah
##erahan
##erahkan
##erai
##eral
##eran
##erang
##erangan
##erankan
##eransi
##erap
##erapa
##erasi
##erat
##erc
##erd
##ere
##erek
##eren
##eret
##erg
##ergi
##erhanakan
##eri
##eria
##eriahkan
##erial
##erie
##eries
##ering
##erit
##erita
##eritanya
##erk
##erm
##erman
##ermin
##ern
##erna
##ero
##eros
##erra
##ers
##erse
##erson
##ert
##erta
##ertaan
##erto
##eru
##erus
##erv
##ery
##es
##esa
##esaan
##esahan
##esaikan
##esalan
##esan
##esar
##esaran
##esc
##esco
##ese
##esel
##eser
##esh
##esha
##esi
##esia
##esif
##esik
##esin
##esis
##esium
##esm
##esmikan
##eso
##esona
##ess
##essor
##est
##esta
##estan
##estarian
##estarikan
##estasi
##ester
##esterol
##esti
##estic
##estr
##esty
##estyle
##esu
##esuaian
##esuaikan
##esus
##et
##eta
##etaan
##etah
##etahuan
##etahui
##etahuinya
##etail
##etak
##etakan
##etal
##etan
##etap
##etapan
##etapkan
##etar
##etas
##ete
##eteksi
##eter
##etes
##eth
##ether
##eti
##etik
##etika
##etin
##etis
##etkan
##eto
##eton
##etr
##etra
##etri
##etris
##etron
##ets
##ett
##etta
##ette
##etti
##etu
##etuai
##etuk
##etul
##etulan
##etus
##etuskan
##ety
##eu
##eum
##eur
##eus
##ev
##eva
##evard
##eve
##ever
##evisi
##evolusi
##ew
##ewa
##ewaan
##ewakan
##ewaskan
##eway
##ework
##ews
##ex
##ey
##eyan
##ez
##f
##fa
##faat
##face
##fah
##fak
##fal
##fan
##far
##fast
##fat
##fax
##fb
##fc
##fe
##fen
##fer
##ferensi
##ff
##fi
##fiah
##fic
##field
##fik
##fikasi
##fil
##film
##fin
##fiq
##fir
##fire
##fish
##fl
##fly
##fo
##fon
##for
##ford
##form
##formasi
##formasikan
##fort
##fr
##fre
##fred
##fri
##friend
##fs
##ft
##fu
##ful
##fungsi
##fur
##g
##ga
##gab
##gabung
##gabungan
##gabungkan
##gae
##gai
##gaji
##gak
##gal
##gala
##gam
##gan
##ganegaraan
##ganti
##gantikan
##gantungan
##ganya
##gap
##gar
##gas
##gate
##gaw
##gawa
##gaya
##gb
##ge
##ged
##gel
##gen
##ger
##gerak
##gerakan
##gers
##ges
##get
##gh
##ghan
##ght
##gi
##gia
##gian
##gie
##gigit
##gil
##gin
##ging
##gio
##gis
##git
##gl
##gle
##gm
##gma
##gn
##go
##gol
##gon
##gor
##got
##gr
##grade
##grafi
##gram
##ground
##group
##gs
##gu
##gun
##guna
##gunaan
##gunakan
##gung
##gunung
##gunya
##gus
##gy
##h
##ha
##hab
##had
##hae
##hael
##hah
##hai
##hak
##hal
##ham
##han
##hana
##hand
##hani
##har
##hara
##hard
##hari
##harjo
##harma
##has
##hat
##hati
##hatikan
##he
##head
##heim
##heimer
##hen
##hentikan
##her
##hi
##hib
##hid
##hil
##hill
##hin
##hip
##hir
##hire
##hiri
##his
##hitungkan
##hk
##hl
##hn
##ho
##hoa
##hoi
##hol
##hop
##hor
##house
##hout
##ht
##hu
##hua
##hul
##hum
##hun
##hur
##hy
##i
##ia
##iaan
##iac
##iagaan
##iah
##ial
##iam
##iaman
##ian
##iana
##ianat
##ianati
##iani
##iannya
##iano
##ianto
##ianya
##iap
##iarkan
##ias
##iat
##iawan
##iaya
##iayaan
##iayai
##ib
##ibah
##ibal
##ibar
##ibat
##ibatkan
##ibi
##ible
##ibus
##ibusi
##ic
##ica
##ical
##ican
##icara
##icarakan
##ication
##ications
##ice
##ices
##ich
##ichi
##ici
##ick
##ico
##icoba
##icon
##ics
##ict
##icu
##icus
##id
##ida
##idae
##idah
##idak
##idan
##idana
##idang
##idap
##idas
##idasi
##idat
##idato
##iday
##idaya
##ide
##iden
##idenan
##idence
##ident
##identifikasi
##identifikasikan
##ider
##ides
##idge
##idi
##idia
##idih
##idik
##idikan
##idiki
##idin
##idis
##idium
##ido
##idol
##idor
##ids
##idup
##idupan
##idupkan
##idur
##idz
##ie
##ien
##ier
##ies
##iew
##if
##ifa
##ifah
##ife
##ifer
##ifera
##iff
##ifi
##ific
##ifikasi
##iform
##ift
##ig
##igami
##igasi
##igen
##iger
##igh
##ight
##ights
##ign
##igo
##igrasi
##igu
##igur
##igurasi
##ih
##iha
##ihak
##ihan
##ihannya
##ihara
##ihat
##ihatan
##ihatkan
##ihe
##ihi
##ihir
##ihkan
##iho
##ii
##iii
##ij
##ijaya
##ijen
##iji
##ijing
##ijinkan
##ijk
##ik
##ika
##ikah
##ikal
##ikan
##ikar
##ikasi
##ikasikan
##ikasinya
##ikat
##ikatan
##ikatif
##ikator
##ike
##ikel
##iker
##iket
##ikh
##iki
##ikian
##ikil
##ikin
##ikir
##ikiran
##ikirkan
##ikis
##ikit
##ikk
##ikkan
##iklan
##iklankan
##iknya
##iko
##ikos
##ikot
##iks
##iksa
##iksi
##iku
##ikul
##ikuler
##ikum
##ikut
##ikuti
##il
##ila
##ilaan
##ilah
##ilahkan
##ilai
##ilaku
##ilan
##ilang
##ilangan
##ilangkan
##ilap
##ilas
##ilasi
##ilat
##ilau
##ilayah
##ild
##ile
##iler
##ilet
##ilh
##ilhami
##ili
##ilia
##ilian
##iliasi
##ilih
##ilik
##ilikan
##iliki
##ilikinya
##ilin
##iling
##ilingan
##ilir
##ilis
##ilisasi
##ilit
##ilitas
##ility
##iliun
##ilkan
##ill
##illa
##illah
##ille
##iller
##illo
##illus
##illy
##ilm
##ilo
##ils
##ilu
##ily
##ilya
##im
##ima
##imah
##imak
##imal
##imalkan
##iman
##imana
##imanya
##imar
##imas
##imax
##imb
##imbang
##imbangan
##imbangi
##imbangkan
##imbau
##imbing
##imbol
##ime
##imedia
##imen
##imensi
##imer
##imeter
##imi
##imia
##imin
##iminasi
##imo
##imob
##imp
##impah
##impahan
##impan
##impangan
##impi
##impiade
##impin
##impinan
##impun
##impunan
##impung
##ims
##imu
##imum
##imun
##imus
##imuti
##in
##ina
##inaan
##inah
##inal
##inan
##inang
##inanya
##inap
##inas
##inasakan
##inasi
##inasikan
##inat
##inata
##inator
##inc
##incang
##incangan
##incar
##inci
##incian
##incir
##ind
##inda
##indah
##indahan
##indahkan
##indai
##indak
##indaklanjuti
##indas
##inder
##inding
##indo
##indra
##indukan
##indung
##indungan
##indungi
##industr
##ine
##inea
##iner
##ines
##iness
##inet
##inf
##infeksi
##info
##ing
##inga
##ingan
##ingankan
##ingat
##inger
##ingg
##ingga
##inggal
##inggalan
##inggi
##inggit
##inggo
##inggu
##inggung
##ingi
##ingin
##inginan
##inginkan
##ingk
##ingkan
##ingkat
##ingkatan
##ingkuh
##ingrat
##ings
##ingsih
##ington
##ingungkan
##inho
##ini
##inian
##inik
##iningrat
##inis
##inisi
##inium
##inj
##injam
##injamkan
##injau
##injauan
##inju
##ink
##inkan
##inn
##ino
##ins
##insi
##insik
##insip
##instein
##int
##inta
##intaan
##intaannya
##intai
##intainya
##intang
##intangi
##intas
##intasi
##integr
##integrasi
##integrasikan
##inter
##intesis
##intik
##inting
##intir
##intis
##into
##inton
##intus
##inum
##inus
##iny
##inya
##inyur
##io
##ion
##ior
##ious
##ip
##ipa
##ipan
##ipe
##ipi
##ipik
##ipkan
##ips
##ipta
##iptakan
##iptanya
##ipto
##ipulasi
##ipun
##iput
##ir
##ira
##iraan
##irah
##irahat
##irakan
##iram
##iran
##irannya
##iranya
##irat
##ird
##ire
##ires
##iri
##irian
##irik
##irikan
##irim
##irin
##iring
##iringi
##irinya
##iris
##irkan
##irman
##irmasi
##irnya
##iro
##irs
##iru
##iruan
##irus
##iry
##is
##isa
##isah
##isahan
##isahkan
##isal
##isan
##isap
##isar
##isasi
##isasikan
##ische
##ise
##iser
##ish
##isha
##ishi
##isi
##isia
##isial
##isian
##isida
##isiensi
##isih
##isik
##isikan
##isimal
##isin
##isinya
##ision
##isip
##isipasi
##isipkan
##isipl
##isir
##isisi
##isit
##isitas
##isius
##isk
##iska
##iskan
##iskinan
##iskus
##iskusikan
##isl
##ism
##isma
##isme
##isnis
##isnya
##iso
##ison
##iss
##issa
##ission
##ist
##ista
##istan
##istem
##isten
##istensi
##ister
##istik
##istika
##istor
##istr
##istri
##istribusi
##istribusikan
##istrik
##istrikan
##istry
##isu
##isy
##it
##ita
##itaan
##itab
##itage
##ital
##italisasi
##itan
##itanya
##itar
##itaran
##itari
##itas
##itasi
##itat
##itatif
##itator
##itch
##ite
##ited
##itel
##iten
##iter
##iteria
##ites
##ith
##iti
##itia
##ities
##itif
##itiga
##itik
##iting
##ition
##itional
##itis
##itiv
##itive
##itivitas
##itkan
##itmen
##itno
##ito
##iton
##itor
##itr
##itra
##itraan
##itri
##its
##itt
##itter
##itu
##itung
##itungan
##ity
##itya
##itz
##ium
##ius
##iv
##iva
##ival
##ive
##iver
##ivers
##ives
##ivid
##ivora
##iwa
##ix
##iy
##iyah
##iz
##izat
##ize
##izen
##izinkan
##izu
##j
##ja
##jaan
##jad
##jadi
##jaga
##jah
##jai
##jaja
##jak
##jakan
##jakarta
##jam
##jan
##jana
##jang
##jar
##jaran
##jat
##jati
##jauh
##jawab
##jaya
##je
##ject
##jek
##jelas
##jem
##jemah
##jemahkan
##jen
##jet
##ji
##jian
##jid
##jikan
##jin
##jk
##jo
##jok
##jol
##jong
##jono
##js
##ju
##jual
##juangkan
##jub
##juk
##jun
##jur
##k
##ka
##kab
##kad
##kah
##kal
##kala
##kam
##kan
##kand
##kandung
##kang
##kannya
##kar
##kara
##kas
##kat
##kata
##kati
##kau
##ke
##kel
##ken
##ker
##kes
##kesmas
##ket
##key
##kh
##ki
##kie
##kif
##kifli
##kin
##king
##kins
##kinson
##kip
##kir
##kit
##kl
##klub
##km
##kn
##ko
##kok
##kol
##kom
##kon
##kop
##kos
##kot
##kota
##kov
##kp
##kr
##kre
##krip
##kripsi
##kripsikan
##ks
##kt
##ku
##kuit
##kul
##kum
##kup
##kus
##ky
##l
##la
##lab
##lad
##lag
##lah
##lai
##laim
##lain
##lak
##lakuan
##lakukan
##lam
##lamasi
##lan
##lanan
##land
##landia
##lands
##lang
##langga
##lanjut
##lap
##lar
##larasikan
##las
##lasi
##lasifikasikan
##lat
##latul
##lav
##law
##lawan
##lay
##le
##leb
##led
##ledge
##lee
##leg
##leh
##lek
##leks
##lem
##lemen
##lement
##len
##leng
##ler
##les
##less
##let
##lex
##ley
##li
##lia
##liam
##lian
##lic
##lid
##lie
##lier
##lies
##life
##liga
##light
##lik
##likan
##likasi
##likasikan
##lim
##lima
##lin
##line
##lines
##ling
##link
##lion
##lip
##lir
##lis
##lish
##list
##lit
##lo
##load
##lock
##log
##loh
##loid
##loitasi
##lok
##lokir
##lom
##lon
##long
##lop
##lor
##los
##lot
##lov
##low
##ls
##lu
##luan
##luaskan
##luk
##lukan
##lukkan
##lum
##lung
##lus
##lusif
##ly
##lyn
##lywood
##m
##ma
##mac
##mad
##mah
##mail
##mak
##mal
##man
##mana
##mani
##mania
##mann
##map
##mar
##mark
##market
##mas
##masin
##master
##mat
##mata
##mati
##matik
##matis
##mawan
##mawati
##mb
##me
##med
##mel
##men
##ment
##mentasi
##menya
##mer
##mes
##met
##mi
##mid
##mik
##mil
##mill
##min
##ming
##mir
##mis
##mit
##ml
##mm
##mn
##mo
##mod
##mon
##mond
##mont
##mor
##more
##mos
##mp
##ms
##mu
##mud
##mul
##mun
##mund
##mur
##mus
##mut
##my
##n
##na
##nah
##nahan
##nahkan
##nai
##nam
##nan
##nar
##nas
##nasi
##nd
##ne
##negara
##nel
##nen
##ner
##ners
##nes
##ness
##net
##neum
##ney
##ng
##ni
##nia
##nie
##nik
##ning
##nis
##nisa
##nn
##nnya
##no
##nologi
##non
##nov
##ns
##nu
##num
##nus
##ny
##nya
##o
##oa
##oan
##ob
##oba
##obaan
##obak
##obar
##obat
##obatan
##obatkan
##obe
##obi
##obia
##obil
##obo
##obos
##obot
##obus
##oc
##occus
##och
##oci
##ock
##oco
##ocok
##ocokan
##ocoran
##ocus
##od
##oda
##odadi
##odai
##ode
##odel
##oder
##odes
##odi
##odifikasi
##odik
##odin
##oding
##odo
##odohan
##odohkan
##odong
##ody
##oe
##oel
##oeng
##of
##off
##ofil
##ofon
##oft
##og
##oga
##ogan
##ogasi
##ogen
##ogenesis
##ogenik
##ogi
##ogiri
##ogle
##oglob
##oglobin
##ogn
##ogo
##ogp
##ogr
##ograf
##ografer
##ografi
##ografis
##ogram
##ograph
##ography
##oh
##oha
##ohan
##oharjo
##ohidrat
##ohkan
##oho
##ohol
##ohon
##ohonan
##ohong
##ohongan
##ohor
##oi
##oid
##ois
##oj
##ok
##oka
##okan
##okasi
##okasikan
##okat
##oke
##okerto
##oki
##okimia
##okin
##okkan
##okl
##oklatan
##oko
##okok
##okol
##okong
##okrasi
##oks
##oksi
##oksida
##oksidasi
##oksin
##oku
##okumentasikan
##okus
##okuskan
##ol
##ola
##olah
##olahan
##olak
##olakan
##olaknya
##olan
##olar
##olas
##olasi
##olat
##old
##older
##ole
##oleh
##olehkan
##olek
##oleksi
##oleransi
##oles
##olet
##olf
##oli
##olia
##olid
##olik
##olin
##olis
##olisis
##olit
##olitan
##olitik
##oll
##olla
##oln
##olo
##olog
##ologi
##ological
##ologinya
##ologis
##ology
##olok
##olon
##olong
##olongan
##olongkan
##olus
##olusi
##om
##oma
##oman
##omas
##omb
##omba
##ombak
##ombakan
##ombang
##ombe
##ombinasikan
##ombo
##ombolan
##ombong
##ombongan
##ome
##omen
##omend
##omendasikan
##omer
##omet
##ometer
##ometri
##omi
##ominasi
##omo
##omod
##omodasi
##omon
##omor
##omotif
##omp
##ompa
##ompakan
##ompat
##ompet
##ompok
##ompokan
##omputer
##omun
##omunikasi
##omunikasikan
##omy
##on
##ona
##onaktifkan
##onal
##onald
##onan
##onansi
##onaris
##onc
##oncong
##ond
##onda
##onde
##onder
##ondo
##ondong
##one
##onegoro
##onel
##onen
##oner
##ones
##onesia
##oney
##onfirmasi
##ong
##ongan
##ongg
##ongi
##ongk
##ongkar
##ongo
##ongs
##ongsong
##oni
##onia
##onic
##onik
##onim
##onin
##oning
##onis
##onisme
##onium
##onj
##onjol
##onment
##onn
##onna
##ono
##onom
##onomi
##ons
##onsentrasi
##onso
##onsori
##onstr
##onstruksi
##onsumsi
##ont
##onta
##ontak
##ontakan
##ontal
##ontaminasi
##ontan
##ontarkan
##ontin
##onto
##onton
##ontr
##ontrak
##ontrol
##onversi
##ony
##onya
##oo
##ood
##ool
##oom
##oon
##oord
##oordinasi
##oordinasikan
##op
##opa
##opak
##opang
##opati
##ope
##opel
##open
##oper
##operasi
##operasikan
##oph
##ophy
##opi
##opia
##opik
##oplas
##oplasma
##opo
##opol
##opoli
##opong
##opot
##opp
##opr
##ops
##opsi
##opsis
##opter
##optera
##optimalkan
##opul
##opuler
##opulerkan
##opy
##or
##ora
##orak
##oral
##orama
##oran
##orang
##orangan
##orasi
##orb
##orbanan
##ord
##ordan
##ordania
##order
##ordi
##ore
##orejo
##oreng
##ores
##oret
##orf
##org
##organ
##organik
##organisasi
##organisir
##organisme
##ori
##oria
##orial
##orientasi
##ories
##oris
##orit
##oritas
##orium
##ork
##orkan
##orm
##ormal
##ormasi
##ormat
##ormatan
##ormati
##orn
##oro
##orok
##orong
##orot
##oroti
##ors
##ort
##orter
##ory
##os
##osa
##osal
##osan
##osari
##osaurus
##ose
##osen
##osfer
##osh
##oshi
##osi
##osiasi
##osiasikan
##osin
##osip
##osis
##osisi
##osisikan
##osistem
##osit
##oskop
##oso
##osof
##osok
##osol
##osom
##osongan
##osongkan
##osot
##osp
##oss
##ost
##oster
##ostik
##osting
##ostr
##ot
##ota
##otaan
##otakan
##otan
##otanya
##otasi
##otbah
##ote
##otek
##oteknologi
##otel
##oten
##oter
##oterapi
##otes
##oth
##other
##oti
##otif
##otik
##otika
##otil
##otin
##oting
##otis
##otivasi
##oto
##otomi
##oton
##otong
##otop
##otor
##otori
##otret
##otrop
##ots
##ott
##ou
##ount
##our
##ous
##ouse
##out
##ouw
##ov
##ova
##ovasi
##ove
##oven
##over
##overy
##ovic
##ovo
##ow
##owati
##ower
##owi
##own
##owo
##owongan
##ows
##ox
##oy
##oya
##oyan
##oyang
##oyo
##oyong
##oyono
##oz
##p
##pa
##pad
##pada
##pahaman
##pak
##pal
##pan
##pang
##panjang
##papan
##par
##parah
##pas
##pat
##pati
##pb
##pd
##pe
##ped
##pei
##pek
##pektif
##pel
##pen
##peng
##per
##perimen
##pers
##pes
##pet
##ph
##phi
##phone
##pi
##pin
##pinang
##ping
##pir
##pirasi
##pis
##pl
##plan
##play
##player
##ple
##plin
##ploitasi
##plorasi
##plus
##pm
##pn
##po
##point
##pol
##pon
##pons
##pool
##por
##pora
##port
##pos
##pot
##pp
##pr
##pres
##presi
##presikan
##press
##pret
##pretasikan
##pro
##prov
##ps
##psi
##pt
##pu
##pun
##pur
##pura
##pus
##put
##putra
##px
##py
##q
##qa
##qah
##qi
##qq
##qu
##que
##ques
##quet
##r
##ra
##rab
##rac
##rad
##raf
##rag
##raga
##rah
##rahan
##rahim
##rahman
##rai
##rain
##raj
##rajin
##rak
##rakan
##ral
##ram
##rama
##ran
##rana
##rang
##rani
##rap
##rar
##ras
##rase
##rasi
##rat
##rated
##rates
##rati
##raw
##ray
##raya
##rb
##rd
##re
##reasi
##red
##ree
##reg
##rei
##rejo
##rek
##rel
##rell
##rem
##ren
##reng
##rent
##rep
##res
##resentasikan
##resi
##resiasi
##ress
##rest
##ret
##rey
##rh
##ri
##ria
##rian
##rib
##ribadian
##ric
##rich
##rick
##rid
##rida
##ridge
##rie
##rier
##rif
##right
##rik
##rika
##rikan
##ril
##rim
##rin
##rina
##ring
##rio
##rioritas
##rioritaskan
##rip
##rir
##ris
##rise
##rist
##risten
##rit
##ritik
##rium
##rix
##ro
##road
##rob
##roc
##rod
##roduksi
##roe
##rof
##roh
##roid
##rok
##rokan
##rol
##rolet
##roli
##rom
##ron
##rong
##room
##rop
##ror
##ros
##rosa
##roses
##roskop
##ross
##rot
##roto
##rough
##rov
##rove
##row
##rs
##rt
##ru
##rud
##ruh
##ruk
##rul
##rum
##run
##rung
##rup
##rus
##rut
##rutan
##ry
##s
##sa
##saat
##safat
##sai
##sal
##san
##sang
##sar
##sara
##sari
##sat
##say
##sburg
##sc
##scape
##sch
##sche
##sd
##se
##sebut
##sec
##sed
##sek
##sel
##self
##sem
##semen
##sen
##sep
##ser
##sertakan
##ses
##sesi
##set
##seum
##sey
##sh
##sha
##shi
##ship
##shire
##shop
##show
##si
##sia
##sial
##side
##sie
##sif
##sigen
##sign
##sih
##sihan
##sihkan
##sik
##sikan
##sil
##sin
##sing
##sinya
##sion
##sional
##sip
##sir
##sis
##sit
##sium
##sius
##sk
##ski
##sky
##sl
##sm
##sman
##so
##sol
##son
##sono
##sor
##sour
##sp
##spot
##ss
##st
##stal
##stan
##standing
##star
##station
##stein
##ster
##stone
##str
##stream
##su
##suf
##sul
##sum
##sun
##sur
##sus
##sw
##sy
##syah
##syat
##syur
##t
##ta
##taan
##tab
##tabilan
##tac
##tad
##taf
##tag
##tah
##tail
##tain
##tak
##tal
##tan
##tang
##tanya
##tar
##tara
##tarik
##tas
##tasi
##tat
##tator
##tatus
##taz
##tc
##te
##tech
##tek
##tel
##ten
##teng
##tenham
##tentu
##ter
##tera
##teri
##teria
##teriak
##terior
##tern
##ternal
##ters
##tery
##tes
##th
##tha
##the
##ti
##tia
##tial
##tian
##tiar
##tib
##tiban
##tic
##tical
##tice
##tics
##tid
##tie
##tif
##tifikasi
##tihad
##tik
##tika
##tikan
##til
##tim
##time
##tin
##ting
##tinggi
##tinya
##tion
##tional
##tions
##tip
##tipe
##tis
##tisida
##titu
##titusi
##tium
##tiv
##tiva
##tival
##tivasi
##tive
##tivitas
##tk
##tle
##tm
##tn
##to
##tober
##tom
##ton
##tonik
##top
##tor
##toran
##toro
##town
##tp
##tr
##tra
##track
##trad
##trak
##trans
##trasi
##tre
##tren
##tri
##trik
##trin
##tris
##tro
##tron
##trop
##truk
##truksi
##truksikan
##truktur
##trukturisasi
##try
##ts
##tt
##tu
##tua
##tual
##tualang
##tuan
##tuanya
##tuasi
##tug
##tugas
##tuh
##tuhan
##tui
##tuj
##tuju
##tujuan
##tujui
##tuk
##tukan
##tukar
##tukarkan
##tul
##tulang
##tulis
##tum
##tunya
##tup
##tur
##tura
##turan
##turbasi
##ture
##tures
##turi
##turkan
##turut
##tus
##tusan
##tusuk
##tut
##tuti
##tv
##ty
##tz
##u
##ua
##ual
##uali
##ualian
##ualitas
##uan
##uang
##uannya
##uansa
##uanya
##uap
##uar
##uara
##uarakan
##uard
##uari
##uary
##uas
##uasa
##uasai
##uasainya
##uasan
##uasi
##uaskan
##uat
##uatu
##ub
##uba
##ubah
##ubahan
##uban
##ubang
##ubi
##ubl
##ublik
##ublikasikan
##ubs
##ubung
##ubungan
##ubungi
##ubungkan
##uc
##ucapkan
##ucci
##uce
##uch
##uci
##ucian
##ucikan
##uck
##ucon
##uction
##ucu
##ucut
##ud
##uda
##udaan
##udah
##udahkan
##udan
##udang
##udara
##uddin
##ude
##udh
##udi
##udian
##udikan
##udin
##udo
##udu
##uduk
##udukan
##uduki
##udul
##udung
##udut
##ue
##uel
##uela
##uf
##ug
##uga
##ugat
##uge
##ugerah
##ugerahi
##ugerahkan
##ugh
##ught
##ugikan
##ugo
##ugu
##uguhkan
##uguran
##uh
##uha
##uhan
##uhi
##uhkan
##uhnya
##uhu
##uhur
##ui
##uin
##uis
##uit
##uj
##uja
##ujan
##uji
##ujian
##uju
##ujud
##ujudkan
##ujuk
##ujung
##ujuran
##uk
##uka
##ukaan
##ukah
##ukai
##ukainya
##ukakan
##ukan
##ukanya
##ukar
##ukau
##uke
##uki
##ukim
##ukir
##ukis
##ukkan
##uko
##ukses
##uksi
##uktur
##uku
##ukuhan
##ukuhkan
##ukul
##ukuli
##ukum
##ukung
##ukupi
##ukur
##ukuran
##ukus
##ul
##ula
##ulaan
##ulah
##ulai
##ulam
##ulan
##ulang
##ulangan
##ulangi
##ulap
##ular
##ularis
##ulas
##ulasi
##ulasikan
##ulat
##ulatif
##ulator
##ulauan
##uld
##ule
##uler
##uli
##ulia
##uliah
##uliahan
##uliakan
##ulik
##ulikan
##ulin
##uling
##ulingkan
##ulir
##ulis
##ulistiwa
##ulit
##ulkan
##ull
##ullah
##ulosa
##ulsi
##ult
##ultasi
##ultur
##ultural
##ulu
##uluh
##uluk
##uluki
##ulum
##ulung
##ulur
##ulus
##ulusan
##uluskan
##ulyo
##um
##uma
##umah
##uman
##umar
##umas
##umb
##umba
##umbang
##umber
##umbu
##ume
##umen
##ument
##umentasi
##umer
##umi
##umkan
##umlah
##umo
##ump
##umpa
##umpah
##umpai
##umpalan
##umpang
##umpuhkan
##umpul
##umpulan
##umpulkan
##umsi
##umsikan
##umu
##umum
##umumkan
##umur
##umuskan
##un
##una
##unahan
##unan
##unangan
##unas
##unc
##unci
##uncing
##unculan
##unculkan
##uncur
##uncurkan
##und
##unda
##undaan
##undai
##undan
##undang
##under
##undi
##unduk
##unduran
##une
##unes
##ung
##unga
##ungan
##unge
##ungg
##unggah
##unggal
##unggu
##ungi
##ungk
##ungkan
##ungkap
##ungkapkan
##ungkidul
##ungkin
##ungkinan
##ungkinkan
##ungku
##ungkung
##ungkus
##ungsi
##ungsikan
##ungu
##ungun
##ungut
##ungutan
##uni
##unia
##uning
##unit
##unj
##unjang
##unjuk
##unjukan
##unjukkan
##unjung
##unjungan
##unjungi
##unk
##unkan
##unn
##uno
##unt
##unting
##untu
##untuhan
##untuk
##untukan
##untukkan
##untungan
##untungkan
##untut
##unuh
##unungan
##uny
##unya
##unyai
##unyi
##unyikan
##up
##upa
##upai
##upakan
##upan
##upang
##upas
##upi
##upkan
##uplai
##upsi
##upuk
##upun
##ur
##ura
##urah
##urahan
##urai
##uran
##urance
##urang
##urangan
##uransi
##uras
##urasi
##urat
##urch
##ure
##uri
##uria
##urian
##urkan
##urn
##urnian
##urnya
##uro
##urr
##urs
##ursor
##urt
##uru
##uruan
##uruh
##uruhan
##uruk
##urun
##urung
##urus
##urusan
##urutan
##ury
##us
##usa
##usah
##usaha
##usahaan
##usahakan
##usai
##usak
##usan
##usat
##use
##usen
##user
##ush
##usi
##usia
##usiaan
##usif
##usik
##usim
##usin
##usinya
##usion
##uskan
##usnya
##uss
##ussalam
##ust
##usta
##ustakaan
##uster
##ustik
##ustr
##ustru
##usu
##usuk
##usukan
##usul
##usuma
##usun
##usur
##usus
##ut
##uta
##utama
##utamaan
##utan
##utanan
##utang
##utani
##utannya
##utar
##utaran
##utasi
##utat
##ute
##uter
##uth
##uti
##utif
##utiful
##utik
##uting
##ution
##utip
##utkan
##utnya
##uto
##utr
##utra
##utrad
##utradarai
##utri
##uts
##utu
##utuh
##utuhan
##utus
##utusan
##utuskan
##utut
##uty
##uw
##uwa
##ux
##uy
##uz
##v
##va
##val
##van
##vari
##vas
##vd
##ve
##ved
##vel
##ven
##vensi
##ver
##vers
##versi
##vert
##ves
##vet
##vey
##vi
##via
##vian
##view
##ville
##vin
##ving
##vir
##virus
##vis
##visor
##vo
##vol
##vy
##w
##wa
##waan
##wah
##wai
##wak
##wakan
##waktu
##wal
##walk
##wall
##wan
##wana
##wang
##wangi
##wanto
##wanya
##war
##wara
##ward
##ware
##wari
##warna
##was
##wat
##water
##wati
##wave
##way
##wayatkan
##ways
##we
##weg
##weh
##well
##wet
##wh
##wi
##wich
##wick
##wid
##wide
##width
##wijaya
##wil
##win
##wir
##wis
##wisata
##wo
##won
##wono
##wood
##word
##work
##world
##wr
##wu
##wulan
##wung
##x
##xi
##xon
##xt
##xx
##xy
##y
##ya
##yad
##yadi
##yah
##yai
##yak
##yakarta
##yakini
##yal
##yam
##yama
##yan
##yana
##yang
##yangan
##yangi
##yangkan
##yani
##yanti
##yanto
##yanya
##yar
##yarakat
##yarakatan
##yaran
##yarat
##yaratkan
##yard
##yas
##yat
##yata
##yataan
##yati
##yaw
##yawan
##yawar
##yawarah
##yc
##ycle
##yd
##ye
##yek
##yen
##yer
##yet
##yg
##yi
##yid
##yim
##yin
##yl
##ym
##yn
##yo
##yol
##yon
##yong
##yono
##you
##yp
##yr
##ys
##ysis
##yte
##yu
##yum
##yun
##yung
##yut
##yyah
##z
##za
##zah
##zak
##zal
##zam
##zan
##zar
##zat
##zation
##ze
##zed
##zel
##zen
##zer
##zh
##zhab
##zhou
##zi
##ziarah
##zil
##zim
##zin
##zine
##zing
##zir
##zo
##zoa
##zon
##zu
##zuki
##zy
##zz
##zzle
$
%
&
(
)
*
+
,
-
.
/
0
00
000
001
007
01
010
02
03
04
05
050
06
060
07
08
09
1
10
100
1000
101
1010
102
103
104
105
106
107
108
109
11
110
1100
111
112
113
114
115
116
117
118
119
12
120
1200
121
122
123
124
125
126
127
128
129
13
130
1300
131
132
133
134
135
136
137
138
139
14
140
1400
141
142
143
144
145
146
147
148
149
15
150
1500
151
152
1520
153
154
155
156
157
158
159
16
160
1600
161
162
163
164
165
166
167
168
169
17
170
1700
171
172
173
174
175
176
177
178
179
18
180
1800
182
183
1830
184
185
186
187
188
189
19
190
1900
1905
1908
1910
1911
1912
1914
1917
1918
1919
192
1920
1922
1923
1924
1925
1926
1927
1928
1929
193
1930
1933
1934
1935
1936
1937
1938
1939
194
1940
1941
1942
1943
1944
1945
1946
1947
1948
1949
195
1950
1951
1952
1953
1954
1955
1956
1957
1958
1959
196
1960
1961
1962
1963
1964
1965
1966
1967
1968
1969
197
1970
1971
1972
1973
1974
1975
1976
1977
1978
1979
198
1980
1981
1982
1983
1984
1985
1986
1987
1988
1989
199
1990
1991
1992
1993
1994
1995
1996
1997
1998
1999
2
20
200
2000
2001
2002
2003
2004
2005
2006
2007
2008
2009
201
2010
2011
2012
2013
2014
2015
2016
2017
2018
2019
202
2020
2025
203
2030
204
205
206
207
208
209
21
210
211
212
213
214
215
216
217
218
219
22
220
221
222
223
224
225
226
227
228
229
23
230
231
232
233
234
235
236
237
238
24
240
244
245
246
247
25
250
2500
253
255
256
26
260
27
270
275
28
280
285
29
3
30
300
3000
303
305
31
310
311
312
313
315
316
32
320
322
323
325
326
328
33
330
335
338
34
340
35
350
36
360
365
37
375
38
380
39
4
40
400
4000
41
410
411
42
420
425
43
430
44
45
450
46
47
48
480
49
5
50
500
5000
51
510
512
515
52
520
525
53
530
54
55
550
56
57
58
59
6
60
600
6000
61
610
612
62
63
64
640
65
650
66
67
68
69
7
70
700
7000
71
710
72
720
73
74
75
750
76
77
78
79
8
80
800
81
82
83
84
85
850
86
87
88
89
9
90
900
91
911
92
93
94
95
96
97
98
99
999
:
;
=
?
@
[
[CLS]
[MASK]
[PAD]
[SEP]
[UNK]
\
]
^
_
`
a
aa
ab
aba
abad
abadi
abah
abang
abb
abbas
abbasi
abc
abd
abdi
abdul
abdullah
abdur
abdurrahman
abe
abi
abidin
abjad
abnormal
abor
aborsi
about
abraham
abri
abs
absen
absol
absolut
absor
abstr
abstrak
abu
ac
academ
academy
acak
acap
acara
acaranya
acc
access
account
ace
aceh
ach
achi
achmad
acid
act
action
activ
active
acuan
ad
ada
adak
adakalanya
adalah
adam
adanya
adap
adaptasi
adapun
adat
add
ade
adegan
aden
adh
adi
adik
adiknya
adil
adip
adipati
adit
aditif
aditya
adj
admin
administr
administrasi
administratif
administration
administrator
adobe
adonan
adopsi
adr
adrian
adu
adv
advanced
adventure
advokasi
advokat
ae
aer
af
afc
aff
afgan
afghan
afghanistan
afiliasi
afrika
after
ag
aga
again
agak
agaknya
agam
agama
agamanya
agar
age
agen
agency
agenda
ageng
agensi
agent
agnes
agr
agraria
agraris
agre
agregat
agresi
agresif
agro
agu
agung
agus
agustus
ah
ahl
ahli
ahm
ahmad
ahok
ai
aib
aid
aids
ain
air
airlangga
airlines
airnya
airport
ais
aisyah
aj
aja
ajaib
ajakan
ajang
ajar
ajaran
ajarannya
aji
ak
aka
akad
akadem
akademi
akademik
akademis
akademisi
akal
akan
akar
akarnya
akb
akbar
akh
akhir
akhirat
akhirnya
akhlak
aki
akibat
akibatnya
akomodasi
akrab
akreditasi
aks
aksara
akselerasi
aksen
akses
aksesoris
aksi
aksinya
akta
aktif
akting
aktiv
aktivasi
aktivis
aktivitas
aktivitasnya
aktor
aktris
aktu
aktual
aku
akuarium
akuisisi
akumulasi
akun
akuntan
akuntansi
akurasi
akurat
akustik
akut
al
ala
alam
alamat
alami
alamiah
alamnya
alan
alang
alarm
alas
alasan
alasannya
alat
alb
alba
alber
albert
album
alc
ald
aldi
alergi
alex
alexand
alexander
alf
alfa
alfred
alg
alga
algorit
alh
alhasil
ali
alian
aliansi
alias
alice
alien
alif
alih
alim
aliran
alis
aliyah
alj
alja
aljabar
alk
alkal
alkali
alkitab
alkohol
all
allah
allen
alm
alma
almamater
almar
almarhum
alokasi
alp
alph
alpha
alq
alquran
als
also
alt
altar
altern
alternatif
alternative
alum
aluminium
alumni
alumnus
alun
alur
alv
alya
alz
am
ama
amal
aman
amanah
amanat
amand
amanda
amar
amarah
amat
amatir
amazing
amazon
amb
ambang
ambil
ambisi
ambon
amd
amer
america
american
amerika
amf
ami
amil
amin
amino
amir
amm
amp
ampas
ampat
ampel
amper
ampuh
ampun
amr
amsterdam
amun
amunisi
amy
an
ana
anak
anakan
anaknya
anal
analis
analisis
analog
analogi
analy
analysis
ananda
anang
anarkis
anas
anat
anatomi
anc
ancaman
anch
ancol
and
anda
andal
andalan
anderson
andi
andil
andr
andre
andrea
andreas
andrew
android
andy
ane
aneh
anehnya
aneka
anemia
ang
angel
angeles
angg
angga
anggap
anggapan
anggaran
anggota
anggotanya
anggrek
anggun
anggur
angi
angin
angk
angka
angkasa
angkat
angkatan
angker
angklung
angkot
angkut
angkutan
angs
angsa
ani
anies
anim
animal
animalia
animasi
anime
anis
anita
anj
anjing
anjuran
ann
anna
anne
annual
anom
anonim
anorganik
ant
antagonis
antar
antara
antaranya
antariksa
antarmuka
antasari
antena
anth
anthony
anti
antib
antibiotik
antibodi
antigen
antik
antim
anting
antioks
antioksidan
antis
antiv
antivirus
anto
anton
antonio
antrop
antropologi
antusias
antv
anu
anugerah
anus
anwar
any
anyaman
anyar
ao
ap
apa
apabila
apakah
apalagi
apapun
apar
aparat
aparatur
apartemen
apat
apbd
apbn
apel
api
aplikasi
apol
apollo
apot
apotek
apoteker
app
appl
apple
application
apresiasi
april
apung
aq
aqu
aqua
aquari
ar
ara
arab
arabia
araf
arah
arahan
aran
arang
arb
arc
arca
arch
ard
ardi
are
area
areal
arema
aren
arena
arg
argentina
argo
argumen
argumentasi
ari
arie
arief
ariel
arif
arifin
aris
arist
aristoteles
arit
arj
arjuna
ark
arke
arkeolog
arkeologi
arm
armada
army
arn
arom
aroma
arr
array
ars
arsenal
arsip
arsitek
arsitektur
art
arteri
arthropoda
arthur
arti
artian
artif
artikel
artikelnya
artinya
artis
artist
artistik
arts
arung
arus
arwah
arya
as
asa
asahan
asal
asalkan
asalnya
asam
asap
asas
asasi
asc
asean
asem
asep
aset
asetat
ash
asi
asia
asian
asih
asim
asin
asing
asisten
ask
asl
asli
aslinya
asm
asma
asmara
asn
asosiasi
asp
aspal
aspek
aspir
aspirasi
asrama
asri
ass
asset
assist
associ
association
ast
asteroid
aston
astr
astra
astronom
astronomi
asuh
asuhan
asumsi
asupan
asuransi
asy
at
ata
atap
atas
atasan
atasannya
atasnya
atau
ataupun
ath
athena
ati
atl
atlantik
atlantis
atlet
atletico
atletik
atm
atmos
atmosfer
atom
atp
atr
atraksi
atribut
ats
att
atta
attack
aturan
au
aud
audi
audio
audisi
audit
aug
august
aula
aulia
aur
aura
aus
austr
australia
austria
aut
auth
author
autisme
auto
autom
av
avatar
ave
avenue
aver
avi
aw
awak
awal
awalan
awalnya
awam
awan
award
awards
away
awet
ax
axis
ay
aya
ayah
ayahnya
ayam
ayat
ayo
ayu
ayub
az
azhar
aziz
b
ba
bab
baba
babad
babak
babel
babi
baby
bac
baca
bacaan
bach
back
background
bad
bada
badai
badak
badan
badannya
badar
badung
badut
bae
baek
bag
baga
bagai
bagaikan
bagaiman
bagaimana
bagaimanapun
bagan
bagasi
baghdad
bagi
bagian
bagiannya
bagikan
baginda
baginya
bagus
bah
bahagia
bahan
bahar
bahari
bahasa
bahasanya
bahawa
bahaya
bahkan
bahu
bahw
bahwa
bahwasanya
bai
baik
baiknya
bait
baitul
baj
baja
bajak
baju
bak
bakal
bakar
bakat
bakau
bakrie
baks
bakso
bakteri
bakti
baku
bal
bala
balai
balan
balap
balapan
balas
balasan
bale
bali
balik
balikpapan
balita
ball
balok
balon
bam
bamb
bambang
bambu
ban
band
banda
bandar
bandara
banding
bandingkan
bandung
bandwidth
bang
bangga
bangk
bangka
bangkai
bangkalan
bangkit
bangkok
bangkrut
bangku
bangladesh
bangs
bangsa
bangsanya
bangsawan
bangun
bangunan
bangunannya
bani
banj
banjar
banjarbaru
banjarmasin
banjarnegara
banjir
bank
banking
bann
bant
bantal
bantalan
banten
banteng
bantu
bantuan
bantul
bany
banyak
banyaknya
banyu
banyumas
banyuwangi
bap
bapa
bapak
bapaknya
bar
bara
barang
barangkali
barat
barb
barcel
barcelona
barel
bari
baris
barisan
barito
barn
baron
bart
baru
barulah
barunya
barus
bas
basa
basah
base
based
bash
basi
basic
basil
basis
basket
baso
basri
bass
basuki
basw
baswedan
bat
bata
batak
batal
batalyon
batam
batang
batangnya
batara
batas
batasan
batavia
baterai
bath
batik
batin
batman
battle
batu
batuan
batubara
batuk
batur
bau
baut
baw
bawa
bawaan
bawah
bawahan
bawahannya
bawahnya
bawang
bay
baya
bayang
bayangan
bayar
bayaran
bayern
bayi
bayinya
bayu
baz
bb
bbc
bbm
bc
bca
bd
be
bea
beach
bean
bear
beasiswa
beat
beauty
beb
beban
bebas
bebatuan
bebek
beberapa
bec
becak
beck
bed
beda
bedah
bedanya
bee
been
bef
before
beg
begitu
beh
bei
beijing
bej
bek
bekal
bekas
bekasi
bekerj
bekerja
bekerjasama
beku
bel
bela
beladiri
belah
belahan
belajar
belak
belaka
belakang
belakangan
belakangnya
belalang
belanda
belang
belanja
belas
belasan
belerang
belgia
beli
belia
beliau
belitung
bell
bella
belle
belok
beluk
belum
belut
bem
ben
benang
benar
bencana
benci
bend
benda
bendahara
bendera
bendungan
beng
bengk
bengkalis
bengkel
bengkok
bengkulu
benih
bening
benny
bensin
bent
bentang
benteng
bentrok
bentrokan
bentuk
bentukan
bentuknya
benturan
benua
benz
bepergian
ber
beracun
berada
beradaptasi
beradu
beragam
beragama
berair
berak
berakar
berakhir
berakhirnya
berakibat
beraksi
beraktivitas
beralamat
beralasan
beralih
beralkohol
berambut
beran
beranak
beraneka
berangg
beranggapan
beranggotakan
berangkat
berangsur
berani
beranjak
berant
berantai
berantakan
berapa
berapi
berar
berarti
beras
berasal
berat
beratnya
beraturan
berau
berawal
berb
berba
berbadan
berbagai
berbagi
berbah
berbahan
berbahasa
berbahaya
berbakat
berbakti
berbalik
berbanding
berbaring
berbaris
berbasis
berbatasan
berbau
berbaur
berbayar
berbeda
berbekal
berbel
berbelanja
berbentuk
berbicara
berbincang
berbisnis
berbobot
berbohong
berbuah
berbuat
berbulan
berbulu
berbunga
berbunyi
berburu
berc
bercabang
bercahaya
bercak
bercampur
bercanda
bercerai
bercerita
bercocok
bercorak
berd
berdagang
berdakwah
berdampak
berdampingan
berdarah
berdasar
berdasarkan
berdatangan
berdaulat
berdaya
berdebat
berdekatan
berdiam
berdiameter
berdiri
berdirinya
berdiskusi
berdo
berdoa
berdomisili
berdosa
berdua
berduka
berdurasi
bereaksi
beredar
bereks
bereksperimen
berenang
berencana
beres
berevolusi
berf
berfirman
berfokus
berfungsi
berg
berga
bergabung
bergambar
berganti
bergantian
bergantung
bergaris
bergaul
bergaya
bergegas
bergel
bergelar
bergelombang
bergen
bergengsi
bergenre
berger
bergerak
bergeser
bergi
bergulir
berguna
berguru
berh
berhadapan
berhak
berhala
berharap
berharga
berhasil
berhati
berhenti
berhubungan
beri
berib
beribadah
berik
berikan
berikut
berikutnya
beriman
berin
beringin
berinisi
berinisiatif
berinteraksi
berinvestasi
berisi
berisikan
berisiko
beristirahat
berita
berj
berjaga
berjalan
berjalannya
berjam
berjangka
berjanji
berjarak
berjasa
berjaya
berjenis
berjiwa
berjualan
berjuang
berjudul
berjumlah
berjumpa
berk
berkah
berkaitan
berkala
berkali
berkantor
berkapasitas
berkar
berkarakter
berkari
berkarya
berkas
berkat
berkata
berke
berkeb
berkebangsaan
berkebun
berkec
berkecepatan
berkecimpung
berked
berkedudukan
berkeinginan
berkekuatan
berkel
berkelahi
berkelanjutan
berkeli
berkeliaran
berkeliling
berkelompok
berkem
berkemah
berkembang
berkembangnya
berkenaan
berkenalan
berkenan
berkend
berkendara
berkep
berkepanjangan
berker
berkes
berkesempatan
berkesin
berkh
berkiprah
berkisah
berkisar
berkol
berkolaborasi
berkom
berkomentar
berkomitmen
berkompet
berkompetisi
berkomunikasi
berkons
berkonsentrasi
berkonsultasi
berkontr
berkontribusi
berkualitas
berkuasa
berkulit
berkumpul
berkunjung
berkurang
berkurangnya
berl
berlaga
berlainan
berlaku
berlakunya
berlalu
berlandaskan
berlangganan
berlangsung
berlangsungnya
berlanjut
berlapis
berlari
berlatar
berlatih
berlawanan
berlayar
berlebih
berlebihan
berlian
berlibur
berlimpah
berlin
berlindung
berlokasi
berlomba
berlubang
berm
bermacam
bermain
bermakna
bermaksud
berman
bermanfaat
bermarkas
bermasalah
bermasyarakat
bermata
bermimpi
berminat
bermotif
bermotor
bermuara
bermuatan
bermukim
bermula
bermunculan
bermus
bermutu
bern
berna
bernama
bernapas
bernard
berniat
bernilai
bernomor
bernuansa
berny
bernyanyi
berolah
beroperasi
berorientasi
berp
berpacaran
berpakaian
berpaling
berpandangan
berpangkat
berpart
berpartisipasi
berpas
berpasangan
berpasir
berpegang
berpen
berpend
berpendapat
berpendidikan
berpenduduk
berpeng
berpengalaman
berpengaruh
berpenghasilan
berper
berperan
berperang
berperilaku
berpesan
berpidato
berpihak
berpikir
berpindah
berpisah
berpotensi
berpr
berprestasi
berprofesi
berpuasa
berpusat
berputar
berry
bers
bersabda
bersah
bersahabat
bersaing
bersaksi
bersalah
bersama
bersamaan
bersamanya
bersambung
bersandar
bersangkutan
bersarang
bersatu
bersaudara
berseb
bersebelahan
bersedia
bersejarah
bersekolah
bersel
berselang
berselingkuh
berselisih
bersem
bersemangat
bersembunyi
bersenjata
bersentuhan
bersep
bersepeda
berser
berseru
bersiap
bersifat
bersih
bersikap
bersikeras
bersin
bersinar
berskala
berstatus
bersuara
bersumber
bersumpah
bersyukur
bert
bertab
bertah
bertahan
bertahap
bertahun
bertajuk
bertambah
bertambahnya
bertanding
bertanggung
bertani
bertanya
bertaraf
bertarung
bertek
bertekad
bertekanan
bertelur
bertem
bertema
bertemakan
berteman
bertempat
bertempur
bertemu
bertenaga
bertengkar
bertentangan
bertepatan
berteriak
berterima
bertiga
bertindak
bertingkat
bertipe
bertobat
bertolak
bertrans
bertu
bertubuh
bertugas
bertujuan
bertukar
bertulang
bertuliskan
bertum
bertumbuh
bertumpu
berturut
beruang
berubah
berujung
berukuran
berulang
berumur
beruntun
beruntung
berupa
berupaya
berurusan
berurutan
berusaha
berusia
bervari
bervariasi
berw
berwajah
berwarna
berwawasan
berwenang
berwujud
berz
bes
besar
besaran
besarnya
beserta
besi
besok
best
bet
beta
betapa
betawi
betina
betis
beton
better
betul
bey
bf
bg
bh
bhakti
bhay
bhayangkara
bi
bia
biak
bian
biang
biar
biara
biarkan
bias
biasa
biasanya
biaya
bib
bibi
bibir
bibit
bible
bic
bicara
bid
bidadari
bidan
bidang
bidangnya
bieber
big
bih
bij
bijak
bijaksana
biji
bijih
bijinya
bik
bikini
bil
bila
bilah
bilamana
bilang
bilangan
bilateral
bilik
bill
billboard
billy
bim
bima
bimb
bimbingan
bin
bina
binaan
binatang
biner
bing
bingkai
bingung
binjai
bint
bintan
bintang
bintara
binti
bintik
bio
biof
biografi
biokimia
biola
biologi
biologis
bios
bioskop
bioteknologi
bip
bir
bird
biro
birokrasi
birokrat
birth
biru
bis
bisa
biskuit
bisnis
bisnisnya
bisu
bit
bitcoin
biz
bj
bk
bl
bla
black
blackberry
blade
blanc
blank
bless
blind
blitar
block
blog
blogger
blok
blood
bloom
blora
blu
blue
blues
bluetooth
bm
bmw
bn
bni
bo
board
boat
bob
bobby
bobo
bobot
boc
bocah
bocor
bod
bodi
bodoh
body
boe
boeing
bog
bogor
boh
boj
bojonegoro
bojong
bok
bol
bola
bolak
boleh
bom
bomb
bomba
bombay
bon
bond
bondowoso
bone
boneka
bong
bongkar
bonjol
bontang
bonus
book
books
boom
boot
booth
bor
bord
border
borneo
borobudur
boros
bos
bosan
boss
boston
bot
botak
botol
boul
boulevard
bour
bow
box
boy
boyband
boyol
boyolali
boys
bp
bpd
bpk
bps
br
bra
brad
brah
brahmana
brain
bram
brand
brantas
brasil
brawijaya
brazil
bre
break
brebes
brew
bri
brian
brid
bridge
brig
brigadir
bright
brigjen
brilian
brimob
bris
brit
britan
britania
british
bro
broad
broadband
brom
bromo
bron
brook
bros
brother
brow
brown
browser
bruce
brun
brunei
brut
brutal
bruto
bs
bt
bts
bu
buah
buahnya
buana
buang
buangan
buas
buat
buatan
buaya
bub
bubar
bubuk
bubur
bud
budak
budaya
budayanya
budd
buddha
budha
budi
budidaya
budiman
buff
bug
bugis
buh
buil
build
building
buj
bujur
buk
buka
bukaan
bukan
bukanlah
bukannya
bukhari
bukit
bukittinggi
bukti
buku
bukunya
bul
bulan
bulanan
bulannya
bulat
buleleng
buletin
bulg
bull
bulu
bulukumba
bulunya
bulus
bum
bumbu
bumi
bumn
bun
bunc
bund
bunda
bundar
bung
bunga
bunganya
bungk
bungkus
bungsu
buntu
bunuh
buny
bunyi
bupati
bur
burger
burhan
burn
bursa
buru
buruan
buruh
buruk
buruknya
burung
bus
busa
busana
bush
business
busuk
busur
but
buta
butik
butir
butiran
buton
butter
button
butuh
buy
bw
by
bye
c
ca
cab
cabai
cabang
cabe
cable
cac
cacar
cacat
cache
cacing
cad
cadang
cadangan
caesar
caf
cafe
cagar
cah
cahaya
cair
cairan
cak
cakap
cakra
cakram
cakraw
cakrawala
cakung
cakupan
cal
california
call
calon
calvin
cam
camat
camb
cambridge
cambuk
camera
camp
campur
campuran
can
canada
canc
cancer
cand
candi
candra
canggih
cangk
cangkang
cangkir
canon
cant
cantik
canyon
cap
cape
capital
car
cara
caranya
carbon
card
care
cari
carl
carlos
carol
carolina
carrier
cart
carter
cas
casa
case
cash
casino
cass
cast
casting
castle
cat
catatan
catur
cav
caw
cb
cc
cctv
cd
cdma
ce
cec
ced
cedera
cek
ceko
cekungan
cel
celah
celana
celcius
cell
cem
cemara
cemas
cemburu
cemerlang
cemp
cempaka
cen
cend
cendana
cendek
cendekiawan
cender
cenderung
ceng
cengk
cent
center
central
centre
century
ceo
cep
cepat
cer
cerah
cerai
ceramah
cerambycidae
cerdas
cerdik
ceria
cerita
ceritanya
cermat
cermin
cerob
cerpen
cet
cetak
cetakan
cew
cewek
cf
cg
ch
cha
chain
chair
chak
chal
chall
challenge
cham
champ
champi
champion
champions
championship
chan
chandra
chang
change
channel
chap
chapter
char
chara
charles
charlie
chart
chat
che
check
chef
chelsea
chem
chemical
chen
cheng
cher
cherry
chev
chevrolet
chi
chic
chicago
chick
chicken
chief
chika
child
children
chin
china
chinese
chip
chlor
cho
choi
choice
chris
christ
christian
chu
church
ci
cia
ciamis
cian
cianjur
cib
cic
cid
cig
cih
cij
cik
cikal
cikampek
cikarang
cil
cilacap
cile
cilegon
cili
cilik
cim
cimahi
cin
cina
cinc
cincin
cind
cinder
ciner
cint
cinta
cintanya
cip
cipinang
cipta
ciptaan
ciptaannya
ciptakan
cir
circ
circle
cirebon
ciri
cis
cit
cita
citar
citra
city
cium
ciuman
civ
civil
ck
cl
clark
class
classic
clay
cle
clean
clear
cli
client
clin
clip
clock
close
cloud
club
cluster
cm
cn
co
coach
coast
cob
coba
cobaan
coc
cocok
cod
code
coff
coffee
cok
cokelat
coklat
col
cold
cole
coleoptera
coli
coll
collection
college
color
columbia
com
comb
come
comedy
comm
command
common
commun
communication
community
comp
company
compet
competition
complex
computer
con
conc
cond
condong
conf
conference
cong
conn
cons
cont
content
contin
contoh
contohnya
contr
control
conven
convention
cook
cool
cooper
cop
copa
copy
cor
corak
cord
core
corn
corong
corp
corpor
corporate
corporation
cos
cost
costa
cot
coun
count
counter
country
county
coup
cour
course
court
cover
cow
cowok
cp
cpu
cr
cra
crash
cre
cream
creative
credit
creek
crew
cris
cristian
crit
cro
cross
crown
cru
crus
cry
crystal
cs
ct
cu
cuaca
cub
cuc
cuci
cucu
cucunya
cuka
cukai
cukup
cul
cultural
culture
cum
cuma
cumi
cup
cuplikan
cur
curah
curam
curi
curiga
curug
cus
cut
cuti
cv
cw
cy
cyber
cz
d
da
dab
dad
dada
dadanya
dadi
dadu
dae
daeng
daerah
daerahnya
daftar
dag
dagang
dagangan
daging
dagingnya
dagu
dah
dahi
dahlan
dahsyat
dahulu
dai
daihatsu
daily
dak
dakwaan
dakwah
dal
dalam
dalamnya
dalang
dalem
dalil
dall
dam
damai
damar
dampak
dampaknya
dan
dana
danau
dance
dand
dang
dangdut
dangkal
dani
daniel
danny
dap
dapat
dapatkan
dapil
dapur
dar
dara
darah
darahnya
darat
daratan
dari
daring
darinya
daripada
dark
darm
darma
darul
darurat
darussalam
darwin
das
dasar
dasarnya
dasawarsa
dash
dat
data
datab
database
datang
datanglah
datangnya
datar
dataran
date
datu
datuk
daud
daun
daunnya
daur
david
davis
daw
day
daya
dayak
days
db
dc
dd
de
dea
dead
deal
dealer
dear
death
deb
debat
debit
debu
debut
debutnya
dec
december
ded
deda
deddy
dede
dedikasi
dee
deep
def
default
defin
definisi
defisiensi
defisit
deg
degradasi
deh
dehidrasi
dek
dekade
dekan
dekat
dekatnya
deklar
deklarasi
dekorasi
del
delapan
delegasi
delhi
deli
delima
dell
delta
dem
demak
demam
demand
demi
demikian
demikianlah
demo
demografi
demok
demokrasi
demokrat
demokratis
demonstr
demonstrasi
den
dend
denda
dendam
deng
denga
dengan
dengannya
dengar
denmark
denny
denpasar
dens
denyut
dep
depan
depannya
depart
departemen
department
depend
depok
deposit
depot
depresi
deputi
der
derajat
deras
derby
deret
deretan
deriv
derma
dermaga
dermawan
des
desa
desain
desainer
desainnya
desakan
desanya
desc
desember
desentralisasi
desi
design
deskrip
deskripsi
desktop
dest
destinasi
det
detail
deteksi
detektif
deter
determin
detik
dev
develop
developer
development
devi
devisa
dew
dewa
dewan
dewasa
dewata
dewi
dg
dh
dhani
dhar
dharma
di
dia
diab
diabadikan
diabaikan
diabetes
diad
diadakan
diadakannya
diadaptasi
diadopsi
diag
diagn
diagnosis
diagonal
diagram
diajak
diajarkan
diajukan
diak
diakhiri
diakibatkan
diakses
diaktifkan
diaku
diakui
dial
dialah
dialami
dialaminya
dialek
dialihkan
dialirkan
dialog
dialokasikan
diam
diaman
diamati
diambil
diameter
diamond
dian
diana
dianalisis
diancam
diandalkan
dianggap
dianggapnya
diangkat
diangkut
dianjurkan
diant
diantara
diantaranya
dianugerahi
dianut
diap
diaplikasikan
diar
diarahkan
diare
diartikan
dias
diasumsikan
diatas
diatasi
diatur
diawali
diawasi
dib
diba
dibaca
dibacakan
dibagi
dibagian
dibagikan
dibahas
dibakar
dibalik
dibanding
dibandingkan
dibangkitkan
dibangun
dibantah
dibantu
dibaptis
dibatalkan
dibatasi
dibawa
dibawah
dibawakan
dibawanya
dibayangkan
dibayar
dibayarkan
dibeb
dibebaskan
dibeberapa
dibedakan
dibekali
dibel
dibeli
dibenarkan
dibentuk
diber
diberangkatkan
diberbagai
diberhentikan
diberi
diberikan
diberitahu
diberitakan
diberkati
diberlakukan
dibersihkan
dibesarkan
dibiarkan
dibiayai
dibicarakan
dibidang
dibilang
dibina
dibintangi
dibongkar
dibu
dibuang
dibuat
dibuatkan
dibuatnya
dibubarkan
dibudidayakan
dibuka
dibukanya
dibuktikan
dibungkus
dibunuh
diburu
dibutuhkan
dic
dica
dicabut
dicampur
dicanangkan
dicantumkan
dicap
dicapai
dicari
dicat
dicatat
dicegah
dicer
diceritakan
dicetak
dicintai
diciptakan
dicky
dicoba
dicuci
diculik
dicuri
dicurigai
did
dida
didaerah
didaftarkan
didahului
didalam
didalamnya
didampingi
didapat
didapati
didapatkan
didasari
didasarkan
didatangi
didatangkan
didefinisikan
didek
didengar
diderita
dides
didesain
dideskripsikan
dideteksi
didi
dididik
didih
didik
didirikan
didistribusikan
didominasi
didorong
diduduki
diduga
didukung
didunia
die
diedit
diego
dieks
dieksekusi
diekspor
diem
diemb
dien
dieng
dies
diesel
diet
dif
diferensi
diferensiasi
differ
difokuskan
difungsikan
difusi
dig
digabung
digabungkan
digagas
digali
digambarkan
diganggu
diganti
digantikan
digantung
digarap
digel
digelar
digemari
diger
digerakkan
digit
digital
digolongkan
digoreng
digunakan
digunakannya
dih
dihabiskan
dihadap
dihadapan
dihadapi
dihadapkan
dihadiri
dihadirkan
dihancurkan
dihapus
dihapuskan
dihar
diharapkan
dihargai
diharuskan
dihasilkan
dihentikan
dihiasi
dihidangkan
dihidupkan
dihilangkan
dihimpun
dihindari
dihitung
dihormati
dihubungkan
dihukum
dihuni
diidentifikasi
diijinkan
diikat
diikut
diikuti
diimpor
diin
diind
diingat
diinginkan
diinstal
diinter
diiringi
diisi
diizinkan
dij
dijabarkan
dijabat
dijadikan
dijadwalkan
dijaga
dijalan
dijalani
dijalankan
dijamin
dijangkau
dijanjikan
dijatuhi
dijatuhkan
dijawab
dijelaskan
dijual
dijuluki
dijumpai
dik
dika
dikabarkan
dikabulkan
dikaitkan
dikaji
dikalahkan
dikalangan
dikandung
dikar
dikarenakan
dikaruniai
dikatakan
dikategorikan
dikec
dikeh
dikehendaki
dikej
dikejar
dikel
dikelilingi
dikelola
dikelompokkan
dikeluarkan
dikeluarkannya
dikemas
dikembalikan
dikembangkan
dikemudian
dikemukakan
diken
dikenai
dikenakan
dikenal
dikenali
dikenalkan
dikenang
dikend
dikendalikan
diker
dikeringkan
dikerjakan
diket
diketahui
diketemukan
diketuai
dikhawatirkan
dikhususkan
dikira
dikirim
dikirimkan
dikisahkan
diklaim
diklat
dikombinasikan
dikonfirmasi
dikons
dikonsumsi
dikontrol
dikonversi
dikritik
dikti
diku
dikuasai
dikuc
dikukuhkan
dikumpulkan
dikunjungi
dikur
dikurangi
dikutip
dil
dilah
dilahirkan
dilaksanakan
dilakukan
dilakukannya
dilalui
dilanda
dilanggar
dilangsungkan
dilanjutkan
dilantik
dilapisi
dilaporkan
dilarang
dilatih
dilayani
dilema
dilempar
dilengkapi
dilepas
dilepaskan
dilestarikan
diletakkan
dilewati
dilibatkan
dilihat
dilindungi
dilipat
diluar
dilukis
diluncurkan
dilupakan
dim
dimainkan
dimak
dimakamkan
dimakan
dimaksud
dimaksudkan
diman
dimana
dimanfaatkan
dimas
dimasa
dimasak
dimasukan
dimasukkan
dimenangkan
dimengerti
dimensi
dimiliki
dimilikinya
diminati
diminta
diminum
dimodifikasi
dimuat
dimulai
dimulainya
dimunculkan
dimungkinkan
dimus
dimusnahkan
din
dina
dinaikkan
dinam
dinamai
dinamakan
dinamika
dinamis
dinamo
dinar
dinas
dinasti
dinda
dinding
ding
dingin
dini
dinikmati
dinilai
dinobatkan
dinonaktifkan
dinosaurus
diny
dinyalakan
dinyanyikan
dinyatakan
diobati
dioksida
diolah
dioperasikan
dip
dipa
dipad
dipadukan
dipahami
dipajang
dipak
dipakai
dipaksa
dipamerkan
dipan
dipanaskan
dipancarkan
dipandang
dipandu
dipanen
dipanggang
dipanggil
dipaparkan
dipas
dipasang
dipasangkan
dipasarkan
dipastikan
dipat
dipec
dipecah
dipecahkan
dipecat
dipegang
dipelajari
dipelihara
dipengaruhi
dipenj
dipenjara
dipenuhi
diper
diperankan
diperb
diperbaharui
diperbaiki
diperbarui
diperbolehkan
dipercaya
dipercayai
dipercayakan
dipercepat
diperd
diperdagangkan
diperdebatkan
dipergunakan
diperhatikan
diperhitungkan
diperiksa
diperingati
diperintah
diperintahkan
diperk
diperkenalkan
diperkenankan
diperkirakan
diperkosa
diperkuat
diperl
diperlakukan
diperlihatkan
diperluas
diperlukan
diperoleh
diperolehnya
diperpanjang
dipers
dipersembahkan
dipersiapkan
dipert
dipertahankan
dipertanyakan
dipertemukan
dipertimbangkan
diperuntukkan
dipesan
dipicu
dipilih
dipimpin
dipimpinnya
dipindah
dipindahkan
dipisahkan
dipl
diplom
diploma
diplomasi
diplomatik
diponegoro
dipotong
diprediksi
diproduksi
dipromosikan
diproses
diptera
dipublikasikan
dipuji
dipukul
dipungut
dipus
dipusatkan
diputar
diputuskan
dir
diragukan
dirah
diraih
dirancang
dirasa
dirasakan
dirawat
dirayakan
direbus
direbut
direct
director
direk
direkam
direkrut
direksi
direktor
direktorat
direktori
direktur
direncanakan
direndam
direp
dires
diresmikan
direvisi
dirg
diri
dirikan
dirilis
dirimu
dirintis
dirinya
diriwayatkan
dirjen
dirujuk
dirumah
dirumuskan
dirusak
dis
disaat
disabilitas
disadari
disahkan
disajikan
disaksikan
disalah
disalib
disalurkan
disamakan
disambut
disampaikan
disamping
disana
disangka
disapa
disarankan
disaring
disatukan
disc
discovery
diseb
disebabkan
disebar
disebarkan
disebelah
disebuah
disebut
disebutkan
dised
disediakan
disegani
disek
disekitar
disekitarnya
disel
diselamatkan
diselenggarakan
diselesaikan
diselidiki
diselingi
diseluruh
disem
disematkan
disembah
disembuhkan
disembunyikan
disempurnakan
disengaja
disep
disepakati
diser
diserahkan
diserang
diserap
disertai
disertakan
disertasi
disesuaikan
diset
disetiap
disetujui
disewa
disewakan
disfungsi
disi
disiapkan
disiarkan
disiksa
disimpan
disimpulkan
disin
disingkat
disini
disiplin
disisi
disita
disitu
disk
diskriminasi
diskusi
disney
disp
display
dist
distor
distr
distribusi
distributor
district
distrik
disukai
disun
disuruh
disusul
disusun
disutradarai
dit
dita
ditafsirkan
ditahan
ditahun
ditak
ditakdirkan
ditakuti
ditambah
ditambahkan
ditampilkan
ditampung
ditanam
ditanami
ditandai
ditandatangani
ditangani
ditanggapi
ditanggung
ditangkap
ditanya
ditargetkan
ditarik
ditaruh
ditata
ditawarkan
ditayangkan
ditebang
diteg
ditegakkan
ditegaskan
ditekan
ditekankan
ditel
ditelan
diteliti
ditelusuri
ditemani
ditembak
ditempat
ditempati
ditempatkan
ditempuh
ditemui
ditemukan
ditemukannya
ditengah
ditentukan
diter
diterapkan
diterbitkan
diterima
diterimanya
diterjemahkan
diteruskan
ditetapkan
diti
ditimbulkan
ditinggal
ditinggalkan
ditingkat
ditingkatkan
ditinjau
ditiru
ditit
ditjen
ditolak
ditonton
ditopang
ditrans
ditransfer
ditu
dituangkan
dituduh
ditugaskan
dituju
ditujukan
ditukar
ditul
ditularkan
ditulis
dituliskan
ditum
ditumbuhi
ditunda
ditunjang
ditunjuk
ditunjukkan
dituntut
ditur
diturunkan
ditutup
ditutupi
diubah
diucapkan
diuji
diukur
diulang
diumumkan
diund
diundang
diunduh
diunggah
diungkapkan
diup
diur
diuraikan
diurus
dius
diusahakan
diusir
diusulkan
diusung
diutamakan
diutus
div
divisi
division
divonis
diw
diwajibkan
diwak
diwakili
diwar
diwariskan
diwarnai
diwilayah
diwujudkan
diy
diyakini
dj
djarum
djoko
dk
dki
dkk
dl
dll
dm
dn
dna
dns
do
doa
doc
doctor
document
dod
dog
doh
dok
dokter
doktor
doktrin
dokumen
dokumentasi
dokumenter
dol
dolar
dollar
dom
domain
domba
domestik
domin
dominan
dominasi
dompet
don
donald
donasi
donat
dong
dongeng
doni
donor
door
dop
dor
dora
doraemon
dorong
dorongan
dort
dortmund
dos
dosa
dosen
dosis
dot
double
doug
dow
down
download
dp
dpd
dpl
dpp
dpr
dprd
dr
dra
draf
draft
drag
dragon
drain
drainase
drama
dramatis
drastis
dream
dri
drive
driver
drop
drs
drug
drum
dry
ds
dsb
dst
dt
du
dua
dual
duanya
dub
dubai
duc
duduk
dudukan
duel
duet
dugaan
duk
duka
dukuh
dukun
dukungan
dukungannya
dul
dulu
dulunya
dum
dumai
dun
dunia
dunianya
duniawi
duo
dup
dur
durasi
duren
duri
durian
dus
dusun
duta
duyung
dv
dvd
dw
dwi
dy
dyah
dynam
dz
dzul
e
ea
eag
ear
earth
east
easy
eb
ec
eceran
eco
econom
economic
ed
eddy
eden
edge
edi
edisi
edition
editor
edo
educ
education
eduk
edukasi
edward
edwin
ef
efek
efeknya
efektif
efektivitas
eff
effendi
efisi
efisien
efisiensi
eg
ego
egois
eh
einstein
ej
ejaan
ek
eka
eko
ekologi
ekonom
ekonomi
ekonominya
ekonomis
ekor
ekornya
ekosistem
eks
eksek
eksekusi
eksekutif
eksentrisitas
eksis
eksistensi
eksk
eksklusif
eksotis
eksp
ekspansi
ekspedisi
eksperimen
eksplisit
eksploitasi
eksplorasi
ekspor
ekspres
ekspresi
ekstensi
eksterior
eksternal
ekstr
ekstra
ekstrak
ekstraksi
ekstrakurikuler
ekstrem
ekstrim
eku
el
elang
elastis
ele
electr
electric
electron
electronic
electronics
elegan
elektr
elektrik
elektro
elektrolit
elektrom
elektromagnetik
elektron
elektronik
elektronika
elemen
element
elev
elf
eliminasi
elit
elite
eliz
elizabeth
em
email
emas
emb
embrio
emerg
emil
emirat
emisi
emma
emo
emosi
emosional
emp
empat
empedu
empiris
en
enak
enam
enc
encer
end
endang
endapan
ende
endemik
energi
energy
eng
enggan
engine
engineer
engineering
engkau
england
english
ensik
ensiklopedia
ent
entah
enter
enterprise
entertain
entertainment
entitas
entri
envir
environment
enzim
ep
epid
epidemi
epil
epilepsi
epis
episode
eq
equ
er
era
erat
erg
eric
ericsson
erit
ern
erop
eropa
erosi
erotis
error
erupsi
erwin
es
esa
esai
esc
eselon
esensi
esensial
esok
esp
ess
est
estate
ester
estetika
estimasi
estr
et
etanol
eth
ethan
eti
etik
etika
etim
etis
etn
etnik
etnis
eug
eun
eur
euro
europa
ev
eva
evakuasi
evaluasi
evan
even
event
ever
everton
every
everything
evolusi
ew
ex
exc
excel
excell
exchange
executive
exp
experience
expl
explorer
expo
express
ext
extr
extra
ey
eyang
eye
eyes
ez
f
fa
fab
fac
face
facebook
factor
factory
fad
fadli
fah
fahri
fai
fair
faisal
fajar
fak
fakta
faktanya
faktor
fakultas
fal
fall
fals
falsafah
fam
famili
familiar
family
fan
fana
fanatik
fans
fant
fantasi
fantasy
far
fari
farid
farm
farmak
farmasi
fas
fasa
fase
fashion
fasih
fasil
fasilitas
fast
fat
fatah
fatal
fath
fatih
fatimah
fatwa
fau
fauna
fauzi
fav
favor
favorit
favoritnya
fbi
fc
fe
featur
feature
feb
febr
februari
february
fed
feder
federal
federasi
feed
feel
fel
fem
femin
fen
feng
fenom
fenomena
fenomenal
fer
ferd
fergus
feri
fermentasi
fern
fernando
ferr
ferrari
ferry
fes
festival
ff
fh
fi
fib
fiber
fid
field
fif
fifa
figh
figur
fik
fikih
fiksi
fiktif
fil
file
files
filip
filipina
film
filmnya
filosof
filosofi
filosofis
filsafat
filsuf
filter
filum
fin
final
finalis
finan
financ
finance
financial
finansial
find
finis
finish
finlandia
fiqih
fir
fira
firaun
firda
fire
firef
firman
first
fis
fish
fisi
fisik
fisika
fisiknya
fisiologi
fisiologis
fisip
fiskal
fit
fitnah
fitri
fitur
five
fix
fk
fl
flag
flash
flat
flav
fle
fleksi
fleksibel
fleksibilitas
flex
flight
flip
flo
flor
flora
florence
flores
florida
flow
flower
flu
fluida
fluk
fly
fm
fo
focus
fok
fokus
fol
foll
follow
fon
fond
fondasi
font
food
foot
football
for
force
ford
forest
form
formal
formasi
format
formula
formulasi
formulir
fort
forum
forward
fos
fosfat
fosfor
fosil
fot
foto
fotografer
fotografi
fotosintesis
found
foundation
four
fox
fp
fr
frag
fragmen
fraksi
fram
frame
fran
franc
franch
franchise
francis
francisco
frank
frans
frasa
frase
fre
fred
freder
free
frekuensi
fren
french
fresh
freud
fri
fried
friend
friends
fro
from
front
frustrasi
fs
ft
ftv
fu
fuad
fuj
fuji
ful
full
fun
fund
fundam
fundamental
fung
fungsi
fungsinya
fungsional
fur
furnitur
fus
fut
futsal
future
fx
g
ga
gab
gabriel
gabungan
gabus
gad
gadang
gading
gadis
gadjah
gag
gaga
gagah
gagal
gagang
gagasan
gaib
gain
gairah
gaj
gajah
gaji
gak
gal
gala
galak
galaksi
galang
galat
galaxy
galeri
gali
galian
galil
gall
gallery
galuh
gam
gama
gamb
gambar
gambaran
gambarnya
gambir
gambut
game
gamelan
games
gamet
gamp
gan
ganas
gand
ganda
gandum
gang
gangg
gangguan
ganj
ganja
ganjil
gant
ganti
gantinya
gantung
gantungan
gap
gapura
gar
gara
garam
garapan
garasi
gard
garda
garden
garis
garuda
garut
gary
gas
gat
gatal
gate
gates
gatot
gaul
gaun
gawang
gay
gaya
gayo
gaz
gaza
gb
gd
ge
gear
geb
ged
gede
gedung
geg
geger
gej
gejala
gejolak
gel
gelandang
gelang
gelap
gelar
gelaran
gelas
gelembung
gelisah
gelombang
gelora
gem
gema
gemar
gemb
gembala
gembira
gemilang
gemini
gemp
gempa
gemuk
gen
genangan
genap
genc
gencar
gend
gendang
gender
gener
general
generasi
generation
generator
generik
genetik
genetika
geng
genggam
genre
gent
genteng
genting
genus
geografi
geografis
geologi
geomet
geometri
georg
george
georgia
gep
ger
gerai
gerak
gerakan
gerakannya
gerbang
gerbong
gerej
gereja
gerhana
gerindra
gerobak
gerombolan
ges
gesek
gesekan
geser
get
getah
getaran
gh
gha
ghost
ghz
gi
gian
giant
gianyar
giat
gib
gig
gigi
gigih
gigitan
gil
gila
gili
giliran
gilirannya
gim
gin
ginj
ginjal
giok
gir
giri
girl
girlband
girls
gita
gitar
gitaris
give
gizi
gk
gl
glam
glass
glen
glik
glob
global
globalisasi
gluk
glukosa
glut
gm
gn
go
goa
goal
gob
god
gog
gok
gol
gold
golden
golf
golkar
golongan
gom
gon
gond
gondang
gong
good
google
gop
gor
gord
goreng
goresan
gorontalo
gos
gosip
got
gotong
govern
government
gowa
goyang
gp
gps
gr
grace
grad
grade
graf
grafik
grafis
graha
gram
gramedia
gran
grand
granit
graph
gratis
grav
gravitasi
gre
great
green
greg
gresik
grey
gri
grid
gro
grob
grobogan
grogol
grosir
ground
group
grow
grup
gs
gsm
gt
gu
gua
guang
guar
gub
gubernur
gubuk
gud
gudang
guest
gug
gugatan
gugur
gugus
guide
guitar
gul
gula
gulma
gulung
gulungan
gum
gumpalan
gun
guna
gunakan
gunawan
gunc
gund
gundul
gunting
guntur
gunung
gunungkidul
gur
gurih
guru
gurun
gurunya
gus
gusti
gut
guy
gw
gy
gym
h
ha
hab
habib
habibie
habis
habit
habitat
hack
had
hadap
hadapan
hadapi
hadi
hadiah
hadir
hadirin
hadirnya
hadis
hadits
haf
hafiz
hai
hair
haj
hajar
haji
hak
hakikat
hakikatnya
hakim
haknya
hal
halal
halaman
halamannya
halangan
half
halim
hall
halmahera
halnya
halo
halte
haluan
halus
ham
hama
hamas
hamb
hamba
hambatan
hamengku
hamid
hamil
hamilton
hamka
hamp
hampa
hamparan
hampir
hamster
hamzah
han
hana
hanafi
hancur
hand
handal
handphone
hang
hangat
hank
hans
hant
hantu
hanura
hany
hanya
hanyalah
hap
happy
har
hara
harahap
haram
harap
harapan
harbor
hard
hardware
harfiah
harga
harganya
hari
harian
harimau
harinya
haris
harm
harmon
harmoni
harmonis
harris
harry
hart
harta
hartono
haru
harum
harun
harus
haruslah
harv
harvard
haryono
has
hasan
hasanuddin
hash
hasil
hasilnya
hasrat
hassan
hasyim
hat
hati
hatinya
hatta
haus
hav
have
haw
hawa
hawai
hawaii
hay
hayat
hayati
haz
hazard
hb
hc
hd
he
head
health
heart
heat
heavy
heb
hebat
hed
hee
heg
hektar
hektare
hel
helai
heli
helikopter
hell
hello
helm
help
hem
hemat
hen
hend
hendak
hendaknya
hendra
hengk
hengkang
henry
hent
henti
hep
hepat
hepatitis
her
heran
herb
herbal
hercul
hercules
here
heri
heritage
herm
herman
hern
hero
heru
het
heter
heterogen
hew
hewan
hex
hey
hi
hias
hiasan
hib
hibah
hibrida
hiburan
hid
hidangan
hidayat
hidayatullah
hide
hidr
hidrogen
hidrokarbon
hidung
hidup
hidupnya
hier
hig
high
hij
hija
hijau
hijrah
hijri
hijriah
hijriyah
hik
hikayat
hikmah
hikmat
hil
hilal
hilang
hilangnya
hilir
hill
hills
hilton
him
himpunan
hin
hind
hindi
hindia
hindu
hingga
hip
hiper
hipertensi
hipn
hipot
hipotesis
hir
his
hist
histor
historis
history
hit
hitam
hitler
hits
hitung
hitungan
hiu
hiv
hiz
hj
hk
hkbp
hm
hmi
ho
hob
hobi
hok
hoki
hol
hold
hole
holiday
hollywood
hom
home
homo
homogen
homoseksual
hon
honda
honey
hong
hongkong
honor
hoo
hood
hook
hop
hope
hor
horis
horisontal
horiz
horizontal
horm
hormat
hormon
horor
hos
hosp
hospital
host
hot
hotel
hotels
hour
hours
hous
house
how
howard
hp
hr
hs
html
htt
http
https
hu
hua
hub
hubung
hubungan
hubungannya
hud
huda
hujan
hukum
hukuman
hukumnya
hul
hulu
hum
human
humas
humor
hun
hung
huni
hunian
hunt
hunter
hunting
hur
huruf
hus
husein
hut
hutan
hutang
hw
hwa
hy
hyang
hybrid
hyd
hye
hyper
hyun
hyundai
hz
i
ia
iain
ialah
ian
ib
ibadah
ibadat
iblis
ibm
ibn
ibnu
ibrahim
ibrani
ibu
ibukota
ibunda
ibunya
ic
ice
ich
icon
id
ida
ide
ideal
idealisme
iden
ident
identifikasi
identik
identitas
identitasnya
idenya
ideologi
idi
idol
idola
idris
idul
ie
if
ig
ign
ih
ii
iii
ij
ijazah
ijin
ik
ika
ikan
ikat
ikatan
ikh
ikhlas
ikhwan
ikip
iklan
iklim
ikon
ikut
ikuti
il
ilahi
ilegal
ilham
ilir
ill
ilm
ilmi
ilmiah
ilmu
ilmunya
ilmuwan
ilusi
ilustrasi
im
imag
image
imaj
imajinasi
imam
iman
imb
imbalan
imbang
imf
imigran
imigrasi
imlek
imm
imp
imper
imperi
impian
impl
implement
implementasi
implikasi
impor
improv
imran
imun
in
ina
inang
inap
inc
inch
inci
ind
indah
indeks
independ
independen
independent
index
india
indian
indie
indikasi
indikator
individ
individu
individual
indo
indom
indones
indonesia
indonesian
indoor
indosat
indosiar
indr
indra
indrama
indramayu
induk
induknya
induksi
industr
industri
industrial
industry
inf
infeksi
infin
inflamasi
inflasi
influ
influenza
info
inform
informal
informasi
informatika
information
infra
infras
infrastruktur
ing
ingat
ingatan
inggris
ingin
inginkan
ini
inilah
inipun
inisi
inisial
inisiatif
initi
inj
injeksi
injil
ink
inka
inkub
inn
inner
inov
inovasi
inovatif
inpres
input
ins
insan
insang
insecta
insek
insentif
insiden
insinyur
insp
inspeksi
inspektur
inspir
inspirasi
inst
instagram
instal
instalasi
instan
instansi
insting
institu
institusi
institut
institute
instr
instruksi
instruktur
instrumen
instrument
insulin
insurance
int
intan
integ
integr
integral
integrasi
integrated
integritas
intel
intelek
intelektual
intelijen
intellig
intens
intensif
intensitas
inter
interaksi
interaktif
interface
interior
intern
internal
internasional
international
internet
interpretasi
interval
intervensi
inti
intim
intinya
into
intr
intra
intu
inv
invasi
invent
invest
investasi
investigasi
investment
investor
io
ion
ios
ip
ipa
ipad
ipar
ipb
iphone
ipod
ips
iq
iqbal
ir
ira
irak
irama
iran
irawan
irfan
iri
irian
irigasi
iris
irisan
iritasi
irjen
irlandia
iron
ironis
ironisnya
irwan
is
isa
isbn
ish
ishak
isi
isian
isinya
isis
isk
iskand
iskandar
isl
islam
islami
islamic
islamiyah
island
islandia
ismail
iso
isolasi
isra
israel
ist
istan
istana
istanbul
isteri
isterinya
isti
istiadat
istilah
istimewa
istiq
istirahat
istr
istri
istrinya
isu
isyarat
it
ita
itali
italia
itb
item
itik
its
itu
itulah
itunes
itupun
iv
ivan
iw
iwan
ix
iz
izin
j
ja
jab
jabar
jabatan
jabatannya
jabodetabek
jac
jack
jackson
jad
jadi
jadikan
jadilah
jadwal
jae
jaf
jag
jaga
jagat
jago
jagoan
jagung
jah
jahat
jahe
jai
jaj
jajahan
jajanan
jajaran
jak
jaka
jakarta
jaket
jaksa
jal
jala
jalak
jalal
jalan
jalanan
jalannya
jalar
jalur
jam
jama
jamaah
jamak
jamal
jamb
jambi
jambu
james
jami
jaminan
jamu
jamur
jan
janda
jane
jang
jangan
janganlah
jangk
jangka
jangkauan
janin
janj
janji
janjinya
jantan
jantung
januari
january
jap
japan
japanese
jar
jarak
jaraknya
jarang
jari
jaring
jaringan
jarum
jas
jasa
jasad
jasanya
jasmani
jason
jat
jatah
jateng
jati
jatim
jatin
jatinegara
jatuh
jatuhnya
jauh
jauhnya
java
javas
jaw
jawa
jawab
jawaban
jawabannya
jawabnya
jay
jaya
jayapura
jaz
jazz
jb
je
jean
jeb
jebakan
jed
jeda
jeff
jej
jejak
jejaring
jel
jelajah
jelas
jelek
jelly
jem
jemaah
jemaat
jemb
jembatan
jember
jemp
jen
jenazah
jend
jendela
jender
jenderal
jendral
jeng
jengk
jenis
jenisnya
jenius
jenjang
jennifer
jenny
jenuh
jep
jepang
jepara
jer
jerami
jerman
jernih
jerry
jersey
jeruk
jes
jessi
jessica
jesus
jet
jew
jh
ji
jib
jie
jig
jihad
jika
jikalau
jil
jilbab
jilid
jim
jimat
jimmy
jin
jinak
jing
jingga
jitu
jiwa
jiwanya
jk
jl
jln
jm
jo
job
jobs
jod
jodoh
joe
jog
jogja
jogjakarta
joglo
joh
johan
john
johnny
johns
johnson
johor
joint
jok
joko
jokowi
jol
jombang
jon
jones
jong
joo
joon
jordan
jos
jose
joseph
josh
journ
journal
joy
jp
jr
js
jt
ju
jual
juan
juanda
juang
juara
jubah
jud
judi
judul
judulnya
jug
juga
jujur
jul
juli
julia
julian
julukan
july
jum
jumat
jumlah
jumlahnya
jump
jumpa
jun
juna
june
jung
juni
junior
jupiter
jur
jurang
juri
jurn
jurnal
jurnalis
jurnalistik
juru
jurus
jurusan
jus
just
justin
justru
jusuf
juta
jutaan
juventus
juz
jw
k
ka
kab
kabar
kabarnya
kabel
kabin
kabinet
kabupaten
kabur
kabut
kac
kaca
kacamata
kacang
kacau
kad
kadal
kadang
kadar
kader
kades
kadi
kaf
kafe
kafir
kag
kaget
kagum
kah
kai
kaidah
kain
kairo
kaisar
kait
kaitan
kaitannya
kaj
kajian
kak
kaka
kakak
kakaknya
kakao
kakap
kakek
kakeknya
kaki
kakinya
kaku
kal
kala
kalah
kalam
kalangan
kalau
kalbar
kaldu
kalender
kaleng
kali
kalian
kalib
kaligrafi
kalijaga
kalim
kalimantan
kalimat
kalinya
kalis
kalium
kalk
kalla
kalor
kalori
kalsel
kalsium
kaltim
kalung
kam
kamal
kamar
kamarnya
kambing
kamboja
kamer
kamera
kami
kamil
kamis
kamp
kampanye
kampar
kampung
kampus
kamu
kamus
kan
kana
kanada
kanal
kanan
kanannya
kanc
kancah
kand
kandang
kandidat
kandung
kandungan
kandungnya
kang
kanj
kanjeng
kanji
kanker
kanopi
kans
kant
kantin
kantong
kantor
kantornya
kantung
kanvas
kaos
kap
kapak
kapal
kapan
kapas
kapasitas
kapasitasnya
kapit
kapita
kapital
kapitalis
kapitalisme
kapol
kapolda
kapolri
kapsul
kapten
kapuas
kapur
kar
kara
karakter
karakteristik
karakternya
karang
karangan
karanganyar
karangasem
karantina
karaoke
karat
karate
karawang
karb
karbohidrat
karbon
kard
kardi
karen
karena
karenanya
karet
kargo
kari
karier
kariernya
karim
karimun
karirnya
karl
karma
karn
karna
karno
karo
karpet
karsin
kart
kartanegara
kartika
kartini
kartu
kartun
karun
karung
karunia
karya
karyanya
karyawan
kas
kasad
kasar
kasat
kaset
kasi
kasih
kasihan
kasino
kasta
kastil
kasur
kasus
kat
kata
katak
katakan
katalis
katalog
katanya
kate
katedral
kategori
kath
katolik
katun
katup
kau
kaum
kaus
kav
kaw
kawah
kawan
kawanan
kawasaki
kawasan
kawat
kawin
kay
kaya
kayu
kaz
kb
kbri
kc
kd
ke
keabs
keabsahan
keadaan
keadaannya
keadilan
keag
keagamaan
keagungan
keahlian
keahliannya
keajaiban
keamanan
kean
keanekaragaman
keangg
keanggotaan
kearah
kearifan
keas
keasaman
keaslian
keatas
keb
keba
kebahagiaan
kebaikan
kebajikan
kebakaran
kebaktian
kebal
kebalikan
kebanggaan
kebangkitan
kebangsaan
kebanyakan
kebay
kebaya
kebayoran
kebebasan
kebenaran
kebenarannya
kebenc
kebencian
keber
keberadaan
keberadaannya
keberagaman
keberangkatan
keberanian
keberatan
keberhasil
keberhasilan
keberhasilannya
keberl
keberlangsungan
keberlanjutan
kebers
kebersamaan
kebersihan
keberuntungan
kebesaran
kebetulan
kebiasaan
kebid
kebidanan
kebij
kebijakan
kebijaksanaan
kebing
kebingungan
kebis
kebisingan
kebo
kebocoran
kebohongan
kebon
kebudayaan
kebugaran
kebumen
kebun
kebutuhan
kec
kecakapan
kecamatan
kecanduan
kecantikan
kecap
kecelakaan
kecemasan
kecenderungan
kecepatan
kecepatannya
kecerd
kecerdasan
kecewa
kecil
kecilnya
kecintaan
kecoklatan
kecuali
kecurangan
kecurigaan
ked
keda
kedai
kedalam
kedalaman
kedamaian
kedatangan
kedatangannya
kedaul
kedaulatan
kedekatan
kedelai
kedelapan
kedepan
kediaman
kediri
kedokteran
kedu
kedua
keduanya
kedudukan
kedudukannya
kedung
kedutaan
keemasan
keempat
keenam
keep
kees
keesokan
keg
kegagalan
kegelapan
kegemaran
kegemb
kegembiraan
kegemukan
kegi
kegiatan
kegiatannya
kegunaan
keguruan
keh
kehabisan
kehad
kehadiran
kehadirannya
kehakiman
kehamilan
kehancuran
kehar
keharusan
kehend
kehendak
kehidup
kehidupan
kehidupannya
kehilangan
kehitaman
kehormatan
kehutanan
kei
keikut
keikuts
keikutsertaan
keilmuan
keim
keimanan
keindahan
keingin
keinginan
keinginannya
keislaman
keistimewaan
kej
kejadian
kejahatan
kejaksaan
kejam
kejang
kejar
kejatuhan
kejauhan
kejayaan
kejelasan
keji
kejiwaan
keju
kejuaraan
kejujuran
kejuruan
kejutan
kek
kekacauan
kekaisaran
kekal
kekalahan
kekasih
kekasihnya
kekayaan
kekayaannya
kekebalan
kekec
kekecewaan
kekej
kekejaman
kekeliruan
kekeluargaan
keker
kekerabatan
kekerasan
kekeringan
kekh
kekhasan
kekhawatiran
kekosongan
kekristen
kekristenan
kekuasaan
kekuasaannya
kekuatan
kekuatannya
kekuningan
kekurangan
kel
kela
kelah
kelahiran
kelahirannya
kelainan
kelak
kelakuan
kelam
kelamaan
kelamin
kelancaran
kelangkaan
kelangsungan
kelanjutan
kelapa
kelaparan
kelar
kelas
kelasnya
kelautan
kelayakan
kelebihan
keledai
kelel
kelelahan
kelelawar
kelem
kelemahan
kelemb
kelembaban
kelembagaan
kelembapan
kelengkapan
kelenjar
kelestarian
kelihatan
kelihatannya
keliling
kelima
kelinci
keliru
kelistrikan
kelola
kelompok
kelompoknya
kelopak
keluar
keluaran
keluarga
keluarganya
keluarnya
keluhan
kelulusan
kelurahan
kem
kemac
kemacetan
kemah
kemahasiswaan
kemajuan
kemakmuran
kemampuan
kemampuannya
keman
kemand
kemandirian
kemang
kemanusiaan
kemarahan
kemarau
kemarin
kemas
kemasan
kemasyarakatan
kematangan
kematian
kematiannya
kemauan
kemayoran
kemb
kembal
kembali
kembalinya
kembang
kembar
kemeja
kemen
kemenangan
kementerian
kementrian
kemerahan
kemerdekaan
kemewahan
kemih
kemiri
kemiringan
kemiripan
kemiskinan
kemitraan
kemud
kemudahan
kemudi
kemudian
kemul
kemuliaan
kemunculan
kemunduran
kemungkinan
kemurahan
kemurnian
ken
kena
kenaikan
kenal
kenalan
kenangan
kenapa
kenari
kenc
kencan
kencana
kencang
kend
kendal
kendala
kendali
kendaraan
kendari
kendati
kenegaraan
kenikmatan
kenis
kenn
kent
kental
kentang
kentu
keny
kenya
kenyamanan
kenyataan
kenyataannya
keong
kep
kepad
kepada
kepadaku
kepadamu
kepadanya
kepadatan
kepala
kepalanya
kepan
kepastian
kepatuhan
keped
kepedulian
kepem
kepemilikan
kepemimpinan
kepemimpinannya
kepend
kependidikan
kependudukan
kepeng
kepengurusan
kepentingan
keper
keperawatan
kepercaya
kepercayaan
kepergian
keperluan
keping
kepiting
kepolisian
keponakan
keppres
kepres
kepresidenan
kepribadian
keprihatinan
kepuasan
kepulauan
kepunahan
keputihan
keputus
keputusan
keputusannya
ker
kera
kerabat
keracunan
keragaman
keraguan
kerah
keraj
kerajaan
kerajinan
kerak
keram
keramaian
keramat
keramik
kerang
kerangka
keranjang
kerap
kerapatan
keras
kerasnya
keraton
kerbau
kerdil
keren
kereta
keributan
kerikil
kerinci
kerind
kering
keringat
keripik
keris
kerj
kerja
kerjanya
kerjasama
kernel
kertas
kerucut
kerugian
kerukunan
kerum
kerumunan
kerupuk
kerus
kerusakan
kerusuhan
kes
kesabaran
kesadaran
kesak
kesaksian
kesaktian
kesal
kesalah
kesalahan
kesalahannya
kesalahpahaman
kesamaan
kesan
kesana
kesatuan
kesayangan
keseb
kesed
kesederhanaan
kesedihan
keseh
keseharian
kesehatan
kesehatannya
keseimbangan
kesej
kesejahteraan
kesel
keselamatan
keseluruh
keseluruhan
kesem
kesembilan
kesempatan
kesempurnaan
kesemuanya
kesenangan
kesenian
kesenjangan
kesep
kesepakatan
kesepian
kesepuluh
keser
kesesuaian
keset
kesetaraan
kesetiaan
kesi
kesiapan
kesibukan
kesimpulan
kestabilan
kesuburan
kesucian
kesukaan
kesukses
kesuksesan
kesulitan
kesultanan
kesus
ket
keta
ketaatan
ketahanan
ketahuan
ketahui
ketak
ketakutan
ketan
ketapang
ketat
ketebalan
keteg
ketegangan
ketek
ketekunan
ketel
ketenagakerjaan
ketenangan
ketentuan
ketepatan
keter
keterampilan
keterangan
keterb
keterbatasan
keterbukaan
ketergantungan
keterkaitan
keterl
keterlambatan
keterlibatan
ketersediaan
ketert
ketertarikan
ketertiban
ketetapan
keti
ketiadaan
ketiak
ketidak
ketidakadilan
ketidakm
ketidakmampuan
ketidakp
ketidakpastian
ketidakpuasan
ketidaks
ketiga
ketiganya
ketik
ketika
ketimbang
ketinggalan
ketinggian
ketr
ketrampilan
ketu
ketua
ketuhanan
ketujuh
ketupat
keturunan
keturunannya
ketut
keuangan
keun
keunggulan
keunikan
keuntungan
keuskupan
keutamaan
keutuhan
kevin
kew
kewajib
kewajiban
kewalahan
kewar
kewarganegaraan
kewenangan
kewira
kewirausahaan
key
keyakinan
keyboard
kfc
kg
kh
kha
khadi
khair
khal
khalayak
khalid
khalifah
khan
kharis
kharisma
khas
khasiat
khasnya
khat
khatulistiwa
khawatir
khay
khaz
khil
khitan
kho
khotbah
khus
khusus
khususnya
ki
kia
kiai
kiamat
kian
kib
kiblat
kick
kid
kids
kidul
kij
kijang
kiki
kil
kilat
kill
kilogram
kilometer
kim
kimia
kimiawi
kin
kincir
kind
kiner
kinerja
king
kingdom
kings
kini
kios
kip
kipas
kiper
kiprah
kir
kira
kirana
kiranya
kiri
kirim
kiriman
kirinya
kirk
kis
kisah
kisahnya
kisaran
kisi
kiss
kit
kita
kitab
kitty
kj
kk
kl
kla
klaim
klan
klas
klasemen
klasifikasi
klasik
klaten
kli
klien
klik
klimaks
klinik
klinis
klip
klor
klorida
klub
km
kn
know
knowledge
ko
koalisi
kob
koc
kod
kodam
kode
kodim
kodok
kodrat
koefisien
koes
kog
kogn
kognitif
koh
koi
koin
kok
koki
koko
kokoh
kol
kolabor
kolaborasi
kolam
kolega
koleksi
kolektif
kolektor
kolesterol
kolom
kolombia
kolon
kolonel
koloni
kolonial
kolonialisme
kom
koma
komandan
komando
komb
kombinasi
komedi
koment
komentar
komersial
komet
komik
komis
komisaris
komisi
komisioner
komite
komitmen
komnas
komod
komoditas
komodo
komp
kompak
kompas
kompatibel
kompensasi
kompet
kompeten
kompetensi
kompetisi
kompetitif
kompetitor
kompi
kompilasi
kompl
komplek
kompleks
kompleksitas
komplikasi
komponen
komposisi
kompreh
komprehensif
kompresi
kompromi
komputasi
komputer
komun
komune
komunikasi
komunis
komunisme
komunitas
kon
kond
kondisi
kondisinya
kondom
konduktor
kondusif
koneksi
konf
konferensi
konfigurasi
konfirmasi
konflik
konfr
kong
kongres
konk
konkret
konon
kons
konsekuensi
konsekuensinya
konseling
konsensus
konsentrasi
konsep
konsepnya
konsepsi
konseptual
konser
konserv
konservasi
konservatif
konsisten
konsistensi
konsol
konsolidasi
konsonan
konsorsium
konspirasi
konstan
konstanta
konstitu
konstitusi
konstitusional
konstruk
konstruksi
konsul
konsultan
konsultasi
konsumen
konsumsi
kont
kontainer
kontak
kontaminasi
konteks
kontemporer
konten
kontes
kontestan
kontin
kontingen
kontinu
kontr
kontra
kontrak
kontraknya
kontraksi
kontraktor
kontras
kontrasepsi
kontribusi
kontributor
kontrol
kontroversi
kontroversial
kontur
konv
konveksi
konvensi
konvensional
konver
konversi
konyol
koord
koordinasi
koordinat
koordinator
kop
kopassus
koper
koperasi
kopi
kopling
kor
koran
korban
korbannya
kore
korea
korean
koreksi
korelasi
koridor
korintus
korosi
korpor
korporasi
korps
korup
korupsi
kos
kosakata
kosm
kosmetik
kosong
kostrad
kostum
kot
kota
kotak
kotamadya
kotanya
koto
kotor
kotoran
kow
kp
kpi
kpk
kpu
kpud
kr
krakatau
krama
kramat
kraton
kre
kreasi
kreatif
kreativitas
kred
kredit
krem
kres
kri
krim
kriminal
kris
krisis
krist
kristal
kristen
kristiani
kristus
krit
kriteria
kritik
kritikan
kritikus
kritis
krl
kro
kroasia
krom
kromosom
kron
kronik
kronis
kronologi
kronologis
kru
ks
ksatria
kt
ktp
ktt
ku
kuad
kuadrat
kuah
kual
kuala
kualifikasi
kualitas
kualitasnya
kualitatif
kuant
kuantitas
kuantitatif
kuantum
kuar
kuartal
kuas
kuasa
kuat
kuatnya
kub
kuba
kubah
kubik
kubis
kubu
kubur
kuburan
kubus
kuc
kucing
kud
kuda
kudeta
kudus
kue
kuh
kuhp
kuil
kuis
kuj
kuk
kuku
kul
kuli
kuliah
kuliahnya
kuliner
kulit
kulitnya
kulon
kultur
kultural
kum
kuman
kumbang
kumis
kump
kumparan
kumpulan
kumuh
kun
kunc
kunci
kung
kuning
kuningan
kunjung
kunjungan
kunjungannya
kunjungi
kuno
kunt
kunyit
kuota
kup
kupang
kur
kurang
kurangnya
kurban
kurikulum
kurma
kurnia
kurniawan
kursi
kursus
kurun
kurung
kurungan
kurus
kurva
kus
kusta
kusuma
kut
kuta
kutai
kutip
kutipan
kutu
kutub
kutukan
kv
kw
kwartir
ky
kya
kyai
kyoto
kyu
kyung
l
la
lab
laba
label
labor
laboratorium
labu
labuan
labuhan
lac
lad
lada
ladang
lady
laf
lag
laga
lagi
lagu
lagunya
lah
lahan
lahat
lahir
lahirlah
lahirnya
lai
lain
lainnya
lainya
laju
lajur
lak
lake
laki
lakon
laks
laksamana
laksana
laku
lakukan
lal
lalat
lalu
lam
lama
laman
lamanya
lamaran
lamb
lamban
lambang
lambat
lambung
lamongan
lamp
lampau
lampiran
lampu
lampung
lan
lanc
lancar
land
landak
landas
landasan
landing
lane
lang
langg
langganan
langit
langka
langkah
langkat
langs
langsung
langu
language
lanjut
lanjutan
lans
lansia
lant
lantai
lantaran
lantas
lanud
laos
lap
lapang
lapangan
lapar
lapis
lapisan
lapor
laporan
laptop
lar
lara
larang
larangan
laras
lari
laris
larut
larutan
larva
las
laser
laskar
last
lat
latar
lateral
lati
latih
latihan
latin
lau
lauk
laun
laur
laura
laut
lautan
lautnya
lav
lava
law
lawan
lawang
lawannya
lawas
lay
layak
layaknya
layanan
layang
layar
layer
laz
lazim
lazimnya
lazio
lb
lc
lcd
ld
le
lead
leader
league
learning
leb
lebah
lebak
lebanon
lebar
lebaran
lebarnya
lebat
lebih
lec
led
ledakan
lee
leg
lega
legal
legend
legenda
legendaris
legisl
legislasi
legislatif
legitimasi
leh
leher
lehernya
leicester
lek
lel
lelah
lelaki
lelang
lele
leluasa
lelucon
leluhur
lem
lemah
lemak
lemari
lemb
lembab
lembaga
lembah
lembang
lembar
lembaran
lembu
lembut
lemhan
lemon
lemp
lempeng
len
lendir
leng
lengan
lengk
lengkap
lengkapnya
lengket
lengkung
lens
lensa
lenyap
leo
leon
leop
lep
lepas
lereng
les
lesbian
lesi
less
lest
lestari
leste
let
letak
letaknya
letjen
letkol
letnan
letter
letusan
leuk
leukemia
lev
level
lew
lewat
lewis
lex
lg
lh
lhok
li
lia
liang
liar
liat
lib
liber
liberal
liberalisme
liberty
libr
library
libur
liburan
libya
lic
licik
licin
lid
lidah
lie
lif
life
lift
lig
liga
light
lih
lihat
lik
like
liku
lil
lili
lilin
lily
lim
lima
limbah
limf
limit
limited
limp
lin
linc
lincah
lincoln
lind
linda
lindung
line
linear
ling
lingga
lingk
lingkar
lingkaran
lingkungan
lingkungannya
lingkup
linguistik
lini
linier
link
lint
lintang
lintas
lintasan
linux
lion
lionel
liong
lip
lipat
lipatan
lipi
lippo
liputan
lir
lirik
lis
lisa
lisan
lisensi
list
listrik
lit
liter
literasi
literatur
little
litur
liturgi
liu
liv
live
liverpool
living
lk
ll
lm
lo
lob
lobi
lobster
loc
local
lock
lod
log
logam
logat
logika
logis
logistik
logo
loh
lok
lokakarya
lokal
lokasi
lokasinya
lokomotif
lol
lolos
lomb
lomba
lombok
lomp
lompat
lompatan
lon
lonc
lonceng
lond
london
long
longgar
longsor
lonjong
lontar
lontong
look
loop
lop
lor
lord
lorenzo
lorong
los
lost
lot
lotus
lou
louis
lounge
lov
love
low
loy
loyal
loyalitas
lp
ls
lsm
lt
ltd
lu
luang
luar
luarnya
luas
luasnya
lub
lubang
lubis
lubuk
luc
lucky
lucu
lud
luh
luhur
luis
luk
luka
lukas
lukis
lukisan
lukman
lulus
lulusan
lum
lumajang
lumayan
lumbung
lumia
lump
lumpuh
lumpur
lumut
lun
luna
lunak
lup
lupa
lupus
luput
lur
lurah
lurus
lus
lut
luth
luther
lutut
luw
luwu
lux
lv
ly
lyn
m
ma
maaf
mab
mabes
mabuk
mac
macam
macan
macet
mach
machine
mad
mada
made
madi
madinah
madiun
madrasah
madrid
madu
madura
madya
mafia
mag
maga
magang
magelang
magetan
magh
magic
magis
magister
magma
magn
magnesium
magnet
magnetik
magnitudo
mah
maha
mahab
mahal
mahar
mahasis
mahasiswa
mahasiswi
mahat
mahdi
mahir
mahk
mahkamah
mahkota
mahluk
mahmud
mai
maia
mail
main
mainan
mainkan
mainnya
mainstream
maj
majal
majalah
majalengka
majapahit
majelis
majemuk
majikan
majlis
major
maju
mak
maka
makalah
makam
makan
makanan
makanannya
makar
makasar
makassar
make
makhluk
makin
makkah
maklum
makmur
makna
maknanya
makro
maks
maksimal
maksimum
maksud
maksudnya
mal
mala
malah
malahan
malaikat
malaka
malam
malang
malapetaka
malaria
malas
malay
malaysia
mali
malik
malin
maling
mall
malu
maluku
mam
mama
mamalia
mami
mampu
man
mana
manado
manag
management
manager
manaj
manajemen
manajer
manakala
manapun
manc
mancanegara
manch
manchester
mancur
mand
manda
mandailing
mandala
mandar
mandarin
mandat
mandi
mandiri
manfaat
mang
manga
mangan
mangg
mangga
manggarai
manggis
manggung
mangk
mangkuk
mangrove
mangsa
mangun
mani
mania
manif
manifestasi
manik
manila
manipulasi
manis
manok
mansur
mant
mantan
mantap
mantel
mantra
manu
manual
manuf
manufactur
manufacturing
manufaktur
manusia
manusiawi
manuver
many
mao
map
mapan
maq
mar
mara
marah
marak
maraknya
marc
march
marco
maret
marg
marga
margar
margin
mari
maria
marina
marine
marinir
mario
maritim
mark
markas
market
marketing
markus
marmer
maroko
maros
marquez
marri
mars
marsh
mart
martabat
martin
marx
mary
maryam
marzuki
mas
masa
masak
masakan
masalah
masalahnya
masam
masanya
masehi
mash
masi
masif
masih
masing
masjid
masjidil
mask
maskapai
masker
mass
massa
massal
master
masturbasi
masuk
masukan
masuknya
masy
masyarakat
masyarakatnya
mat
mata
matahari
matan
matang
matanya
mataram
match
matematika
matematis
mater
materi
material
math
mati
matius
matriks
matrix
matt
matte
mau
maul
maulana
maulid
maupun
maur
maut
maw
mawar
max
may
maya
mayat
mayjen
mayor
mayoritas
maz
mazda
mazhab
mazmur
mb
mba
mbah
mc
mcc
mck
md
me
mean
mebel
mec
mechan
med
medali
medan
medi
media
mediator
medic
medical
medicine
medis
meditasi
mediterania
medium
meet
meeting
meg
mega
megah
megal
megap
megaw
megawati
meh
mei
mej
meja
mek
mekah
mekan
mekanik
mekanika
mekanis
mekanisme
mekar
mekkah
meksiko
mel
melacak
melah
melahirkan
melainkan
melaju
melaksanakan
melakukan
melakukannya
melalui
melamar
melambangkan
melampaui
melan
melancarkan
melanda
melanggar
melangkah
melangsungkan
melanjutkan
melapor
melaporkan
melarang
melarikan
melati
melatih
melawan
melayang
melayani
melayu
melbourne
melebar
melebarkan
melebihi
meled
meledak
meleg
melej
melek
melekat
melel
meleleh
melem
melemah
melemahkan
melemp
melempar
melemparkan
melengkapi
melengkung
melepas
melepaskan
melesat
melestarikan
meletakkan
meletus
melew
melewati
melewatkan
melibatkan
melihat
melihatnya
melimpah
melindung
melindungi
melingk
melingkar
melintang
melintas
melintasi
melip
meliput
meliputi
melodi
meloloskan
melompat
melon
melonjak
melontarkan
meluas
melukai
melukis
melukiskan
melumpuhkan
melun
meluncur
meluncurkan
melupakan
mem
memaafkan
memacu
memad
memadai
memadamkan
memadukan
memahami
memainkan
memajukan
memak
memakai
memakainya
memakan
memaks
memaksa
memaksakan
memaksimalkan
memalukan
memamerkan
meman
memanas
memanaskan
memancarkan
memancing
memandang
memandu
memanfaatkan
memang
memanggil
memanggilnya
memanipulasi
memanj
memanjang
memanjat
memantapkan
memantau
memaparkan
memas
memasak
memasang
memasarkan
memasok
memastikan
memasukan
memasuki
memasukkan
memat
mematahkan
mematikan
mematuhi
memb
memba
membaca
membacakan
membacanya
membagi
membagikan
membah
membahas
membahayakan
membaik
membakar
membalas
membalik
membalikkan
membandingkan
membanggakan
membangkitkan
membangun
membant
membantah
membantu
membantunya
membas
membatalkan
membatasi
membawa
membawakan
membawanya
membayangkan
membayar
membeb
membebaskan
membedakan
membedakannya
membeku
membel
membela
membelah
membeli
membelinya
membenarkan
membenci
membengk
membentang
membentuk
member
memberantas
memberdayakan
memberi
memberikan
memberikannya
memberinya
memberitah
memberitahu
memberitahukan
memberitakan
memberkati
memberlakukan
memberontak
membersihkan
membesar
membesarkan
membiarkan
membiayai
membicarakan
membimbing
membina
membingungkan
membintangi
memblokir
membolehkan
membongkar
membran
membu
membuah
membuahkan
membuang
membuat
membuatnya
membubarkan
membujuk
membuka
membuktikan
membungk
membungkus
membunuh
membunuhnya
memburu
memburuk
membusuk
membutuhkan
meme
memec
memecah
memecahkan
memegang
memelihara
memeluk
memen
memenangi
memenangkan
memengaruhi
mement
mementingkan
memenuhi
memer
memerangi
memerankan
memeriksa
memerintah
memerintahkan
memerlukan
memesan
memetik
memf
memfasilitasi
memfokuskan
memicu
memihak
memikat
memikirkan
memil
memilih
memiliki
memilki
memimpin
memin
memindahkan
meminimalkan
meminjam
meminjamkan
meminta
memintanya
meminum
memisahkan
memo
memodifikasi
memohon
memor
memori
memory
memotivasi
memotong
memotret
memp
mempekerjakan
mempelai
mempelajari
mempengaruhi
memper
memperb
memperbaiki
memperbarui
memperbesar
memperbolehkan
mempercaya
mempercayai
mempercayakan
mempercepat
memperd
memperdalam
memperebutkan
mempergunakan
memperhatikan
memperhitungkan
memperingati
memperingatkan
memperjuangkan
memperk
memperkaya
memperkenalkan
memperkirakan
memperkuat
memperl
memperlakukan
memperlambat
memperlihatkan
memperluas
memperm
mempermudah
memperoleh
memperpanjang
mempers
mempersatukan
mempersembahkan
mempersiapkan
mempert
mempertahankan
mempertanyakan
mempertemukan
mempraktikkan
memprediksi
memproduksi
mempromosikan
memproses
mempublikasikan
mempunyai
memuaskan
memuat
memudahkan
memudar
memuja
memuji
memukau
memukul
memulai
memuliakan
memulihkan
memunc
memuncak
memunculkan
memungkinkan
memungut
memus
memusatkan
memusnahkan
memut
memutar
memutus
memutuskan
men
mena
menaati
menab
menabrak
menafs
menafsirkan
menag
menahan
menaiki
menaikkan
menak
menakjubkan
menaklukan
menaklukkan
menakutkan
menamakan
menambah
menambahkan
menampakkan
menampilkan
menampung
menanam
menanamkan
menandai
menandakan
menandatangani
menang
menangani
menangg
menanggapi
menanggulangi
menanggung
menangis
menangkap
menanjak
menantang
menanti
menantu
menanyakan
menara
menargetkan
menari
menarik
menariknya
menaruh
menata
menatap
menawan
menawar
menawarkan
menayangkan
menc
mencabut
mencair
mencakup
mencalonkan
mencampur
mencampurkan
mencantumkan
mencapai
mencari
mencatat
mencatatkan
mencegah
mencegahnya
mencer
menceritakan
mencerminkan
mencetak
mencintai
mencintainya
menciptakan
mencium
mencoba
mencolok
mencuat
mencuci
mencukupi
mencur
mencurahkan
mencuri
mend
mendadak
mendaftar
mendaftarkan
mendahului
mendaki
mendalam
mendalami
mendampingi
mendapat
mendapati
mendapatkan
mendapatkannya
mendarat
mendasar
mendasari
mendasarkan
mendatang
mendatangi
mendatangkan
mendefinisikan
mendek
mendekat
mendekati
mendekatkan
mendel
mendengar
mendengarkan
menderita
mendes
mendesain
mendesak
mendeskripsikan
mendeteksi
mendi
mendiami
mendidih
mendidik
mendik
mendikbud
mendirikan
mendiskusikan
mendo
mendominasi
mendong
mendorong
menduduki
menduga
mendukung
mendukungnya
menebus
meneg
menegakkan
menegaskan
menek
menekan
menekankan
menekuni
menel
menelan
menelepon
meneliti
menelusuri
menemani
menemb
menembak
menembus
menemp
menempati
menempatkan
menempel
menempuh
menemui
menemukan
menemukannya
menenangkan
menendang
menengah
menentang
menentu
menentukan
mener
menerangkan
menerapkan
menerbitkan
menerima
menerimanya
menerjemahkan
menerobos
menerus
meneruskan
menetap
menetapkan
menetas
menetr
menewaskan
meng
mengab
mengabadikan
mengabaikan
mengabarkan
mengabdi
mengabdikan
mengabulkan
mengacaukan
mengacu
mengad
mengadakan
mengadili
mengadopsi
mengadu
mengag
mengagumi
mengagumkan
mengaitkan
mengajak
mengajaknya
mengajar
mengajari
mengajarkan
mengaji
mengajukan
mengak
mengakhiri
mengakibatkan
mengakomodasi
mengakses
mengaktifkan
mengaku
mengakui
mengal
mengalah
mengalahkan
mengalami
mengalihkan
mengalir
mengalirkan
mengam
mengamalkan
mengamankan
mengamati
mengambang
mengambil
mengambilnya
mengampuni
mengamuk
mengan
menganalisis
mengancam
mengandalkan
mengandung
mengangg
menganggap
menganggapnya
mengangkat
mengangkut
menganjurkan
mengant
mengantar
mengantarkan
mengantisipasi
menganugerahkan
menganut
mengap
mengapa
mengapung
mengar
mengarah
mengarahkan
mengarang
mengartikan
mengarungi
mengas
mengasah
mengasihi
mengasuh
mengatakan
mengatas
mengatasi
mengatur
mengaw
mengawal
mengawali
mengawasi
mengeb
mengebor
mengec
mengecam
mengecewakan
mengecil
menged
mengedepankan
mengej
mengejar
mengejek
mengejutkan
mengek
mengeks
mengeksekusi
mengeksplorasi
mengekspresikan
mengel
mengelilingi
mengelola
mengelompokkan
mengeluarkan
mengeluh
mengem
mengemb
mengembalikan
mengemban
mengembang
mengembangkan
mengemudi
mengemukakan
mengen
mengenai
mengenakan
mengenal
mengenali
mengenalkan
mengenalnya
mengenang
mengend
mengendalikan
mengendap
mengendarai
menger
mengerahkan
mengerikan
mengering
mengerjakan
mengerti
menges
mengesahkan
mengesampingkan
mengesankan
mengetahui
mengevaluasi
mengg
mengga
menggabungkan
menggalang
menggali
menggambar
menggambarkan
menggandeng
mengganggu
mengganti
menggantikan
menggantinya
menggantung
menggantungkan
menggarap
menggel
menggelar
menggeluti
menggemb
mengger
menggerakkan
menggeser
menggigit
menggoda
menggug
menggugat
menggun
menggunakan
menggunakannya
mengguncang
mengh
menghabiskan
menghadang
menghadap
menghadapi
menghadiri
menghadirkan
menghafal
menghalangi
menghambat
menghampiri
menghancurkan
menghant
menghantam
menghantarkan
menghapus
menghapuskan
menghar
mengharapkan
menghargai
mengharuskan
menghasilkan
menghemat
menghendaki
menghentikan
mengherankan
menghiasi
menghibur
menghidup
menghidupi
menghidupkan
menghilang
menghilangkan
menghimpun
menghina
menghindar
menghindari
menghisap
menghitung
menghormati
menghubung
menghubungi
menghubungkan
menghukum
menghuni
mengidap
mengikat
mengikut
mengikuti
mengikutinya
mengimbangi
mengimpor
mengin
menginap
mengincar
mengind
mengindikasikan
menginfeksi
mengingat
mengingatkan
menginginkan
menginj
menginjak
menginspirasi
menginter
mengira
mengirim
mengirimkan
mengiringi
mengis
mengisahkan
mengisi
mengisyaratkan
mengitari
mengizinkan
mengk
mengkaji
mengkh
mengkhawatirkan
mengkhususkan
mengkilap
mengklaim
mengkonfirmasi
mengkons
mengkonsumsi
mengkritik
mengobati
mengolah
mengoleksi
mengomentari
mengonsumsi
mengontrol
mengoperasikan
mengoptimalkan
mengorbankan
mengorganisasi
mengu
menguap
menguasai
menguat
menguatkan
mengubah
mengubahnya
menguc
mengucapkan
menguji
mengukir
mengukur
mengulang
mengulangi
mengulas
mengumpulkan
mengumumkan
mengun
mengunci
mengund
mengundang
mengunduh
mengundurkan
mengungg
mengunggah
mengungkap
mengungkapkan
mengungsi
mengunjungi
menguntungkan
mengup
mengupayakan
mengur
menguraikan
mengurangi
mengurus
mengurusi
mengus
mengusahakan
mengusir
mengusulkan
mengusung
mengutamakan
mengutarakan
mengutip
mengutuk
mengutus
meni
meniadakan
menik
menikah
menikahi
menikmati
menilai
menimba
menimbulkan
menimpa
mening
meninggal
meninggalkan
meninggalkannya
meninggalnya
meningitis
meningkat
meningkatkan
meningkatnya
meninjau
menip
menipu
menir
meniru
menit
menitik
menj
menjabarkan
menjabat
menjadi
menjadikan
menjadikannya
menjaga
menjalan
menjalani
menjalankan
menjalar
menjalin
menjamin
menjangkau
menjanjikan
menjatuhkan
menjauh
menjauhi
menjauhkan
menjawab
menjel
menjelajah
menjelajahi
menjelang
menjelaskan
menjelma
menjembatani
menjemput
menjual
menjualnya
menjuarai
menjulang
menjumpai
menjunjung
menolak
menolaknya
menolong
menonjol
menonjolkan
menonton
menopang
menor
mens
menstabilkan
menstr
menstruasi
mensyaratkan
ment
menta
mentah
mental
mentawai
mentega
menteng
menteri
mentor
mentrans
mentransfer
menu
menuai
menuangkan
menud
menuduh
menuju
menuk
menukar
menular
menulis
menuliskan
menum
menumbuhkan
menump
menumpang
menumpuk
menunaikan
menunda
menundukkan
menunggu
menunj
menunjang
menunjuk
menunjukan
menunjukkan
menuntun
menuntut
menurun
menurunkan
menurunnya
menurut
menuruti
menurutnya
menusuk
menutup
menutupi
menuturkan
meny
menya
menyadari
menyadarkan
menyajikan
menyakit
menyakiti
menyakitkan
menyaksikan
menyala
menyalah
menyalahkan
menyalakan
menyalin
menyalurkan
menyamai
menyamakan
menyamar
menyambung
menyambut
menyampaikan
menyandang
menyangg
menyangka
menyangkal
menyangkut
menyantap
menyanyi
menyanyikan
menyapa
menyapu
menyarankan
menyaring
menyatakan
menyatu
menyatukan
menyayangi
menye
menyeb
menyebabkan
menyebar
menyebarkan
menyebarluaskan
menyeber
menyeberang
menyeberangi
menyebut
menyebutkan
menyebutnya
menyed
menyediakan
menyedihkan
menyeimbangkan
menyel
menyelam
menyelamatkan
menyelesaikan
menyelidiki
menyeluruh
menyem
menyembah
menyembuhkan
menyembunyikan
menyempurnakan
menyenangkan
menyentuh
menyepakati
menyer
menyerah
menyerahkan
menyerang
menyerap
menyerbu
menyeret
menyertai
menyertakan
menyerukan
menyerupai
menyes
menyesal
menyesatkan
menyesuaikan
menyet
menyetujui
menyewa
menyiapkan
menyiarkan
menyiksa
menyimp
menyimpan
menyimpang
menyimpulkan
menyinggung
menyingkirkan
menyir
menyiratkan
menyis
menyisakan
menyisihkan
menyita
menyoroti
menyuarakan
menyukai
menyukainya
menyulitkan
menyumbang
menyumbangkan
menyuruh
menyus
menyusui
menyusul
menyusun
menyusup
menyusuri
menyusut
mer
mera
meragukan
merah
meraih
merak
merakit
meramalkan
merambah
merambat
merampas
merampok
merancang
merangk
merangkap
merangkul
merangsang
merantau
meranti
merapi
merasa
merasakan
merata
merauke
meraup
merawat
merayakan
merc
mercedes
merch
merd
merdeka
merebut
mered
meredakan
meredam
merefleksikan
merek
mereka
merekam
merekrut
merel
merem
meren
merencanakan
merendahkan
merep
meres
meresmikan
merespon
merespons
merger
meri
meriah
meriam
merilis
meringankan
merintis
meriwayatkan
merk
merkuri
merob
merokok
merosot
merpati
merta
mertua
meru
merugikan
merujuk
merumuskan
merupakan
merusak
mes
mesias
mesin
mesinnya
mesir
mesjid
meski
meskipun
mess
message
messenger
messi
mesti
mestinya
met
meta
metabolisme
metaf
metafisika
metal
metam
metamorf
mete
meteor
meter
meth
method
metod
metode
metodologi
metro
metrop
metropolitan
mew
mewah
mewajibkan
mewak
mewakili
mewarisi
mewarnai
mewujudkan
mex
mexico
mey
meyakini
meyakinkan
mg
mh
mhz
mi
mia
miami
mic
michael
michel
michi
micro
micros
microsoft
mid
midd
midi
mie
mif
mig
migas
migran
migrasi
mih
mik
mika
mike
mikro
mikrobi
mikroorganisme
mikroskop
mil
milan
mili
miliar
milik
miliki
miliknya
militan
militer
milk
mill
miller
mim
mimbar
mimp
mimpi
mimpinya
min
mina
minahasa
minang
minangkabau
minat
mind
mineral
ming
mingg
minggu
mingguan
mini
miniatur
minim
minimal
minimnya
minimum
minor
minoritas
mint
minta
minum
minuman
minus
minyak
mir
mira
miring
mirip
mirror
mis
misa
misal
misalkan
misalnya
misi
misinya
misionaris
miskin
miss
mission
misteri
misterius
mistik
mistis
mit
mitologi
mitos
mitra
mitsub
mitsubishi
mix
miya
miz
mk
ml
mm
mn
mnc
mo
mob
mobil
mobile
mobilisasi
mobilitas
mobilnya
moc
moch
mochtar
mod
moda
modal
mode
model
moder
moderat
modern
modernisasi
modifikasi
modul
modus
mog
mogok
moh
mohammad
mohon
moj
mojokerto
mok
mol
molek
molekul
mom
momen
momentum
mon
monas
mond
moneter
money
mong
mongol
monica
monitor
mono
monok
monopoli
mons
monster
mont
month
monumen
monyet
moon
mor
moral
moralitas
more
morf
morfologi
morgan
morning
mort
mos
mosk
moskow
most
mot
mother
motif
motion
motiv
motivasi
moto
motogp
motor
motto
mou
mount
mountain
mouse
mov
movie
moy
moyang
moz
mozilla
mp
mpr
mpu
mr
mrs
mrt
ms
msc
mt
mts
mu
mual
muar
muara
muas
muasal
muat
muatan
mub
muc
much
mud
muda
mudah
mudanya
mudik
muf
mug
muh
muhamad
muhammad
muhammadiyah
muhar
mui
muj
mujah
mujahidin
muk
muka
mukjizat
mukosa
muktamar
mul
mula
mulai
mulailah
mulanya
mulia
multi
multif
multim
multimedia
multin
multinasional
multip
multiple
multiv
mulus
mulut
mulutnya
mulya
mulyadi
mum
mun
muna
munchen
muncul
muncullah
munculnya
mund
mundur
mung
mungkin
munich
munir
munt
muntah
muq
mur
murah
muri
murid
muridnya
murka
murni
murtad
mus
musa
museum
mush
mushola
musi
musibah
music
musik
musikal
musiknya
musim
musiman
musisi
muslim
muslimah
muslimin
musnah
must
mustafa
mustah
mustahil
musuh
musuhnya
musyawarah
mut
mutakhir
mutasi
muti
mutiara
mutlak
mutlaknya
mutu
muz
mv
mw
mx
my
myan
myanmar
mys
n
na
nab
nabati
nabi
nac
nad
nada
nadi
naf
nafas
nafkah
nafsu
nag
naga
nagari
nah
nahd
nahdlatul
nai
naik
naiknya
naj
nak
nakal
nal
nam
nama
namanya
name
namun
nan
nana
nanas
nang
nangka
nano
nanti
nantinya
nap
napas
napoleon
napoli
naq
nar
nara
narap
narapidana
naras
narasi
narasumber
nark
narkoba
narkotika
naruto
nas
nasa
nasabah
nasdem
nash
nasi
nasib
nasibnya
nasihat
nasional
nasionalis
nasionalisme
nasir
naskah
nasution
nat
nata
natal
nation
national
nato
natrium
nats
natuna
natur
natural
nature
naungan
nav
navig
navigasi
naw
nawawi
nay
naz
nazar
nazi
nc
nd
ne
nebula
nec
need
neg
negara
negaranya
negatif
negeri
negerinya
negosiasi
negri
neh
nek
nel
nelayan
nelson
nem
nen
nenek
neneknya
neo
neon
nep
ner
neraca
neraka
nes
nest
net
netral
network
neur
neuron
nev
never
new
newcastle
news
newton
nex
next
ng
nga
ngab
nganjuk
ngaw
ngawi
nge
ngurah
nh
ni
nia
niaga
nias
niat
niatnya
nic
nice
nich
nick
nicol
nie
nig
nigeria
night
nih
nik
nikah
nike
nikel
nikita
nikmat
nikotin
nil
nila
nilai
nilainya
nim
nin
nina
ning
ninja
nip
nir
nirkabel
nis
nisan
nish
niss
nissan
nit
nitrat
nitrogen
nj
nk
nkri
nm
no
noah
nob
nobel
nod
noda
node
nok
nokia
nol
nom
nominal
nominasi
nomor
non
nona
nong
nons
noor
nop
nopember
nor
norm
norma
normal
norman
north
norweg
norwegia
not
nota
notaris
notasi
note
nou
nov
nova
novel
november
novi
now
np
nr
ns
nt
ntb
ntt
nu
nuansa
nubuat
nug
nugroho
nuh
nuk
nukle
nuklir
num
number
nun
nunukan
nup
nur
nuran
nurani
nurdin
nurh
nurul
nus
nusa
nusantara
nut
nutr
nutrisi
nv
ny
nya
nyai
nyak
nyala
nyaman
nyamuk
nyany
nyanyian
nyar
nyaris
nyata
nyatanya
nyawa
nyawanya
nyeri
nyi
nyoman
nyonya
o
oak
ob
obama
obat
objek
objektif
obl
obligasi
obor
observ
observasi
obyek
oc
occ
oce
ocean
octa
october
od
of
off
offic
office
officer
official
og
ogan
oh
oi
oil
ojek
ok
oki
oks
oksida
oksidasi
oksigen
oktober
ol
olah
olahan
olahraga
old
oleh
olehnya
olga
oli
olig
olimpiade
oliv
olymp
om
ombak
omega
on
ond
one
ong
ongkos
online
only
ons
ont
op
open
oper
opera
operasi
operasinya
operasional
operation
operator
opini
oposisi
opsi
optik
optim
optimal
optimis
or
ora
oral
orang
orange
orangnya
orangtua
orangtuanya
oranye
orb
orbit
orch
ord
orde
order
ordo
org
organ
organik
organis
organisasi
organisme
organiz
organization
ori
orient
oriental
orientasi
orig
origin
original
orkes
orland
orlando
ormas
ornamen
orth
os
osaka
oscar
osis
osm
ost
ot
otak
otentik
other
oto
otom
otomatis
otomotif
otonom
otonomi
otor
otoritas
otoriter
otot
ott
ou
our
out
outlet
output
ov
oval
ovarium
oven
over
ow
own
ox
oxford
oxy
oz
ozon
p
pa
pab
pabrik
pabrikan
pac
pacar
pacaran
pacarnya
pacific
pacitan
pack
pacu
pad
pada
padahal
padam
padang
padanya
padat
padepokan
padi
paduan
pag
pagar
page
pagelaran
pagi
paginya
paguy
paguyuban
pah
paha
paham
pahit
pahlawan
pai
pain
paj
pajajaran
pajak
pajang
pak
pakai
pakaian
pakaiannya
pakan
pakar
pakem
paket
pakis
pakistan
paksa
paku
pal
pala
palace
palang
palangka
palapa
palem
palembang
palest
palestina
paling
palm
palsu
palu
pam
paman
pamannya
pamekasan
pameran
pamong
pamor
pamungkas
pan
panah
panama
panas
panasonic
panc
panca
pancaran
pancasila
panci
pancing
pand
panda
pandai
pandan
pandang
pandangan
pandangannya
pandawa
pandeg
pandeglang
pandu
panduan
panel
panembahan
panen
pang
pangan
pangandaran
pangdam
pangeran
pangg
panggang
panggil
panggilan
panggul
panggung
pangk
pangkal
pangkalan
pangkat
panglima
pangsa
panik
panitia
panj
panjang
panjangnya
panji
pankre
pankreas
panorama
pans
pant
pantai
pantainya
pantang
pantas
panther
panti
pantun
pantura
panutan
pap
papa
papan
paparan
paper
papua
par
para
parabola
parad
parade
paradi
paradigma
paradise
paragraf
parah
paral
paralel
param
parameter
paran
parang
paranormal
paras
parasit
pare
parep
parepare
parfum
pari
pariaman
paripurna
paris
parit
pariwisata
park
parkir
parlemen
paroki
parsial
part
partai
partainya
parti
partikel
partisi
partisip
partisipan
partisipasi
partner
party
paru
paruh
pas
pasal
pasalnya
pasang
pasangan
pasangannya
pasar
pasaran
pasc
pasca
pascal
pascasarjana
pasi
pasien
pasif
pasifik
pasir
pask
paskah
paslon
pasokan
paspor
pass
passion
past
pasta
pasteur
pasti
pastinya
pastor
pasukan
pasukannya
pasuruan
pat
patah
paten
path
pati
patih
patogen
patokan
patri
patrick
patroli
patuh
patung
patut
paud
paul
paulo
paulus
paus
pav
paw
pawai
pay
payah
payakumbuh
payudara
payung
pb
pbb
pc
pd
pda
pdam
pdb
pdi
pdip
pdt
pe
peace
pear
pearl
peb
pebisnis
pec
pecah
pecahan
pecahnya
pecandu
pecinta
ped
pedagang
pedalaman
pedang
pedas
pedesaan
pedoman
peduli
peer
peg
pegang
pegangan
pegas
pegaw
pegawai
pegunungan
pej
pejabat
pejalan
pejantan
pejuang
pek
peka
pekalongan
pekan
pekanbaru
pekar
pekarangan
pekat
pekerj
pekerja
pekerjaan
pekerjaannya
pel
pelabuhan
pelac
pelacur
pelajar
pelajaran
pelaksana
pelaksanaan
pelaksanaannya
pelaku
pelakunya
pelan
pelancong
pelanggan
pelanggaran
pelangi
pelantikan
pelap
pelapis
pelaporan
pelarangan
pelari
pelarian
pelarut
pelat
pelatih
pelatihan
pelaut
pelay
pelayan
pelayanan
pelayanannya
pelayaran
pelbagai
peleburan
pelec
pelecehan
peledak
pelengkap
pelep
pelepasan
pelestarian
pelih
peliharaan
pelindung
pelita
pelopor
pelosok
peluang
pelukis
pelunc
peluncuran
peluru
pem
pemad
pemadam
pemadaman
pemahaman
pemain
pemainnya
pemak
pemakai
pemakaian
pemakaman
pemakan
pemalang
pemalsuan
pemalu
peman
pemanas
pemanasan
pemancar
pemand
pemandangan
pemandian
pemandu
pemanfaatan
pemangku
pemantauan
pemas
pemasangan
pemasaran
pemasok
pemasukan
pemat
pematang
pemb
pemba
pembac
pembaca
pembacaan
pembacanya
pembagian
pembah
pembaharuan
pembahasan
pembajakan
pembakaran
pembal
pembalap
pembalasan
pembangkit
pembangun
pembangunan
pembangunannya
pembantaian
pembantu
pembaruan
pembatalan
pembatas
pembatasan
pembawa
pembayaran
pembebasan
pembedahan
pembekuan
pembel
pembela
pembelaan
pembelahan
pembelajaran
pembeli
pembelian
pemben
pembenahan
pembenaran
pembengk
pembengkakan
pembentuk
pembentukan
pember
pemberani
pemberantasan
pemberdayaan
pemberhentian
pemberi
pemberian
pemberitaan
pemberitahuan
pemberlakuan
pemberontak
pemberontakan
pembersih
pembersihan
pembesar
pembesaran
pembiayaan
pembicara
pembicaraan
pembimbing
pembina
pembinaan
pembu
pembuahan
pembuangan
pembuat
pembuatan
pembuatannya
pembubaran
pembuk
pembuka
pembukaan
pembuktian
pembuluh
pembunuh
pembunuhan
pemburu
pemda
pemec
pemecah
pemecahan
pemegang
pemekaran
pemeliharaan
pemeluk
pemenang
pemenangnya
pementasan
pemenuhan
pemer
pemeran
pemeriksa
pemeriksaan
pemerint
pemerintah
pemerintahan
pemerintahannya
pemerkosaan
pemesanan
pemetaan
pemicu
pemikir
pemikiran
pemikirannya
pemil
pemilih
pemilihan
pemilik
pemiliknya
pemilu
pemimpin
pemimpinnya
pemin
peminat
pemindahan
pemir
pemirsa
pemisah
pemisahan
pemkab
pemod
pemotongan
pemotretan
pemrograman
pemrosesan
pemuda
pemujaan
pemuk
pemuka
pemukiman
pemul
pemula
pemulihan
pemungutan
pemurnian
pemus
pemut
pemutar
pemutaran
pen
pena
penafs
penafsiran
penahan
penahanan
penak
penaklukan
penal
penalaran
penalti
penamaan
penambahan
penambang
penambangan
penamp
penampakan
penampang
penampilan
penampilannya
penampungan
penanaman
penanda
penandatangan
penandatanganan
penang
penangan
penanganan
penangg
penanggalan
penanggulangan
penanggung
penangk
penangkapan
penangkaran
penari
penarikan
penas
penasaran
penasehat
penasihat
penat
penata
penataan
penawaran
penc
penca
pencabutan
pencah
pencaharian
pencahayaan
pencak
pencalonan
pencampuran
pencapaian
pencari
pencarian
pencatatan
pencegahan
pencemaran
pencerahan
pencernaan
pencetak
pencetakan
pencetus
pencinta
pencipta
penciptaan
pencitraan
pencucian
penculikan
pencuri
pencurian
pend
pendaftaran
pendahulu
pendahuluan
pendahulunya
pendak
pendaki
pendakian
pendamping
pendanaan
pendapat
pendapatan
pendapatnya
pendarahan
pendaratan
pendatang
pendek
pendekar
pendekatan
pendeng
pendengar
pendengaran
penderita
penderitaan
pendeta
pendiam
pendidik
pendidikan
pendidikannya
pendingin
pendinginan
pendiri
pendirian
pendopo
pendorong
penduduk
pendudukan
penduduknya
pendukung
pendukungnya
peneb
penebangan
peneg
penegak
penegakan
penekanan
penel
penelit
peneliti
penelitian
penelitiannya
penelus
penelusuran
penembakan
penempatan
penemu
penemuan
penentu
penentuan
pener
penerangan
penerapan
penerbangan
penerbit
penerbitan
penerima
penerimaan
penerjemah
penerjemahan
penerus
penet
penetapan
penetrasi
peng
pengab
pengabdian
pengacara
pengadaan
pengadilan
pengairan
pengajar
pengajaran
pengajian
pengajuan
pengakuan
pengalaman
pengalamannya
pengalihan
pengaman
pengamanan
pengamat
pengamatan
pengambil
pengambilan
pengamp
pengampunan
pengan
pengangg
pengangguran
pengangkatan
pengangkut
pengangkutan
penganiayaan
pengantar
pengantin
penganut
pengap
pengarahan
pengarang
pengaruh
pengaruhnya
pengas
pengasuh
pengatur
pengaturan
pengaw
pengawal
pengawas
pengawasan
pengeb
pengeboran
pengec
pengecualian
pengel
pengelola
pengelolaan
pengelompokan
pengeluaran
pengem
pengemb
pengembalian
pengembang
pengembangan
pengembangannya
pengemis
pengemudi
pengenal
pengenalan
pengend
pengendali
pengendalian
pengendapan
pengendara
pengep
penger
pengeringan
pengerjaan
pengertian
pengesahan
pengetahuan
pengetahuannya
pengg
penggabungan
penggalangan
penggalian
penggambaran
pengganti
penggantian
penggantinya
penggemar
penggemarnya
penggemb
pengger
penggerak
penggilingan
penggun
pengguna
penggunaan
penggunaannya
penggunanya
pengh
penghalang
penghambat
penghancur
penghancuran
penghap
penghapusan
penghargaan
penghasil
penghasilan
penghematan
penghentian
penghinaan
penghitungan
penghormatan
penghubung
penghujan
penghujung
penghulu
penghuni
penghuninya
pengikat
pengikut
pengikutnya
pengin
penginapan
penginj
pengirim
pengiriman
pengiring
pengisi
pengisian
pengk
pengkajian
pengkh
pengl
penglihatan
pengobatan
pengolah
pengolahan
pengoperasian
pengorbanan
pengrajin
pengu
penguapan
penguasa
penguasaan
penguat
penguatan
pengucapan
pengujian
pengukur
pengukuran
pengulangan
pengumpul
pengumpulan
pengumuman
pengund
pengunduran
pengungkapan
pengungsi
pengungsian
pengunjung
pengur
pengurangan
pengurus
pengus
pengusaha
penilaian
penindasan
peninggalan
peningkatan
peninjauan
penip
penipuan
penis
penit
penj
penjaga
penjagaan
penjahat
penjajah
penjajahan
penjara
penjelajah
penjelasan
penjual
penjualan
penjualannya
penjumlahan
penjuru
penolakan
penolong
penonton
pensi
pensil
pensiun
pensiunan
pent
pentas
penting
pentingnya
pentium
penu
penuaan
penug
penugasan
penuh
penul
penularan
penulis
penulisan
penulisnya
penump
penumpang
penundaan
penunjang
penunjuk
penunjukan
penuntut
penurunan
penutup
penutupan
penutur
penuturan
peny
penya
penyair
penyajian
penyakit
penyakitnya
penyal
penyalah
penyalahgunaan
penyaluran
penyampaian
penyandang
penyangga
penyanyi
penyaringan
penyatuan
penyayang
penye
penyeb
penyebab
penyebabnya
penyebar
penyebaran
penyeberangan
penyebutan
penyed
penyedia
penyediaan
penyel
penyelamat
penyelamatan
penyelengg
penyelenggara
penyelenggaraan
penyeles
penyelesaian
penyelidikan
penyelund
penyem
penyembahan
penyembuhan
penyempurnaan
penyer
penyerahan
penyerang
penyerangan
penyerapan
penyesalan
penyesuaian
penyewa
penyewaan
penyi
penyiar
penyiaran
penyidik
penyihir
penyiksaan
penyimp
penyimpan
penyimpanan
penyimpangan
penyis
penyisihan
penyu
penyul
penyuluhan
penyus
penyusun
penyusunan
people
pep
pepat
pepatah
pepaya
peperangan
pepohonan
per
perab
perabotan
peradaban
peradangan
peradilan
peraga
perah
perahu
peraih
perairan
perak
perakitan
peral
peralatan
peralihan
peramp
perampok
perampokan
peran
peranan
perancang
perancangan
perancis
perang
perangkap
perangkat
perannya
perantara
peranti
perasaan
perasaannya
peraturan
perawan
perawat
perawatan
perayaan
perb
perbaikan
perbandingan
perbankan
perbatasan
perbedaan
perbedaannya
perbel
perbelanjaan
perbendaharaan
perbincangan
perbuatan
perbuatannya
perbud
perbudakan
perbuk
perbukitan
perburuan
perc
percakapan
percaya
percepatan
perceraian
percetakan
percikan
percintaan
percobaan
perd
perda
perdagangan
perdamaian
perdana
perdarahan
perdata
perdebatan
perdesaan
perebutan
pered
peredaran
perek
perekaman
perekat
perekonomian
perekrutan
perempat
perempatan
perempuan
perempuannya
perencana
perencanaan
peresm
peresmian
perez
perf
perfect
perfilman
perform
performa
performance
perg
pergantian
pergaulan
pergelangan
pergerakan
pergeseran
pergi
perguruan
perh
perhatian
perhatiannya
perhatikan
perhelatan
perhiasan
perhimpunan
perhitungan
perhotelan
perhubungan
perhutani
peri
perib
peribahasa
perihal
perik
perikanan
periklanan
peril
perilaku
perilakunya
perincian
perindustrian
peringatan
peringkat
perintah
perintis
period
periode
periodik
peris
perisai
peristiwa
periz
perizinan
perj
perjalan
perjalanan
perjalanannya
perjamuan
perjanjian
perjuangan
perjuangannya
perjudian
perk
perkakas
perkalian
perkampungan
perkan
perkantoran
perkap
perkara
perkasa
perkataan
perkaw
perkawinan
perkebunan
perkelahian
perkemahan
perkembang
perkembangan
perkembangannya
perkenalan
perker
perkiraan
perkotaan
perkuliahan
perkumpulan
perl
perlahan
perlakuan
perlawanan
perlengkapan
perlindungan
perlombaan
perlu
perluasan
perlunya
perm
permain
permainan
permainannya
permais
permaisuri
perman
permanen
permas
permasalahan
permata
permen
permintaan
permohonan
permukaan
permukaannya
permukiman
permulaan
permus
permusuhan
permusyawaratan
pern
pernah
pernapasan
pernik
pernikahan
pernikahannya
pernyataan
perokok
peroleh
perolehan
perombakan
perorangan
perp
perpaduan
perpajakan
perpanjangan
perpecahan
perpindahan
perpisahan
perpustakaan
perputaran
pers
persah
persahabatan
persaingan
persalinan
persamaan
persatu
persatuan
persaudaraan
persawahan
perse
persebaran
persebaya
persediaan
persegi
persekutuan
persel
perselingkuhan
perselis
perselisihan
persem
persembahan
persen
persenjataan
persentase
perseorangan
persepsi
perserikatan
persero
perseroan
persetujuan
persi
persia
persiapan
persib
persidangan
persija
persik
persilangan
persimpangan
persipura
persis
perso
persoalan
person
personal
personel
personil
perspektif
persyaratan
pert
pertahanan
pertahun
pertam
pertama
pertamanya
pertambahan
pertambangan
pertamina
pertanahan
pertanda
pertandingan
pertanian
pertanya
pertanyaan
pertar
pertarungan
pertemanan
pertempuran
pertemuan
pertengahan
pertengkaran
pertentangan
perth
perti
pertiga
pertigaan
pertikaian
pertimbangan
pertiwi
pertobatan
pertokoan
pertolongan
pertuk
pertukaran
pertum
pertumbuhan
pertumbuhannya
pertunjukan
pertunjukkan
peru
perubahan
perum
perumahan
perumpamaan
perumusan
perund
perundingan
perunggu
perusahaan
perusahaannya
perusahan
perusak
perut
perutnya
perw
perwakilan
perwira
perwujudan
pes
pesaing
pesaingnya
pesan
pesanan
pesantren
pesat
pesawat
peserta
pesiar
pesisir
pesona
pesta
pestisida
pet
peta
petak
petang
petani
petarung
petenis
peter
petern
peternak
peternakan
peti
petinggi
petinju
petir
petra
petrus
petual
petualang
petualangan
petugas
petunjuk
pew
pewaris
pewarn
pewarna
pewarnaan
pf
pg
pgri
ph
phd
phil
philip
pho
phoenix
phone
phot
php
phy
pi
pia
piagam
piala
pian
piano
piatu
pic
pick
picture
pictures
pid
pidana
pidato
pie
piece
pier
pig
pigmen
pih
pihak
pij
pijakan
pik
pikir
pikiran
pikirannya
piksel
pil
pilar
pilih
pilihan
pilihannya
pilk
pilkada
pill
pilot
pimpin
pimpinan
pin
pinang
pind
pindah
ping
pingg
pinggang
pinggir
pinggiran
pings
pingsan
pinj
pinjaman
pink
pint
pintar
pintu
pinus
pip
pipa
pipi
pipih
pir
piramida
piring
piringan
pis
pisah
pisang
pisau
pist
pistol
piston
pit
pita
pix
pizza
pj
pk
pkb
pki
pkk
pks
pl
pla
plac
place
plagi
plakat
plan
planet
planetisimal
plank
plant
plas
plasma
plastik
plat
plate
platform
platinum
plato
play
playboy
player
playstation
plaza
plc
ple
pleno
pln
plot
plt
plug
plur
pluralisme
plus
pm
pmi
pn
pneum
pneumonia
pns
po
poc
pocong
pod
podium
pog
pohon
poin
point
pojok
pok
pokemon
poker
pokok
pol
pola
polandia
polar
polda
polemik
poli
polic
policy
polimer
polip
polis
polisi
polit
politeknik
political
politik
politiknya
politikus
politis
politisi
polo
polong
polos
polres
polri
polusi
poly
pom
pomp
pompa
pon
pond
pondasi
pondok
ponorogo
ponsel
pontianak
pool
pop
popular
popularitas
populasi
populer
por
pori
porno
pornografi
poros
porsi
port
portal
portland
porto
portofolio
portug
portugal
portugis
pos
pose
posisi
posisinya
positif
position
poso
post
poster
postur
posy
posyandu
pot
potensi
potensial
potong
potongan
potret
potter
pound
pow
power
pp
ppi
ppm
ppp
pps
pr
pra
prab
prabowo
prabu
prac
prad
prag
praja
prajurit
prak
prakarsa
praktek
praktik
praktis
praktisi
pram
pramb
prambanan
pramuka
pran
pranala
prancis
pras
prasangka
prasarana
prasasti
prasejarah
praset
prat
pratama
praw
pray
pre
prec
pred
predator
predikat
prediksi
pref
prefek
prefektur
preferensi
prem
preman
premi
premier
premis
premium
prep
pres
present
presentasi
presenter
presiden
president
presisi
press
prest
prestasi
prestasinya
pret
prev
preval
pri
pria
prib
pribadi
pribadinya
pribumi
price
prihatin
prim
prima
prime
primer
primitif
primordi
primordial
princ
prince
princess
princip
prinsip
prinsipnya
printer
priok
prioritas
priv
privasi
privat
private
pro
probabilitas
probl
problem
probolinggo
proc
process
prod
prodi
produc
product
production
produk
produknya
produksi
produksinya
produktif
produktivitas
produsen
produser
prof
profes
profesi
profesional
profesor
professional
professor
profil
profit
progo
progr
program
programmer
progresif
progress
project
prok
proklamasi
prol
prom
promo
promosi
prop
propag
propaganda
properti
propinsi
proporsi
proporsional
proposal
proposisi
pros
prosa
prosedur
proses
prosesi
prosesnya
prosesor
prospek
prostitusi
prot
protection
protein
proteksi
protes
protestan
proto
protocol
protokol
proton
prov
provinsi
proyek
proyeksi
proyektor
ps
pse
pseud
psi
psik
psikolog
psikologi
psikologis
psm
psp
pssi
psy
psych
pt
pu
puas
puasa
pub
puber
publ
public
publik
publikasi
publish
puc
pucat
pucuk
pud
puerto
puing
puisi
puj
pujangga
puji
pujian
puk
pukul
pukulan
pul
pula
pulang
pulau
pulih
pulo
pulsa
puluh
puluhan
pun
punah
punc
puncak
puncaknya
pung
pungg
punggung
punggungnya
punk
punya
pup
pupuk
pur
pura
purba
purbakala
purbal
purbalingga
pure
puri
purn
purnama
purw
purwakarta
purwodadi
purwokerto
purworejo
pus
pusaka
pusat
pusatnya
push
pusing
puskesmas
pusp
pustak
pustaka
pustakawan
put
putar
putaran
puter
putera
puteri
putih
putr
putra
putranya
putri
putrinya
putu
putus
putusan
pv
pw
py
pyth
q
qa
qad
qatar
qi
qing
qs
qu
quad
qual
quality
quar
qud
que
queen
queens
quest
quick
qur
qura
quraisy
quran
r
ra
rab
rabi
rabu
rac
race
rach
rachel
racing
racun
rad
radang
radar
raden
radi
radiasi
radikal
radio
radioaktif
radius
raf
rafael
raff
raffles
rag
raga
ragam
ragi
ragu
rah
rahang
rahasia
rahayu
rahim
rahman
rahmat
rai
raih
raihan
rail
rain
rainbow
rais
raj
raja
rajab
rajawali
rajin
rak
raka
rakit
raks
raksasa
rakyat
rakyatnya
ral
ram
rama
ramad
ramadan
ramadhan
ramah
ramai
ramalan
ramayana
ramb
rambu
rambut
rambutan
rambutnya
ramp
ramping
rampung
ramuan
ran
ranah
ranc
rancangan
rand
random
rang
range
rangga
rangk
rangka
rangkaian
rangkap
rangsangan
rani
ranjang
rank
ranking
rans
rantai
rantau
ranting
rap
rapat
rapi
rapid
rapuh
rara
ras
rasa
rasanya
rasi
rasio
rasional
rasul
rasulullah
rasyid
rat
rata
rate
ratih
rating
ratio
ratna
ratu
ratus
ratusan
rav
raw
rawa
rawan
rawat
ray
raya
rayap
rayon
raz
rb
rc
rcti
rd
re
read
reader
reading
reaksi
reaktif
reaktor
real
realis
realisasi
realistis
realitas
reality
reb
rebo
rebus
rec
rece
record
records
red
redaksi
reduksi
redup
ref
refer
referensi
refl
refleksi
reform
reformasi
reg
regenerasi
region
regional
register
registrasi
regu
regular
regulasi
regulator
reguler
reh
rehabilitasi
rej
rek
rekam
rekaman
rekan
rekannya
rekayasa
rekening
reklamasi
rekomendasi
rekonsiliasi
rekonstruksi
rekor
rekreasi
reks
rektor
rel
rela
relasi
relatif
relations
relawan
relay
release
relevan
reli
relief
religi
religius
rem
remaja
remb
rembang
remote
rempah
ren
rena
renang
rencana
rencananya
rend
rendah
rendahnya
reng
renovasi
rent
rentan
rentang
rep
repl
replika
report
reporter
repres
represent
representasi
reproduksi
reptil
republ
republik
republika
reput
reputasi
reputasinya
requ
rer
reruntuhan
res
research
resep
resepsi
reseptor
reserve
resi
resid
residen
residu
resin
resistensi
resm
resmi
resminya
resolusi
resor
resort
resour
resources
resp
respon
responden
respons
restor
restoran
restu
ret
retail
retak
retina
retno
retor
retro
return
reuni
rev
review
revisi
revolusi
revolusioner
rew
rey
rez
reza
rezim
rf
rh
rhe
rhoma
ri
ria
rian
riang
rias
riau
rib
ribu
ribuan
ribut
ric
rice
rich
richard
rick
ricky
rid
rider
ridho
ridwan
rif
rig
right
rights
riil
rik
rika
rilis
rim
rimba
rin
rina
rinci
rincian
rind
rindu
ring
ringan
ringk
ringkas
ringkasan
rini
rint
rintangan
rio
rip
ris
risalah
riset
risiko
rit
rita
ritel
ritme
ritual
riv
rival
river
riwayat
riyadh
riz
rizal
rizky
rk
rm
rn
rna
ro
road
rob
rober
robert
robin
roboh
robot
roc
roch
rock
rod
roda
rog
roger
roh
rohani
rok
rokan
roket
rokok
rol
role
roll
rolling
rom
roma
roman
romantis
romawi
rombongan
romo
ron
ronal
ronald
ronaldo
ronde
rong
rongga
ront
room
rooney
root
roro
ros
rosa
rose
rossi
rot
rotan
rotasi
roti
rotor
round
row
roy
royal
royong
rp
rpm
rr
rri
rs
rss
rsud
rt
ru
ruang
ruangan
ruas
rub
rubah
rubrik
ruby
rud
rudal
rudi
rudy
rug
rugi
ruh
ruj
rujukan
ruk
rukun
rul
rum
rumah
rumahan
rumahnya
rumit
rumor
rumpun
rumput
rumus
rumusan
run
runcing
runner
running
runtuh
runtuhnya
rup
rupa
rupanya
rupiah
rus
rusa
rusak
rush
rusia
rusuk
rut
rute
rutin
ruu
rw
rx
ry
ryan
s
sa
saat
saatnya
sab
sabang
sabar
sabda
sabit
sabtu
sabu
sabuk
sabun
sac
sach
sad
sadar
saf
safari
safety
sag
saga
sagu
sah
sahabat
sahabatnya
saham
sahamnya
sai
said
saif
sail
sain
saing
saingan
sains
saint
saj
saja
sajak
saji
sajian
sak
saka
sakit
sakral
sakramen
saks
saksi
sakti
saku
sakura
sal
sala
salad
salafi
salah
salak
salam
salat
salatiga
saleh
salem
sales
salib
salim
salinan
saling
salju
salman
salmon
salon
saluran
sam
sama
saman
samar
samarinda
samb
sambal
sambas
sambil
sambung
sambungan
sambutan
samosir
samp
sampah
sampai
sampang
sampel
samping
sampingan
sampingnya
sampo
sampoerna
sampul
sams
samsung
samud
samudera
samudra
samuel
samurai
san
sana
sanak
sanc
sand
sandal
sandang
sandi
sandiwara
sandra
sandwich
sandy
sang
sangat
sangatlah
sangg
sanggar
sanggup
sangk
sangkar
sanitasi
sanj
sanjaya
sank
sanksi
sans
sansekerta
sant
santa
santai
santan
santi
santiago
santo
santos
santoso
santri
santun
sao
sap
sapaan
sapi
sapu
saputra
sar
sara
saraf
sarah
saran
sarana
sarang
sarapan
saras
sarat
sard
sari
sarjana
sarung
sas
sasak
sasaran
sastr
sastra
sastrawan
sasuke
sat
sate
satelit
satgas
satria
satu
satuan
satunya
satupun
satur
saturday
satwa
satya
saud
saudara
saudaranya
saudari
saudi
saus
sav
save
saw
sawah
sawit
say
saya
sayang
sayangnya
sayap
sayapnya
sayur
sayuran
sayyid
sb
sbb
sby
sc
scan
scar
scene
sch
school
sci
science
scientific
sco
scor
scott
scr
scre
screen
script
sctv
sd
sdm
sdn
se
sea
seakan
seal
seandainya
seantero
searah
search
seas
season
seat
seb
seba
sebab
sebabnya
sebaga
sebagai
sebagaimana
sebagainya
sebagi
sebagian
sebaik
sebaiknya
sebaliknya
sebanding
sebanyak
sebaran
sebatang
sebatas
sebel
sebelah
sebelas
sebelum
sebelumnya
seben
sebenarnya
sebentar
seber
seberang
seberapa
seberat
sebesar
sebetulnya
sebuah
sebulan
sebut
sebutan
sec
secara
secepat
secepatnya
second
secret
section
secur
security
sed
sedan
sedang
sedangkan
sedekah
sedemikian
seder
sederajat
sederhana
sedih
sedikit
sedikitnya
sedimen
sedunia
see
seed
seekor
seg
segala
segalanya
segan
segar
segel
segelintir
segenap
segera
segi
segitiga
segmen
seh
sehar
seharga
sehari
seharusnya
sehat
sehingga
sehubungan
sei
seimbang
seiring
sej
sejahtera
sejajar
sejak
sejalan
sejarah
sejarahnya
sejarawan
sejati
sejatinya
sejauh
sejawat
sejenak
sejenis
sejenisnya
sejuk
sejumlah
sejuta
sek
sekadar
sekali
sekalian
sekaligus
sekalipun
sekar
sekarang
sekarat
sekat
sekelas
sekeliling
sekelilingnya
sekelompok
seker
seketika
sekian
sekilas
sekira
sekitar
sekitaran
sekitarnya
sekjen
sekolah
sekolahnya
sekresi
sekret
sekretariat
sekretaris
seks
seksi
seksual
seksualitas
sekte
sektor
sekuat
sekuel
sekuler
sekumpulan
sekunder
sekur
sekuritas
sekutu
sel
sela
selagi
selai
selain
selaku
selalu
selam
selama
selamanya
selamat
selandia
selang
selangor
selanjutnya
selaput
selaras
selasa
selat
selatan
selayaknya
seleb
selebar
selebihnya
selebr
selebriti
seleksi
selektif
selembar
selepas
selera
seles
selesai
selesainya
self
selisih
seluas
seluler
seluruh
seluruhnya
sem
semacam
semak
semakin
semalam
semangat
semanggi
semar
semarang
semasa
semata
semb
sembah
sembahyang
sembarang
sembarangan
sembari
sembilan
semboyan
sembuh
semburan
semen
semenanjung
semenjak
sementara
semest
semesta
semester
semestinya
semi
semif
semifinal
semin
seminar
seminggu
semisal
semoga
semp
sempat
sempit
sempurna
semu
semua
semuanya
semula
semut
sen
senam
senang
senanti
senantiasa
senapan
senar
senat
senayan
send
sendang
sendi
sendiri
sendirian
sendirinya
sendok
senen
seng
sengaja
sengit
sengk
sengketa
sengsara
seni
senilai
seniman
senin
senior
senj
senja
senjata
sens
sensasi
sense
sensitif
sensitivitas
sensor
sensus
sent
sentimen
sentra
sentral
sentuh
sentuhan
sentul
senya
senyawa
senyum
seo
seolah
seorang
seorangpun
seoul
sep
sepak
sepakat
sepakbola
sepanjang
separ
separuh
sepasang
sepat
sepatu
sepeda
sepen
sepengetahuan
sepenuhnya
seper
seperangkat
seperempat
sepert
seperti
sepertiga
sepertinya
sepi
sepihak
sepotong
september
sepuh
sepulang
sepuluh
sepup
sepupu
seputar
ser
seragam
serah
seram
serambi
serang
serangan
serangga
serangkaian
serapan
serat
seratus
seraya
serba
serbaguna
serbia
serbuk
serdang
serentak
seri
serial
seribu
serie
series
serigala
serikat
sering
seringkali
seringnya
serius
serp
serpong
serta
sertifikasi
sertifikat
seru
seruan
serum
serupa
serv
server
service
services
servis
ses
sesaat
sesak
sesama
sesampainya
sesar
sesat
sesekali
seseorang
sesepuh
sesi
sesosok
sesu
sesuai
sesuatu
sesudah
sesudahnya
sesungguhnya
set
setahun
setan
setapak
setara
setebal
setelah
setelahnya
setempat
setengah
setengahnya
seter
seterusnya
seti
setia
setiap
setiawan
setidaknya
setinggi
setingkat
setting
setuju
setya
seukuran
seumur
seung
seusai
sev
seven
sevilla
sew
sewa
sewaktu
sewu
sex
sf
sg
sh
sha
shad
shadow
shah
shahih
shal
shalat
shall
shang
shanghai
shar
sharing
sharp
shaw
she
shel
shell
sher
shi
shim
shin
shinta
ship
shir
sho
shock
shol
sholat
shooting
shop
short
shot
show
shu
shut
si
sia
siaga
siak
sial
siam
sian
siang
siantar
siap
siapa
siapakah
siapapun
siaran
siasat
sib
siber
sibol
sibolga
sibuk
sic
sich
sid
sidang
side
sidik
sidney
sido
sidoarjo
sif
sifat
sifatnya
sig
sigit
sigma
sign
signal
signif
signifikan
sih
sihir
sik
sikap
sikapnya
siklus
siksaan
siku
sil
sila
silam
silang
silat
sili
silih
silik
silikon
silinder
siliwangi
silsilah
siluman
silver
sim
simal
simalungun
simbol
simbolik
simbolis
simetris
simon
simp
simpan
simpanan
simpang
simpati
simple
simpul
simulasi
simultan
sin
sina
sinar
sind
sindrom
sinetron
sing
singa
singap
singapore
singapura
singel
singg
singgah
singk
singkat
singkatan
singkatnya
singkawang
singkong
single
sini
sinilah
sink
sinkron
sinkronisasi
sint
sinta
sintang
sintesis
sintetis
sinus
sinyal
sip
sipil
sir
siregar
siri
sirih
sirip
sirkuit
sirkulasi
sirup
sis
sisa
sisanya
sisi
sisik
sisinya
sistem
sistematis
sistemik
sister
siswa
siswanya
siswi
sit
sita
site
siti
situ
situasi
situbondo
situlah
situs
siwa
six
size
sj
sja
sk
skala
skand
skandal
skema
skenario
skep
sket
sketsa
ski
skill
skin
skor
skot
skotlandia
skrip
sks
sku
skuat
sky
sl
slam
slamet
slank
sle
sleep
sleman
slip
slogan
slot
slta
sltp
sm
sma
small
sman
smart
smartphone
smash
smith
smk
smkn
smp
smpn
sms
smu
sn
snap
snow
so
soal
sob
soc
socc
soccer
soci
social
society
sod
soda
soed
soeh
soeharto
soekar
soekarno
soep
soer
soet
sof
soft
software
sofyan
soh
sok
sol
solar
soleh
solid
solidaritas
solo
solok
solusi
som
sombong
some
son
sond
song
sony
soo
sop
sopan
soph
sopir
sor
sore
sorga
sorong
sorotan
sorry
sos
sosi
sosial
sosialis
sosialisasi
sosialisme
sosialnya
sosiologi
sosis
sosok
soto
sou
soul
sound
soundtrack
sour
source
south
soviet
sp
spa
space
span
spanduk
spanyol
spe
speaker
spec
special
species
speed
spek
spektak
spektakuler
spektr
spektrum
spekulasi
sperma
spes
spesi
spesial
spesialis
spesialisasi
spesies
spesifik
spesifikasi
spider
spin
spion
spir
spiral
spirit
spiritu
spiritual
spiritualitas
spl
split
spo
spong
spons
sponsor
spontan
spor
spora
sport
sports
spot
spp
spr
spring
springs
spy
sq
squ
square
sr
sragen
sri
sriwijaya
ss
st
sta
stab
stabil
stabilitas
stadi
stadion
stadium
staf
staff
stage
stain
stan
stand
standar
standard
star
stars
start
starter
startup
stasi
stasiun
stat
state
states
station
statis
statistik
statistika
status
statusnya
ste
steam
steel
stef
step
steph
stephen
ster
stereo
steroid
stev
steve
steven
sti
stie
stik
still
stim
stimulus
stm
stock
stok
stone
stop
stor
store
stories
story
str
straight
strat
strata
strateg
strategi
strategis
stream
streaming
street
stres
stress
striker
string
strip
stro
stroke
strong
struc
struktur
struktural
stu
stud
student
studi
studies
studinya
studio
study
sty
style
su
suaka
suami
suaminya
suap
suar
suara
suaranya
suasana
suatu
sub
subang
subianto
subjek
subk
subroto
subs
subsidi
substansi
substrat
subuh
subur
subyek
suc
succ
suci
sud
sudah
sudan
sudirman
sudut
suf
sufi
sug
sugar
sugi
suh
suharto
suhu
suite
suj
sujud
suk
suka
sukabumi
sukacita
sukam
sukar
sukarela
sukarelawan
sukarno
sukhoi
sukma
sukoharjo
sukses
suku
sul
sulaiman
sulap
sulawesi
sulfat
sulfur
suling
sulit
sulitnya
sultan
sulung
sum
sumatera
sumatra
sumba
sumbangan
sumbar
sumbawa
sumber
sumberdaya
sumbernya
sumbu
sumedang
sumenep
summer
sumpah
sumsum
sumur
sun
sunan
sunat
sund
sunda
sunday
sung
sunga
sungai
sungguh
sungk
sunnah
sunni
sunset
suntikan
sunyi
sup
supaya
super
superhero
superior
superman
supermarket
supern
supers
suplai
suplemen
suporter
supp
supply
suppor
support
supra
supran
supranatural
supri
sur
sura
surabaya
surah
surakarta
suram
surat
surf
surga
suri
suriah
surut
surv
survei
survey
surya
suryo
sus
susah
susan
susi
susilo
suspensi
suster
susu
susulan
susun
susunan
sut
sutan
sutera
sutra
sutradara
sutris
suv
suw
suz
suzuki
sv
sw
swadaya
swalayan
swas
swasembada
swasta
swedia
sweet
swift
swing
swiss
switch
swt
sy
sya
syafi
syah
syahadat
syahid
syaikh
syair
syam
syams
syamsul
syar
syarat
syari
syariah
syariat
syarif
syd
sydney
sye
syeikh
syekh
syi
syiah
syl
syn
syria
system
systems
syukur
syuting
t
ta
taat
tab
tabanan
tabel
tabi
table
tablet
tabloid
tabrakan
tabu
tabung
tabungan
tac
tad
tadi
tadinya
tae
tafs
tafsir
tafsiran
tag
tagihan
tah
tahan
tahanan
tahap
tahapan
tahta
tahu
tahun
tahunan
tahunnya
tai
tail
taipei
taiwan
taj
tajam
tajuk
tak
takdir
take
takhta
taks
taksi
taktik
takut
tal
tala
talaga
talang
talent
talenta
tali
talk
tam
tama
taman
tamat
tamb
tambah
tambahan
tambak
tambang
tami
tamp
tampak
tampaknya
tampan
tampil
tampilan
tamu
tan
tana
tanah
tanahnya
tanam
tanaman
tand
tanda
tandang
tanduk
tang
tangan
tangani
tangannya
tangerang
tangg
tangga
tanggal
tangganya
tanggap
tanggapan
tangguh
tanggul
tanggung
tangk
tangkai
tangkap
tangkapan
tangki
tangkis
tani
tanj
tanjakan
tanjung
tanjungpinang
tank
tanpa
tant
tantangan
tante
tanya
tao
tap
tapak
tapan
tapanuli
tape
tapi
taq
tar
tara
taraf
tarakan
tarbiyah
tarekat
target
tari
tarian
tarif
tarik
taruhan
taruna
tas
tasaw
tasawuf
tasikmalaya
task
tat
tata
tatan
tatanan
tatap
tatkala
tato
tau
taufik
tauhid
taurat
tautan
tav
taw
tawa
tawanan
tawang
tawar
tawaran
tax
taxi
tay
tayang
tayangan
taylor
tb
tbk
tc
tcp
td
te
tea
team
teater
teb
tebal
tebing
tebu
tech
techn
technical
technology
ted
teddy
teg
tegak
tegal
tegang
tegangan
tegas
teguh
teh
tek
tekad
tekan
tekanan
tekn
teknik
teknis
teknisi
teknologi
teks
tekstil
tekstur
tektonik
tekun
tel
teladan
telaga
telah
telak
telanjang
telapak
telecom
telek
telekomunikasi
telepon
teles
teleskop
televisi
telinga
teliti
telkom
telkomsel
teluk
telur
telurnya
tem
tema
teman
temanggung
temannya
temb
tembaga
tembak
tembakan
tembakau
tembang
tembok
tembus
temp
tempat
tempatnya
tempe
tempel
temper
temperatur
temple
tempo
tempuh
tempur
temu
temuan
temui
temukan
temurun
ten
tenaga
tenang
tenar
tend
tenda
tendangan
tender
teng
tengah
tengahnya
tengg
tenggara
tenggelam
tenggorokan
tengk
tengkorak
tenis
tent
tentang
tentara
tentu
tentunya
tenun
teologi
teologis
teor
teori
teorinya
tep
tepat
tepatnya
tepi
tepian
tepung
ter
terak
terakhir
terakhirnya
terakreditasi
terampil
terancam
terang
terangkat
terap
terapan
terapi
terapung
terarah
teras
terasa
teratai
teratas
teratur
terawat
terb
terba
terbaca
terbagi
terbaik
terbaiknya
terbakar
terbalik
terbang
terbangun
terbanyak
terbar
terbaring
terbaru
terbarukan
terbarunya
terbatas
terbawa
terbebas
terbelah
terbenam
terbentang
terbentuk
terbentuknya
terbesar
terbiasa
terbilang
terbit
terbitan
terbitnya
terbuat
terbuka
terbukti
terbunuh
terburuk
terc
tercantum
tercapai
tercatat
tercemar
tercepat
tercermin
tercinta
tercipta
terciptanya
terd
terdaftar
terdahulu
terdakwa
terdalam
terdapat
terdekat
terdengar
terdepan
terdesak
terdeteksi
terdiri
terdorong
terduga
tere
terencana
terendah
terendam
terf
terfokus
terg
tergabung
terganggu
tergantung
tergel
tergolong
terh
terhadap
terhadapnya
terhalang
terhambat
terhenti
terhindar
terhingga
terhitung
terhormat
terhubung
teri
teriakan
terigu
terikat
terima
terinfeksi
teringat
terinspirasi
terintegrasi
terisi
teritorial
terj
terjad
terjadi
terjadilah
terjadinya
terjaga
terjal
terjalin
terjangkau
terjatuh
terjebak
terjemahan
terjemahannya
terjual
terjun
terk
terkadang
terkait
terkalahkan
terkandung
terkaya
terkecil
terkecuali
terkej
terkejut
terkemuka
terkena
terkenal
terkendali
terkesan
terkini
terkontaminasi
terkontrol
terku
terkuat
terkumpul
terkunci
terl
terlahir
terlaksana
terlalu
terlambat
terlarang
terlaris
terlarut
terlatih
terlebih
terlepas
terletak
terlibat
terlihat
terlindung
terlindungi
terluar
terluka
terlupakan
term
termahal
termasuk
termin
terminal
terminologi
termuat
termuda
tern
ternak
ternama
ternate
ternyata
terob
terobosan
terong
teror
terorganisir
teroris
terorisme
terowongan
terp
terpadu
terpakai
terpaksa
terpanjang
terpapar
terpasang
terpecah
terpenc
terpencil
terpengaruh
terpenting
terpenuhi
terper
terperangkap
terperinci
terpesona
terpilih
terpisah
terpisahkan
terpopuler
terpotong
terpusat
terputus
terry
ters
tersambung
tersangka
tersebar
tersebut
tersed
tersedia
tersedianya
tersel
terselesaikan
tersembunyi
tersendiri
tersentuh
tersenyum
terserang
tersesat
tersi
tersier
tersimpan
tersingkir
tersirat
tersisa
terstruktur
tersusun
tert
tertanam
tertanggal
tertangkap
tertarik
tertawa
tertekan
tertentu
tertera
tertib
tertidur
tertinggal
tertinggi
tertu
tertua
tertuang
tertulis
tertunda
tertutup
terukur
terumbu
terungkap
terurai
terus
terusan
terutama
terwujud
terwujudnya
tes
tesis
test
tet
tetangga
tetangganya
tetap
tetapi
tetesan
teuku
tew
tewas
tex
texas
text
tg
tgl
th
thai
thailand
thalib
tham
thamrin
than
thank
that
the
theat
theater
theatre
their
them
theme
then
theory
ther
there
therm
these
they
thi
think
thir
this
tho
thomas
thor
thr
three
through
ti
tia
tiada
tian
tiang
tiap
tiara
tib
tiba
tibet
tic
tid
tidak
tidaklah
tidaknya
tidung
tidur
tidurnya
tiff
tiga
tiger
tik
tika
tikar
tiket
tikungan
tikus
til
tim
timah
timb
timbal
timbul
timbulnya
time
times
timnas
timnya
timor
timur
tin
tina
tind
tindak
tindakan
tindakannya
tindih
ting
tinggal
tinggalkan
tinggalnya
tinggi
tingginya
tingk
tingkah
tingkat
tingkatan
tinjauan
tinju
tint
tinta
tiong
tionghoa
tiongkok
tip
tipe
tipikal
tipis
tipu
tir
tirai
tiram
tiri
tiroid
tirta
tiruan
tis
tit
titan
titi
titik
title
tito
tj
tjah
tk
tki
tl
tm
tn
tni
to
tob
toba
tod
today
tog
toh
toilet
tok
token
toko
tokoh
toksin
tokyo
tol
tolak
toleran
toleransi
tolong
tom
tomat
tomb
tombak
tombol
tommy
tomohon
ton
tong
tonggak
tongkat
toni
tonjolan
tonton
tontonan
tony
too
tool
top
topan
topeng
topi
topik
topografi
topologi
tor
toraja
toronto
torsi
tos
toshi
tot
total
toto
tottenham
touch
tour
tours
tow
tower
town
tox
toy
toyota
tp
tpa
tpi
tr
tra
track
trad
trade
tradisi
tradisional
traf
traffic
trag
tragedi
tragis
trail
trailer
train
trainer
training
trak
traktor
tran
trans
transaksi
transfer
transform
transformasi
transisi
transistor
transit
transjakarta
transl
transm
transmigrasi
transmisi
transp
transparan
transparansi
transpl
transplantasi
transport
transportasi
trap
trauma
trav
travel
tray
trayek
treat
tree
trek
tren
trend
trenggalek
tri
trial
trib
tribun
trick
trig
trik
tril
triliun
trim
trin
trio
trip
tris
trisakti
trit
tro
trofi
tromb
trop
tropis
true
truk
trump
trust
try
ts
tsun
tsunami
tt
tu
tua
tuan
tuanku
tuannya
tuanya
tuas
tub
tuba
tuban
tuber
tuberkul
tubuh
tubuhnya
tud
tuduhan
tugas
tugasnya
tugu
tuh
tuhan
tuj
tujuan
tujuannya
tujuh
tuk
tukang
tukar
tul
tulang
tuli
tulis
tulisan
tulisannya
tulungagung
tulus
tum
tumbang
tumbuh
tumbuhan
tumbuhnya
tumbukan
tumenggung
tumor
tump
tumpang
tumpukan
tumpul
tun
tuna
tunai
tunas
tunduk
tung
tungg
tunggal
tunggu
tungk
tungkai
tungku
tunjangan
tunt
tuntas
tuntutan
tup
tur
turbin
turbo
turis
turki
turn
turnamen
turun
turunan
turunnya
turut
tus
tusuk
tut
tutup
tutur
tv
tvone
tvri
tw
tweet
twin
twitter
two
ty
type
u
uang
uangnya
uap
ub
ubah
uber
ubi
ubud
ubuntu
uc
ucapan
uch
ud
udang
udara
udin
uefa
uf
ufo
ug
ugm
uh
ui
uin
uj
ujar
uji
ujian
ujung
ujungnya
uk
ukir
ukiran
ukm
ukraina
ukur
ukuran
ukurannya
ul
ulah
ulama
ulang
ulangan
ular
ulasan
ulat
ultim
ultimate
ultr
ultra
ulu
ulum
um
umar
umat
umb
umbi
umbul
umi
umm
ump
umpan
umum
umumnya
umur
umurnya
un
unc
und
undang
undangan
under
undian
unesco
ung
ungaran
ungg
unggas
unggul
unggulan
ungkapan
ungu
uni
unic
unik
uniknya
unil
union
unit
united
univ
univers
universal
universitas
university
unix
unjuk
uns
unsur
unta
untuk
untuknya
untung
untungnya
up
upacara
upah
upaya
update
upgrade
upi
upt
ur
uraian
urang
urat
urban
urin
url
uruguay
urusan
urut
urutan
us
usa
usah
usaha
usahanya
usai
usang
usb
usd
use
user
ushul
usia
usianya
uskup
usman
ust
ustad
ustadz
usul
usulan
usus
ut
utama
utamanya
utang
utara
utilitas
utomo
utsman
utuh
utusan
uu
uud
uv
uz
v
va
vac
vag
vagina
vaks
vaksin
vaksinasi
vakum
val
valencia
valent
valentine
valid
vall
valley
valu
value
valve
vampir
van
var
vari
variabel
varian
variasi
varietas
vas
vatikan
ve
vega
vegas
veget
vegetarian
vegetasi
vektor
vel
ven
vena
vendor
venez
venezuela
vent
ventilasi
ventr
ventura
venus
ver
vera
verbal
verifikasi
vers
versi
version
vertikal
very
ves
vet
veteran
vi
via
vib
vic
victor
victoria
vid
vide
video
videonya
viet
vietnam
view
vig
vii
viii
vik
vila
vill
villa
village
vin
vina
vinc
vip
vir
viral
virgin
virginia
virtual
virus
vis
visa
visi
vision
vista
visual
vit
vita
vital
vitamin
viv
viva
vo
voc
vocal
voice
vok
vokal
vokalis
vol
voli
volt
volume
von
vonis
voor
voting
vr
vs
vul
vulkan
vulkanik
vv
w
wa
wabah
wac
wacana
wad
wadah
waduk
waf
wafat
wafatnya
wag
wah
wahab
wahai
wahana
wahid
wahyu
waj
wajah
wajahnya
wajar
wajib
wak
wakaf
wakil
wakilnya
waktu
waktunya
wal
wala
walau
walaupun
wales
walet
wali
walikota
walis
walk
walker
wall
walter
wan
wang
wangi
wanita
want
wap
war
waralaba
ward
warga
wargan
warganya
waris
warisan
warna
warnanya
warni
wars
warta
wartawan
waru
warung
was
wash
washington
wasiat
wasit
waspada
wass
wat
watak
watch
water
watt
watu
wave
waw
wawan
wawancara
wawasan
way
wayan
wayang
wayne
wb
wc
we
web
weber
webs
website
wed
wedding
week
wei
wel
welcome
well
wen
were
wes
west
wester
western
wet
wetan
wew
wewenang
wh
what
wheel
when
where
which
whit
white
who
why
wi
wib
wibowo
wid
wide
widodo
widya
wifi
wij
wijaya
wik
wikipedia
wil
wilayah
wilayahnya
wild
will
william
williams
willy
wilson
win
wina
wind
window
windows
wine
wing
winter
wir
wira
wirausah
wirausaha
wirausahawan
wireless
wis
wisat
wisata
wisatawan
wish
wisma
wisnu
wisuda
wit
wita
with
wiz
wo
wol
wolf
woman
women
won
wonder
wong
wonogiri
wonos
wonosari
wonosobo
woo
wood
wor
word
work
working
workshop
world
worm
wortel
wow
wr
writ
ws
wu
wujud
wujudnya
wulan
ww
www
wy
x
xanth
xi
xia
xii
xin
xl
xp
xv
xvi
xx
xxi
xxx
xy
y
ya
yad
yag
yah
yahoo
yahudi
yahya
yaitu
yak
yakin
yakni
yakub
yam
yamaha
yaman
yamin
yan
yang
yani
yap
yas
yasin
yat
yatim
yay
yayasan
ye
year
years
yeh
yehuwa
yellow
yen
yeon
yer
yerus
yerusalem
yes
yesaya
yesus
yg
yi
ym
yo
yog
yoga
yogya
yogyakarta
yoh
yohan
yohanes
yok
yon
yong
yoo
yoon
york
yos
yosh
you
young
your
youth
youtu
youtube
yu
yuan
yud
yudh
yudha
yudhoyono
yuk
yul
yuli
yum
yun
yunani
yuni
yunus
yupiter
yur
yuri
yus
yusuf
z
za
zah
zaid
zain
zainal
zaitun
zak
zakat
zam
zaman
zamannya
zar
zat
ze
zebra
zen
zero
zh
zhang
zi
ziarah
zig
zion
zionis
zip
zo
zodiak
zomb
zombie
zon
zona
zone
zuh
zul
zulkifli
zur
{
}
~
»
–
‘
’
“
”
