!
"
#
##0
##00
##000
##1
##10
##100
##11
##12
##13
##14
##15
##16
##17
##18
##19
##2
##20
##200
##21
##22
##23
##24
##25
##26
##27
##28
##29
##3
##30
##31
##32
##33
##34
##35
##36
##37
##38
##39
##4
##40
##43
##44
##45
##46
##47
##48
##5
##50
##55
##6
##60
##64
##65
##66
##68
##7
##70
##77
##78
##79
##8
##80
##85
##86
##88
##9
##90
##95
##99
##a
##aa
##aaf
##aan
##aannya
##aat
##ab
##abad
##abah
##aban
##abar
##abaran
##abarkan
##abas
##abat
##abatan
##abe
##abel
##abelas
##abet
##abeth
##abi
##abil
##abila
##abilitas
##abilitasi
##abis
##abisan
##abisi
##abiskan
##able
##abo
##abor
##aborasi
##abri
##abung
##abut
##ac
##aca
##acak
##acam
##acap
##acara
##ace
##aceae
##ach
##ache
##acher
##achi
##achim
##acht
##achus
##aci
##acional
##acita
##ack
##acker
##acle
##aco
##act
##action
##active
##acu
##acun
##acunan
##acy
##ad
##ada
##adaan
##adaannya
##adaban
##adah
##adak
##adakan
##adan
##adana
##adang
##adangan
##adani
##adanya
##adap
##adar
##adaran
##adari
##adat
##adaya
##add
##ade
##adel
##aden
##ader
##ades
##adewa
##adh
##adha
##adi
##adia
##adiahkan
##adian
##adikan
##adilan
##adin
##ading
##adinya
##adio
##adion
##adir
##adiri
##adis
##adius
##ado
##adona
##ador
##adron
##adt
##adu
##aduan
##adw
##adwal
##adwalkan
##ady
##adys
##adz
##ae
##aea
##aeus
##af
##afa
##afal
##afalkan
##afar
##aff
##afiliasi
##aft
##aftar
##ag
##aga
##agak
##agal
##agam
##agama
##agaman
##agan
##agang
##agangan
##agangkan
##aganya
##agar
##agara
##agari
##agat
##age
##agen
##ages
##agh
##agi
##agia
##aging
##agn
##agne
##agnetik
##ago
##agon
##agri
##agromy
##agromyza
##agu
##ague
##agukan
##agung
##agus
##ah
##aha
##ahal
##aham
##ahaman
##ahami
##ahan
##ahanan
##ahankan
##ahannya
##ahap
##ahar
##ahara
##ahari
##aharian
##ahas
##ahasa
##ahat
##ahaya
##ahb
##ahbiskan
##ahi
##ahir
##ahit
##ahkan
##ahu
##ahul
##ahulu
##ahului
##ahun
##ai
##aian
##aib
##aig
##aign
##aih
##aikan
##ail
##ain
##ainan
##aine
##ainkan
##ainkannya
##ains
##ainya
##air
##ais
##aitan
##aitu
##aiyah
##aj
##aja
##ajah
##ajahan
##ajai
##ajak
##ajakan
##ajal
##ajan
##ajang
##ajar
##ajaran
##ajari
##ajat
##ajaya
##aji
##ajian
##ajib
##ajibkan
##ajikan
##aju
##ajuan
##ajukan
##ak
##aka
##akah
##akai
##akaian
##akal
##akala
##akan
##akannya
##akapan
##akar
##akaran
##akari
##akarsa
##akarta
##akarya
##akas
##akat
##akata
##akatan
##akatau
##ake
##akel
##aken
##aker
##akes
##akh
##akhir
##aki
##akia
##akiman
##akinya
##akit
##akkan
##akm
##akmuran
##akn
##akna
##aknya
##ako
##akon
##aks
##aksa
##aksaan
##aksan
##aksana
##aksanaan
##aksanakan
##aksi
##aksikan
##aksinya
##aksir
##aksis
##aksud
##akter
##akti
##aktian
##aktif
##aktor
##aktur
##aku
##akuan
##akuasi
##akukan
##akum
##akumbuh
##akunya
##akup
##akur
##akura
##akurikuler
##akusuma
##akwa
##akwah
##al
##ala
##alaba
##alah
##alahan
##alahannya
##alahkan
##alai
##alak
##alakan
##alam
##alaman
##alamannya
##alami
##alan
##aland
##alang
##alangan
##alangi
##alanta
##alanya
##alap
##alar
##alas
##alat
##alau
##alayan
##ald
##aldi
##ale
##alem
##alen
##ales
##ali
##alia
##alian
##alib
##alie
##alif
##alih
##alihan
##alik
##alikan
##alin
##alina
##alinan
##aling
##alion
##alip
##alis
##alisasi
##alisasikan
##alisi
##alisir
##alisis
##alism
##alisme
##alist
##alistik
##alitas
##alkan
##all
##alla
##allah
##allahu
##alli
##alnya
##alo
##alog
##alon
##alonkan
##als
##alsuan
##alsukan
##alt
##alth
##alu
##aluan
##aluasi
##alui
##aluinya
##alurkan
##alus
##alut
##aly
##am
##ama
##amaan
##amad
##amah
##amai
##amaian
##amaikan
##amainya
##amakan
##amal
##amalkan
##aman
##amana
##amanan
##amang
##amankan
##amanya
##amar
##amas
##amat
##amata
##amatan
##amati
##amatkan
##amato
##amb
##amba
##ambah
##ambahan
##ambahkan
##ambakan
##ambang
##ambangan
##ambangkan
##ambar
##ambarkan
##ambat
##ambatan
##ambi
##ambil
##ambu
##ambung
##ambungan
##ambut
##ame
##amen
##ament
##amer
##amerkan
##ami
##amia
##amil
##amin
##amina
##aminaceae
##aminan
##aminasi
##aminya
##amkan
##amo
##amon
##amoto
##amp
##ampa
##ampaikan
##ampak
##ampakan
##ampang
##ampanye
##ampanyekan
##ampar
##ampaui
##ampek
##ampi
##ampil
##ampilan
##ampilkan
##amping
##ampingan
##ampingi
##ampingkan
##ampir
##ampton
##ampu
##ampuan
##ampung
##ampungan
##ampuni
##ampur
##ampuran
##ams
##amu
##amuan
##amuk
##amura
##amus
##an
##ana
##anaan
##anah
##anai
##anam
##anan
##anangkan
##anannya
##anao
##anas
##anc
##anca
##ancam
##ancang
##ancangan
##ancar
##ancaran
##ancarkan
##ance
##ancing
##ancis
##ancy
##and
##anda
##andak
##andakan
##andalan
##andan
##andang
##andangan
##andanya
##andar
##andaran
##andarkan
##andasi
##andaskan
##ande
##andeng
##ander
##andera
##andi
##andia
##andikan
##anding
##andingan
##andingi
##andingkan
##ando
##andra
##andro
##andu
##anduan
##anduk
##andum
##andung
##andy
##ane
##anegara
##ang
##anga
##angan
##angani
##angannya
##angat
##ange
##anger
##angg
##angga
##anggal
##anggan
##anggang
##angganya
##anggap
##anggar
##anggih
##anggil
##anggu
##anggung
##anggungjawab
##angi
##angk
##angka
##angkaan
##angkah
##angkai
##angkaian
##angkal
##angkalan
##angkali
##angkan
##angkap
##angkar
##angkara
##angkas
##angkasan
##angkat
##angkatan
##angkatkan
##angkau
##angkis
##angkit
##angko
##angku
##angkum
##angkung
##angkut
##angkutan
##angnya
##ango
##angs
##angsa
##angsaan
##angsang
##angsanya
##angsari
##angsung
##angsungan
##angsungkan
##angsur
##angu
##angun
##ani
##ania
##anian
##anie
##aninya
##anis
##anium
##anj
##anja
##anjaan
##anjak
##anjang
##anjangan
##anjar
##anji
##anjian
##anjikan
##anjing
##anjiri
##anjuk
##anjung
##anjur
##anjurkan
##anjut
##anjutan
##anjutkan
##anjutnya
##ank
##ankan
##anku
##ann
##anna
##annya
##ano
##anon
##ans
##ansemen
##ansyah
##ant
##anta
##antah
##antai
##antan
##antang
##antap
##antar
##antara
##antaraan
##antas
##antasan
##antasi
##antau
##ante
##antes
##anth
##antha
##antho
##anti
##antik
##antika
##antikan
##antin
##antina
##anting
##antinya
##antis
##antium
##anto
##antoro
##ants
##antu
##antul
##antulkan
##antum
##antumkan
##antung
##antungan
##antunkan
##antunya
##anty
##anus
##any
##anya
##anyak
##anyakan
##anyang
##anye
##anyi
##anyikan
##anyol
##anyu
##ao
##ap
##apa
##apahit
##apai
##apak
##apan
##apar
##aparan
##aparkan
##aparte
##apas
##apasan
##apat
##apatan
##apati
##ape
##apel
##aper
##aph
##api
##apian
##apis
##apkan
##apolis
##apor
##aporkan
##app
##appij
##aps
##aptis
##apu
##apuluh
##apun
##apur
##apura
##apus
##apuskan
##aput
##aq
##ar
##ara
##araan
##arab
##arag
##aragua
##arah
##arahan
##arahi
##arai
##araja
##arak
##arakan
##aram
##aran
##arang
##arani
##arankan
##arannya
##aranya
##arap
##arapan
##arapkan
##aras
##arasi
##araskan
##arat
##arau
##arawa
##arawan
##aray
##arch
##ard
##ardi
##ardir
##ardja
##ardjo
##ardo
##are
##areng
##ares
##aret
##arga
##argetkan
##ari
##aria
##ariah
##arian
##ariannya
##ariat
##aries
##arif
##arifikasi
##arik
##arikan
##arikannya
##arim
##arin
##aring
##aringan
##arinya
##ario
##aris
##ariskan
##arita
##aritas
##arium
##arius
##ariyah
##arja
##arjo
##ark
##arkan
##arkas
##arki
##arm
##arman
##arn
##arna
##arno
##arnya
##aro
##ars
##arso
##art
##arta
##artem
##artemen
##arth
##arthur
##arti
##artney
##arto
##aru
##aruan
##aruddin
##aruh
##arui
##arum
##arung
##arut
##arutkan
##ary
##arya
##aryo
##as
##asa
##asaan
##asah
##asakan
##asaki
##asama
##asan
##asana
##asang
##asannya
##asanya
##asar
##asari
##asarkan
##asat
##ase
##asem
##asemen
##aser
##ash
##ashi
##asi
##asia
##asian
##asiat
##asib
##asih
##asihat
##asihi
##asikan
##asil
##asila
##asilan
##asilitasi
##asilkan
##asinya
##asional
##asis
##asiswa
##asitas
##asius
##ask
##askan
##asm
##asnya
##aso
##ason
##asp
##ass
##assar
##asser
##assin
##asso
##assus
##ast
##asta
##aster
##asti
##astian
##astis
##astr
##astra
##astraan
##asu
##asus
##asut
##asy
##at
##ata
##ataan
##atak
##atakan
##atalkan
##atan
##atana
##atang
##atangan
##atangani
##atani
##atannya
##atap
##atar
##atara
##atarbelakangi
##atas
##atasan
##atasi
##atat
##atatkan
##ate
##ated
##atem
##aten
##ater
##ateral
##ates
##ath
##atha
##athan
##ather
##ati
##atia
##atian
##atib
##atic
##atie
##atif
##atifikasi
##atiga
##atih
##atik
##atika
##atikan
##atin
##ating
##atinya
##atio
##ation
##ational
##ations
##atis
##atisme
##atius
##ativ
##ative
##ativitas
##atkan
##atnya
##ato
##atologi
##aton
##ator
##atore
##atorium
##atory
##atri
##atria
##ats
##atsu
##att
##atu
##atua
##atuan
##atuh
##atuhan
##atuhkan
##atukan
##atul
##atum
##atur
##aturah
##atural
##aturan
##ature
##atus
##au
##auh
##aul
##aut
##aux
##av
##aw
##awa
##awab
##awah
##awahan
##awai
##awak
##awal
##awali
##awan
##awanan
##awancara
##awancarai
##awang
##awar
##awaran
##awari
##awarman
##awarsa
##awasan
##awasih
##awat
##awatan
##awati
##awatir
##awe
##awi
##awija
##awijaya
##awin
##awir
##awiyah
##ax
##ay
##aya
##ayaan
##ayaannya
##ayah
##ayak
##ayakan
##ayaknya
##ayam
##ayama
##ayamkan
##ayan
##ayana
##ayang
##ayangan
##ayangkan
##ayani
##ayanya
##ayap
##ayar
##ayasa
##ayat
##ayati
##ayo
##ayu
##ayung
##az
##b
##ba
##bab
##bach
##back
##bad
##bag
##bagai
##bah
##baharui
##bai
##bakar
##bal
##ball
##ban
##bana
##band
##bane
##bang
##bangan
##bangkan
##bangsa
##bank
##bankan
##bao
##bar
##bara
##baran
##barang
##barkan
##baru
##barui
##bas
##bat
##bau
##baya
##bb
##bc
##bd
##be
##bek
##bel
##bell
##ben
##ber
##beratkan
##berg
##berger
##beri
##beria
##bern
##berry
##bert
##berto
##bertus
##bes
##bet
##bh
##bi
##bia
##bian
##bie
##bih
##bil
##bilitas
##bility
##bin
##bing
##bini
##bir
##bis
##bit
##bitkan
##biyah
##bl
##ble
##bm
##bn
##bo
##board
##bol
##bola
##bon
##bondo
##bong
##book
##bor
##borg
##boro
##bour
##bourg
##bourne
##bow
##box
##boy
##bp
##br
##bra
##bro
##bs
##bu
##buah
##buan
##buana
##buat
##buck
##bud
##budaya
##budi
##budur
##bug
##buh
##buhan
##buhi
##buhkan
##bui
##buk
##bukan
##bukannya
##bukkan
##bul
##bula
##bulan
##bulkan
##bullah
##bulu
##buluh
##bun
##bung
##bur
##burg
##burgh
##burn
##bury
##bus
##but
##butan
##buwana
##buwono
##by
##c
##ca
##cadion
##cal
##can
##cana
##cang
##cao
##cap
##car
##cara
##card
##cas
##cast
##casting
##castle
##cat
##caya
##cayaan
##cc
##ce
##ceae
##cel
##cer
##ces
##ch
##cha
##chan
##change
##char
##che
##chen
##cheng
##chenko
##cheon
##cher
##ches
##chi
##chia
##chin
##ching
##cho
##cht
##chu
##chus
##chy
##ci
##cia
##cial
##cing
##cio
##cis
##cium
##cius
##ck
##cky
##cl
##cm
##co
##col
##com
##come
##con
##cons
##core
##cott
##cow
##cr
##craft
##cript
##cs
##cu
##cul
##cus
##cut
##cy
##d
##da
##dad
##dah
##dal
##dale
##dam
##dan
##danya
##dar
##das
##day
##daya
##dayaan
##dayakan
##de
##dem
##den
##der
##des
##dh
##di
##dia
##diakan
##dian
##did
##didayakan
##die
##dik
##dikan
##dim
##din
##ding
##diq
##dir
##dirkan
##dis
##dle
##dm
##dn
##do
##dom
##don
##donald
##dong
##dorf
##dot
##dow
##down
##dowoso
##doyo
##dp
##dr
##ds
##du
##dut
##dy
##e
##ea
##eal
##eam
##ean
##ear
##eas
##ease
##eau
##eaux
##eb
##ebak
##ebal
##ebalan
##eball
##eban
##ebang
##ebar
##ebaran
##ebas
##ebasan
##ebaskan
##ebat
##ebatan
##ebatkan
##ebe
##ebec
##ebel
##eber
##ebes
##ebi
##ebo
##ebob
##ebol
##ebon
##ebook
##ebor
##ebr
##ebra
##ebus
##ebut
##ebutkan
##ec
##eca
##ecah
##ecahan
##ece
##ech
##ecil
##ecio
##eck
##eco
##ect
##ected
##ection
##ective
##ector
##ects
##ectus
##ed
##eda
##edaan
##edah
##edahan
##edak
##edakan
##edan
##edang
##edar
##ede
##eden
##eder
##ederasi
##ederhan
##edes
##edi
##edia
##ediakan
##edian
##ediasi
##edikasikan
##edis
##edit
##edjo
##edo
##edon
##edonia
##edral
##eds
##edulikan
##edy
##ee
##eed
##een
##eer
##eet
##ef
##efinisi
##efinisikan
##efisi
##efisien
##eg
##ega
##egah
##egahan
##egal
##egan
##egang
##egangan
##egar
##egara
##egaraan
##egaran
##egas
##egasi
##egat
##ege
##egel
##egen
##eger
##egger
##egi
##egitu
##ego
##egon
##egor
##egori
##egorikan
##egoro
##egosiasi
##egr
##egradasi
##egro
##egu
##eh
##eha
##ehan
##ehat
##ehi
##ehkan
##ehr
##ei
##ein
##eis
##ej
##eja
##ejo
##ek
##eka
##ekaan
##ekah
##ekal
##ekalan
##ekali
##ekam
##ekan
##ekanan
##ekar
##ekaragaman
##ekaran
##ekarkan
##ekasan
##ekat
##ekatan
##eke
##eker
##ekerj
##ekerja
##ekerjakan
##ekerta
##ekh
##eki
##ekik
##eknik
##eko
##ekor
##eks
##eksasi
##eksi
##eksinya
##eksual
##ektar
##ektif
##ektor
##ektorat
##ektur
##eku
##ekuan
##ekuensi
##ekuk
##ekusi
##el
##ela
##elah
##elahan
##elai
##elajah
##elajar
##elajari
##elajarinya
##elak
##elakang
##elam
##elan
##eland
##elang
##elangan
##elapan
##elar
##elaran
##elas
##elasan
##elasi
##elaskan
##elat
##elatan
##elawan
##eld
##ele
##elen
##eleng
##eles
##eless
##elet
##eli
##elia
##elih
##elihara
##eliling
##elin
##eline
##eling
##elir
##elis
##elit
##eliti
##elius
##elix
##ell
##ella
##ellan
##elle
##eller
##elles
##elli
##elling
##ello
##ellow
##ellus
##elm
##elo
##elon
##elop
##elopori
##elor
##els
##elsen
##eluk
##ely
##em
##ema
##emah
##emahan
##eman
##emanan
##emann
##emar
##emaran
##emari
##emas
##emasan
##emat
##ematan
##ematis
##emb
##emba
##embada
##embah
##embahan
##embahkan
##embang
##embangan
##embangkan
##embar
##embara
##embatani
##ember
##embun
##embung
##embunyi
##embunyikan
##embuskan
##eme
##emen
##emens
##ement
##emer
##emi
##emia
##emik
##emis
##emo
##emon
##emoni
##emonstr
##emonstrasikan
##emp
##empar
##empat
##empatan
##empit
##emplar
##emprot
##empur
##empuran
##empurn
##empurnaan
##empurnakan
##emput
##emu
##emuan
##emuk
##emukan
##emur
##emy
##en
##ena
##enakan
##enal
##enalkan
##enam
##enan
##enang
##enangan
##enangi
##enangkan
##enankan
##enaran
##enarkan
##enberg
##enberger
##enburg
##enc
##encaharian
##encan
##encana
##encanaan
##encanakan
##ence
##encer
##ences
##enci
##ency
##end
##enda
##endah
##endaharaan
##endahkan
##endaki
##endam
##endang
##ende
##ended
##endek
##endemen
##enden
##ender
##enderungan
##endi
##ending
##endiri
##endo
##endong
##endra
##endum
##endung
##endy
##ene
##enep
##ener
##enerasi
##enes
##eneur
##eng
##engah
##engahan
##engan
##engar
##engarkan
##engarnya
##engaruh
##engaruhi
##engat
##enge
##enger
##engg
##enggal
##enggam
##enggan
##enggang
##engganu
##enggarakan
##enggel
##enggelamkan
##engger
##enggung
##enggut
##engk
##engka
##engkap
##engkapan
##engkapi
##engkar
##engku
##engs
##engser
##engsi
##enh
##enhagen
##enheim
##eni
##enia
##ening
##enis
##enium
##enix
##enk
##enko
##enn
##enna
##enne
##ennis
##eno
##enos
##ens
##ensasi
##ensch
##ense
##ensen
##ensi
##ensia
##ensial
##ensif
##ensinya
##ensis
##ensius
##ensor
##ensus
##ent
##enta
##entak
##ental
##entang
##entangan
##entangkan
##entar
##entara
##entari
##entase
##entasi
##entasikan
##entaskan
##ente
##enteng
##enter
##enti
##ential
##entian
##entif
##entik
##entikan
##entin
##entina
##enting
##entingan
##ento
##entr
##entralisasi
##entrasi
##entris
##ents
##entu
##entuan
##entuh
##entuhan
##entuk
##entukan
##entum
##entura
##enun
##eny
##enya
##enyapkan
##enz
##enza
##enzo
##eo
##eon
##eong
##ep
##epak
##epan
##epankan
##epat
##epatan
##epati
##epend
##eph
##epi
##epit
##epokan
##epon
##eport
##eportasi
##epos
##epr
##eps
##epsi
##ept
##epuk
##er
##era
##erah
##erahan
##erahkan
##erai
##erak
##eral
##eran
##erang
##erankan
##erap
##erapa
##erasi
##erat
##erc
##erd
##ere
##erek
##eren
##eres
##eret
##erg
##ergi
##erhan
##erhanakan
##eri
##eria
##eriahkan
##erial
##erie
##erik
##erikatan
##ering
##erinya
##eris
##erita
##eritanya
##erius
##erm
##erman
##ermin
##ermo
##ern
##erna
##erner
##ero
##eron
##eros
##erra
##erre
##ers
##erse
##ersi
##ersial
##erson
##ert
##erta
##ertaan
##ertanya
##erti
##erto
##eru
##erus
##erv
##ery
##es
##esa
##esaan
##esahan
##esaikan
##esalan
##esan
##esar
##esaran
##esarkan
##esc
##escens
##esch
##eschool
##esco
##ese
##esel
##esen
##eser
##esh
##esha
##esi
##esia
##esidenan
##esik
##esis
##esium
##esm
##esmia
##esmikan
##eso
##eson
##esona
##ess
##essa
##essen
##essor
##essy
##est
##esta
##estarian
##estarikan
##estasi
##este
##ester
##esterol
##esti
##estr
##estra
##estro
##esty
##esu
##esuaian
##esuaikan
##esus
##et
##eta
##etaan
##etah
##etahuan
##etahui
##etahuinya
##etail
##etak
##etakan
##etan
##etapan
##etapkan
##etar
##etas
##etat
##ete
##eteksi
##eter
##etes
##eth
##ether
##ething
##eti
##etik
##etika
##etil
##etin
##etis
##etkan
##etnis
##eto
##eton
##etr
##etra
##etri
##etron
##ets
##etsu
##ett
##etta
##ette
##etti
##etto
##etts
##etu
##etuai
##etuk
##etul
##etulan
##etus
##etuskan
##ety
##etz
##eu
##euen
##euh
##eum
##eur
##eus
##ev
##eva
##evard
##eve
##ever
##evi
##evic
##evich
##eville
##evisi
##evo
##evolusi
##ew
##ewa
##ewaan
##ewakan
##ewaskan
##eway
##ework
##ews
##ex
##ey
##eyan
##eyasu
##ez
##eza
##f
##fa
##faat
##faatkan
##face
##fah
##fak
##fal
##fam
##fan
##far
##fare
##fas
##fat
##fav
##fb
##fc
##fe
##fel
##feld
##fen
##fer
##ferensi
##ff
##fi
##fiah
##fic
##fica
##field
##fik
##fikasi
##fil
##fin
##final
##fir
##fl
##fo
##folio
##for
##ford
##form
##formasi
##formasikan
##formis
##fort
##four
##fr
##fred
##fri
##fried
##fs
##fsirkan
##ft
##fu
##ful
##fungsi
##fur
##furt
##g
##ga
##gab
##gabung
##gabungan
##gabungkan
##gai
##gaji
##gak
##gal
##gala
##gam
##gan
##ganegaraan
##gang
##ganti
##gantikan
##gantungan
##ganya
##gap
##gapan
##gar
##garan
##gart
##gas
##gate
##gau
##gaw
##gawa
##ge
##ged
##gen
##gender
##gensi
##ger
##ges
##get
##gh
##ghan
##ght
##gi
##gia
##gian
##giat
##gie
##gil
##gin
##ging
##gio
##gis
##git
##gl
##gle
##gm
##gma
##gn
##go
##gol
##gom
##gon
##gor
##gow
##gr
##grade
##gro
##ground
##group
##gs
##gu
##gun
##guna
##gunaan
##gunakan
##guncang
##gunung
##gunya
##gus
##gy
##h
##ha
##hab
##had
##hael
##hah
##hai
##hal
##ham
##han
##hana
##hani
##hantui
##hao
##har
##hara
##hard
##hari
##harjo
##harma
##hart
##has
##hat
##hati
##hatikan
##hattan
##haus
##hausen
##hav
##he
##head
##heed
##heim
##heimer
##hem
##hentikan
##her
##here
##herine
##hi
##hia
##hib
##hid
##hie
##hil
##hin
##hio
##hip
##hir
##hira
##hire
##hiri
##hiro
##his
##hitungkan
##hiz
##hl
##ho
##hoa
##hof
##hoi
##hol
##hold
##holm
##hood
##hor
##hos
##house
##hout
##hoven
##ht
##hu
##hua
##hucu
##hui
##hul
##hum
##hur
##hus
##hy
##hya
##hyang
##i
##ia
##iaan
##iac
##iaceae
##iah
##iak
##ial
##iam
##iaman
##ian
##iana
##iang
##iani
##ianisme
##iano
##ians
##ianto
##ianus
##ianya
##iao
##iarkan
##ias
##iat
##iau
##iaya
##iayaan
##iayai
##ib
##ibah
##ibal
##ibar
##ibarkan
##ibat
##ibatkan
##ibi
##ibia
##ible
##ibo
##ibus
##ibusinya
##ic
##ica
##ical
##ican
##icara
##icarakan
##ication
##ications
##ice
##ices
##ich
##ichi
##ichy
##ici
##icia
##ick
##icks
##icle
##ico
##icon
##ics
##ict
##icu
##icum
##icus
##id
##ida
##idaceae
##idad
##idae
##idah
##idak
##idan
##idana
##idang
##idap
##idas
##idasi
##idat
##idato
##iday
##idaya
##ide
##iden
##idence
##ident
##identifikasi
##ider
##ideres
##ides
##idge
##idi
##idia
##idih
##idik
##idikan
##idiki
##idin
##idion
##idis
##idium
##ido
##idon
##idor
##idup
##idupan
##idus
##idz
##ie
##iel
##ien
##ier
##ies
##iew
##if
##ifah
##ific
##ift
##ig
##igami
##ige
##igen
##iger
##igh
##ight
##ign
##igo
##igrasi
##igu
##igur
##igurasi
##ih
##iha
##ihak
##ihan
##ihannya
##ihara
##ihat
##ihatan
##ihatkan
##ihe
##ihi
##ihir
##ihkan
##iho
##ii
##iii
##ij
##ijaya
##iji
##ijing
##ijinkan
##ijk
##ik
##ika
##ikah
##ikai
##ikal
##ikan
##ikar
##ikasi
##ikasikan
##ikasinya
##ikat
##ikatan
##ikatif
##ikator
##ikawa
##ike
##ikel
##iker
##iket
##ikh
##iki
##ikian
##ikil
##ikin
##ikir
##ikiran
##ikirkan
##ikis
##ikit
##ikkan
##iknya
##iko
##ikot
##iks
##iksa
##iksi
##iku
##ikul
##ikuler
##ikum
##ikus
##ikut
##ikuti
##il
##ila
##ilah
##ilai
##ilaku
##ilan
##ilang
##ilangan
##ilangkan
##ilap
##ilas
##ilasi
##ilat
##ilau
##ilayah
##ild
##ilda
##ile
##iler
##ileri
##ilet
##ilh
##ilhami
##ili
##ilia
##ilian
##iliasi
##ilidae
##ilih
##ilihan
##ilik
##ilikan
##iliki
##ilikinya
##ilin
##iling
##ilingan
##ilio
##ilir
##iliran
##ilis
##ilit
##ilitas
##iliter
##ility
##iliun
##ilkan
##ill
##illa
##illah
##ille
##illes
##illo
##illus
##ilm
##ilo
##ils
##ilus
##ilustrasikan
##ily
##ilya
##im
##ima
##imah
##imak
##iman
##imanya
##imar
##imb
##imba
##imbang
##imbangan
##imbangi
##imbangkan
##imbau
##imbing
##imbun
##ime
##imen
##imental
##imer
##imeter
##imi
##imia
##imin
##iminasi
##imir
##imo
##imon
##imoto
##imp
##impah
##impahan
##impi
##impiade
##impin
##impinan
##impun
##impunan
##impung
##imu
##imus
##imuti
##in
##ina
##inaan
##inae
##inah
##inal
##inan
##inang
##inanya
##inap
##inas
##inasakan
##inasi
##inasikan
##inat
##inata
##inati
##inavia
##inc
##incang
##incangan
##incar
##inci
##incian
##incir
##include
##ind
##inda
##indah
##indahan
##indahkan
##indak
##indas
##inder
##inding
##indo
##indra
##indukan
##indung
##indungan
##indungi
##industr
##ine
##inea
##ineas
##inee
##iner
##ines
##iness
##inet
##inf
##infeksi
##info
##ing
##inga
##ingan
##ingankan
##ingat
##ingen
##inger
##ingg
##ingga
##inggal
##inggalan
##inggi
##inggit
##inggo
##inggu
##inggung
##ingi
##ingin
##inginan
##inginkan
##ingk
##ingkan
##ingkat
##ingkatan
##ingkir
##ingkirkan
##ingkuh
##ingo
##ingrat
##ings
##ingsih
##ington
##ingungkan
##inho
##ini
##inia
##inian
##inis
##inisi
##initas
##inium
##inius
##inj
##injam
##injamkan
##injau
##inju
##ink
##inkan
##inkannya
##inn
##ino
##inois
##ins
##insi
##insik
##insip
##inspirasi
##int
##inta
##intaan
##intaannya
##intai
##intainya
##intal
##intang
##intangi
##intanya
##intas
##intasan
##intasi
##integr
##integrasi
##integrasikan
##inter
##intesis
##intis
##into
##inton
##intus
##inum
##inus
##iny
##inya
##inyur
##io
##ion
##ior
##ios
##ious
##ip
##ipa
##ipal
##ipan
##ipe
##ipennis
##ipes
##ipi
##ipkan
##ips
##ipta
##iptakan
##iptanya
##ipto
##ipulasi
##iput
##ir
##ira
##iraan
##irah
##irakan
##irama
##iran
##iranya
##irat
##ird
##ire
##irejo
##iri
##irian
##irik
##irikan
##irilah
##irim
##irin
##iring
##iringan
##iringi
##irinya
##irip
##iris
##irkan
##irman
##irmasi
##iro
##iru
##iruan
##irus
##is
##isa
##isah
##isahan
##isahkan
##isal
##isan
##isap
##isar
##isasi
##isasikan
##isat
##isch
##ische
##ise
##isensi
##iser
##ish
##isha
##ishi
##isi
##isia
##isial
##isian
##isiensi
##isih
##isik
##isikan
##isin
##isinya
##ision
##isip
##isipl
##isir
##isisi
##isit
##isitas
##isius
##isk
##iskan
##iskinan
##iskusikan
##isl
##ism
##isma
##ismatik
##isme
##isnis
##isnya
##iso
##ison
##iss
##issa
##ission
##ist
##ista
##istan
##ister
##istik
##istika
##istin
##istira
##istr
##istri
##istribusi
##istribusikan
##istrik
##istrikan
##istry
##ists
##isu
##it
##ita
##itaan
##itab
##ital
##italisasi
##itan
##itanya
##itar
##itaran
##itari
##itarian
##itas
##itasi
##itatif
##itator
##itch
##ite
##ited
##itel
##iten
##iter
##itera
##iterasi
##iteria
##ites
##ith
##itha
##ithec
##iti
##ities
##itik
##iting
##itis
##itmen
##itno
##ito
##iton
##itor
##itr
##itra
##itraan
##itri
##itro
##its
##itsu
##itsune
##itt
##itte
##itter
##ittle
##itung
##itungan
##ity
##itz
##itzer
##ium
##ius
##iv
##iva
##ival
##ivan
##ive
##iver
##ivid
##ivisi
##ivora
##iwa
##ix
##iy
##iyah
##iz
##izat
##ize
##izinkan
##izu
##j
##ja
##jaan
##jad
##jadi
##jah
##jai
##jaja
##jak
##jakan
##jakarta
##jam
##jan
##jana
##jang
##jar
##jarah
##jaran
##jat
##jati
##jau
##jauan
##jauh
##jauhan
##jawab
##jaya
##je
##ject
##jek
##jelas
##jem
##jemah
##jemahkan
##jen
##jet
##ji
##jian
##jiang
##jid
##jikan
##jin
##jipto
##jk
##jo
##jojo
##jok
##jol
##jong
##jono
##ju
##jual
##juang
##juangan
##juangkan
##jub
##juk
##junkan
##jur
##k
##ka
##kah
##kai
##kal
##kala
##kam
##kan
##kand
##kandung
##kang
##kannya
##kanya
##kar
##kara
##karnasi
##kas
##kat
##kati
##ke
##kel
##ken
##ker
##kes
##kesmas
##ket
##key
##kh
##kham
##ki
##kia
##kie
##kiel
##kien
##kin
##king
##kins
##kinson
##kip
##kir
##kit
##kl
##km
##kn
##ko
##kohol
##kol
##kom
##kon
##kop
##kos
##kota
##kov
##kp
##kre
##krip
##kripsi
##kripsikan
##ks
##kt
##ku
##kuit
##kul
##kum
##kup
##kus
##ky
##l
##la
##lab
##laba
##lad
##lag
##lah
##lai
##laim
##lain
##lak
##lakuan
##lakukan
##lal
##lam
##lamasi
##lan
##lanan
##land
##landia
##lands
##lang
##langga
##lap
##laq
##lar
##larasikan
##laren
##las
##lasi
##lasifikasikan
##lat
##latul
##laus
##laut
##lav
##lavia
##law
##lawan
##lay
##ld
##le
##leb
##led
##ledge
##ledore
##lee
##leh
##lek
##lem
##lemen
##lement
##lementasikan
##len
##leng
##ler
##les
##less
##let
##lett
##lex
##ley
##li
##lia
##lian
##lic
##lich
##lid
##lie
##lier
##lies
##lif
##life
##lig
##liga
##ligh
##light
##lik
##likan
##likasi
##likasikan
##lim
##lima
##lin
##line
##lines
##ling
##link
##lio
##lion
##lip
##lir
##lis
##lish
##list
##lit
##lius
##lo
##load
##lob
##lock
##log
##loh
##loid
##loitasi
##lok
##lom
##lon
##long
##lop
##lopedia
##lor
##los
##lot
##lov
##low
##ls
##lu
##luan
##luaskan
##lud
##lude
##luk
##lukan
##lukkan
##lum
##lun
##lung
##lunto
##lus
##ly
##lyn
##lywood
##m
##ma
##mad
##madja
##mae
##mah
##mak
##maker
##mal
##malaya
##malukan
##man
##mana
##mani
##mania
##mann
##manuel
##mar
##mara
##mark
##market
##mas
##masi
##masikan
##masin
##master
##mat
##mata
##matan
##mati
##matik
##matis
##matius
##mawati
##mb
##me
##med
##mel
##men
##ment
##mentasi
##menya
##mer
##mes
##met
##mi
##mia
##mid
##migran
##migrasi
##mil
##mill
##min
##minan
##mine
##ming
##mini
##minster
##mir
##mis
##misi
##misikan
##mit
##ml
##mm
##mn
##mo
##mod
##mon
##mond
##mont
##mor
##more
##mos
##mour
##mouth
##mp
##ms
##mu
##mud
##mun
##mund
##mur
##mus
##my
##n
##na
##nah
##nai
##nam
##namen
##nan
##nanya
##nar
##nas
##nd
##ne
##nel
##nell
##nen
##ner
##ners
##nes
##ness
##net
##nett
##neum
##ney
##ng
##ni
##nia
##nic
##nie
##nif
##nifer
##night
##nih
##nik
##nin
##ning
##nis
##nisa
##nium
##nn
##nnya
##no
##nografi
##nologi
##non
##ns
##nu
##num
##nus
##ny
##nya
##o
##oa
##oan
##ob
##oba
##obaan
##obak
##obar
##obat
##obatan
##obatkan
##obe
##obi
##obia
##obil
##obilisasi
##obiografi
##obo
##obos
##obot
##oboth
##obots
##oc
##oca
##ocal
##ocar
##ocentr
##ocentrus
##oceph
##ocera
##och
##oci
##ock
##ocl
##oco
##ocok
##ocokan
##ocoran
##ocorkan
##ocus
##od
##oda
##odadi
##odai
##ode
##oden
##odend
##odendron
##odeon
##oder
##odera
##odern
##odes
##odi
##odia
##odifikasi
##odin
##odinam
##odinamika
##odo
##odohan
##odohkan
##odon
##odong
##odus
##ody
##oe
##oed
##oel
##oen
##oeng
##of
##off
##ofil
##ofilia
##ofisika
##ofon
##ofr
##oft
##og
##oga
##ogan
##ogasi
##ogaster
##oge
##ogen
##ogenesis
##ogenik
##ogi
##ogiri
##oglob
##oglobin
##ogne
##ogo
##ogon
##ogr
##ograd
##ograf
##ografer
##ografi
##ografinya
##ografis
##ogram
##ograph
##ographic
##ography
##oh
##oha
##ohan
##oharjo
##ohi
##ohidrat
##ohkan
##oho
##ohol
##ohon
##ohonan
##ohong
##ohongan
##ohor
##oi
##oid
##oides
##oikot
##ois
##oj
##oja
##ok
##oka
##okan
##okar
##okarbon
##okasi
##okasikan
##okat
##oke
##okerto
##okh
##oki
##okimia
##okkan
##oklas
##oko
##okok
##okol
##okong
##okrasi
##okrat
##oks
##oksi
##oksida
##oksidasi
##oku
##okum
##okumentasikan
##okus
##okuskan
##ol
##ola
##olah
##olahan
##olak
##olakan
##olaknya
##olan
##olar
##olas
##olasi
##olat
##old
##older
##ole
##oleh
##olehkan
##olek
##oleksi
##olep
##oleransi
##oles
##olet
##olf
##oli
##olia
##olid
##olik
##olin
##oling
##olis
##olisis
##olit
##olitik
##oll
##olla
##ollis
##oln
##olo
##olog
##ologi
##ologia
##ological
##ologinya
##ologis
##ology
##olok
##olon
##olong
##olongan
##olongkan
##olophia
##olos
##oloskan
##olph
##olus
##olusi
##oly
##om
##oma
##oman
##omas
##omata
##omataceae
##omb
##omba
##ombak
##ombakan
##ombang
##ombinasikan
##ombo
##ombolan
##ombong
##ombongan
##ome
##omen
##omend
##omendasikan
##omer
##omet
##ometer
##omi
##omik
##ominasi
##ominasikan
##omintang
##omis
##omo
##omod
##omodasi
##omon
##omor
##omotif
##omp
##ompa
##ompak
##ompakan
##ompat
##ompet
##ompo
##ompok
##ompokan
##omulyo
##omun
##omunikasi
##omunikasikan
##omy
##omya
##omyia
##omyza
##on
##ona
##onal
##onald
##onan
##onaris
##onc
##oncong
##ond
##onda
##onde
##onder
##ondis
##ondisemen
##ondo
##ondong
##ondria
##one
##onegoro
##onel
##onen
##oner
##ones
##onesia
##oney
##onfir
##onfirmasi
##onfirmasikan
##ong
##onga
##ongan
##ongg
##ongi
##ongia
##ongk
##ongkar
##ongkol
##ongo
##ongs
##ongsong
##oni
##onia
##onic
##onik
##onim
##oning
##onis
##onisasi
##onisme
##onit
##onium
##onius
##onment
##onna
##onne
##ono
##onom
##onomi
##onotus
##ons
##onsentrasi
##onso
##onstr
##onstruksi
##onsumsi
##ont
##onta
##ontak
##ontal
##ontalo
##ontaminasi
##ontan
##ontarkan
##ontasi
##onte
##ontin
##onto
##onton
##ontr
##ontrak
##ontrol
##ony
##onya
##oo
##ood
##ool
##oon
##oor
##oordinasi
##op
##opa
##opak
##opal
##opang
##opatra
##ope
##opel
##oper
##operasi
##operasikan
##oph
##ophagus
##ophia
##ophora
##ophorus
##ophy
##ophyllum
##opi
##opia
##opl
##oplas
##oplasma
##ople
##opo
##opoda
##opogon
##opol
##opoli
##opolis
##opong
##opot
##opr
##opros
##oprosopa
##ops
##opsi
##opsis
##opter
##optera
##optimalkan
##opul
##opuler
##opuleran
##opulerkan
##opus
##opy
##or
##ora
##orak
##oral
##orama
##oran
##orang
##orangan
##orasi
##oratif
##ord
##order
##ordi
##ore
##orejo
##oreng
##ores
##oret
##orf
##org
##organ
##organik
##organisasi
##organisme
##ori
##oria
##orial
##orientasi
##ories
##oris
##orit
##oritas
##orium
##ork
##orkan
##orm
##ormal
##ormat
##ormatan
##ormati
##orn
##ornia
##ornis
##orno
##oro
##orogo
##orok
##orong
##oros
##orot
##oroti
##orp
##ors
##ort
##orter
##oru
##orum
##orus
##ory
##os
##osa
##osal
##osan
##osari
##osat
##osaurus
##osc
##ose
##osen
##oser
##osfer
##osh
##oshi
##oshima
##osi
##osia
##osiasi
##osiasikan
##osida
##osin
##osintesis
##osip
##osis
##osisi
##osisikan
##osistem
##osit
##osium
##oskop
##oslav
##oso
##osok
##osol
##osom
##osongan
##osongkan
##osp
##ospongia
##oss
##ossa
##ost
##osta
##oster
##ostik
##ostr
##osus
##ot
##ota
##otaan
##otai
##otakan
##otan
##otanya
##otase
##otasi
##otbah
##ote
##otek
##oteknologi
##oten
##oter
##oterapi
##otes
##oth
##other
##othy
##oti
##otif
##otik
##otika
##otin
##oting
##otis
##oto
##otok
##otomi
##oton
##otong
##otongan
##otop
##otor
##otori
##otos
##otov
##otr
##otret
##otria
##ots
##ott
##otti
##ou
##ouin
##ouk
##oul
##ount
##our
##ous
##out
##ouver
##ouw
##ov
##ova
##ovan
##ovasi
##ove
##oven
##over
##overy
##ovi
##ovia
##ovic
##ovich
##ovina
##ovision
##ovo
##ovsky
##ow
##owati
##ower
##owi
##owitz
##own
##owo
##ows
##owski
##ox
##oy
##oya
##oyama
##oyan
##oyang
##oyd
##oyo
##oyong
##oyono
##oz
##p
##pa
##pad
##pada
##pahaman
##pak
##pal
##pan
##pang
##panjang
##pansi
##papan
##par
##parah
##pas
##pat
##paten
##pati
##patkan
##patri
##pb
##pd
##pe
##pedo
##pei
##pek
##pektif
##pel
##pen
##peng
##per
##perimen
##pers
##pes
##pesi
##pesies
##pet
##ph
##phia
##phone
##phy
##pi
##pia
##pin
##pinang
##ping
##pir
##pirasi
##pis
##pit
##pkan
##pl
##play
##ple
##plin
##ploitasi
##plorasi
##plus
##pm
##pn
##po
##point
##pol
##pon
##pons
##pool
##por
##pora
##port
##pos
##pose
##pot
##pp
##pr
##pres
##presi
##presikan
##press
##pret
##pretasikan
##pro
##prov
##ps
##pt
##pu
##pun
##pur
##pura
##purna
##pus
##put
##py
##q
##qa
##qah
##qi
##qin
##qing
##qu
##que
##quer
##ques
##qui
##quin
##r
##ra
##rab
##rac
##rad
##raf
##raft
##rag
##raga
##ragiri
##rah
##rahan
##rahim
##rahman
##rain
##raine
##raj
##rak
##rakan
##ral
##ram
##rama
##ran
##rana
##rang
##rani
##rap
##rar
##ras
##rasi
##rat
##rata
##rated
##rates
##rav
##raw
##rax
##ray
##raya
##rc
##rd
##re
##reasi
##reb
##recht
##red
##reditasi
##ree
##reg
##regnum
##rejo
##rek
##rel
##rell
##rem
##ren
##rence
##reng
##rent
##rer
##res
##resentasikan
##resi
##resiasi
##ress
##rest
##ret
##rey
##rh
##ri
##ria
##rian
##rib
##ribadian
##ric
##rice
##rich
##rick
##rid
##rida
##ridge
##rie
##rier
##ries
##rif
##rig
##right
##rik
##rika
##rikan
##ril
##rilus
##rim
##rin
##rina
##ring
##rio
##rioritas
##rioritaskan
##rip
##ript
##rir
##ris
##risten
##rit
##ritik
##rium
##rix
##ro
##rob
##roc
##rod
##roduksi
##roe
##rof
##roh
##roho
##roit
##rok
##rol
##rolet
##roli
##rom
##roma
##romy
##ron
##rong
##ronim
##room
##rop
##ropoda
##ror
##ros
##rosa
##roskop
##ross
##rot
##roto
##rough
##rov
##row
##rs
##rt
##ru
##rud
##ruddin
##ruh
##ruk
##rul
##rum
##run
##rung
##rup
##rus
##rut
##rutan
##ry
##rys
##s
##sa
##saan
##saat
##saf
##safat
##sai
##sal
##san
##sang
##sar
##sara
##sari
##sat
##sau
##say
##sburg
##sc
##sch
##schaft
##sche
##sd
##se
##sea
##sean
##sebut
##sec
##sed
##sedia
##sediaan
##see
##sef
##sei
##sein
##sek
##sel
##self
##sen
##sep
##ser
##sertakan
##ses
##sesi
##set
##seumawe
##sewu
##sex
##sey
##sh
##sha
##shev
##shevik
##shi
##ship
##shire
##shop
##show
##si
##sia
##sial
##sible
##sic
##side
##sie
##sif
##sih
##sihan
##sihkan
##sik
##sikan
##sil
##sin
##sing
##sinya
##sion
##sional
##sip
##sir
##sis
##sit
##sium
##sius
##sk
##ski
##sky
##sl
##sm
##sman
##so
##sol
##son
##sono
##sons
##sor
##sour
##sp
##space
##span
##spot
##spur
##ss
##sson
##st
##stadt
##stal
##stan
##standing
##star
##station
##ste
##sted
##stein
##sten
##ster
##stil
##stone
##str
##stream
##strong
##su
##suf
##sul
##sum
##sun
##sunya
##sur
##sus
##sw
##sy
##syah
##syat
##syur
##t
##ta
##taan
##tab
##tabel
##tabil
##tabilan
##tabilitas
##tabilkan
##table
##tac
##taceae
##tad
##taf
##tag
##tage
##tah
##tai
##tain
##tainer
##tainya
##tak
##takan
##tal
##tam
##tama
##tan
##tanam
##tanan
##tanegara
##tang
##tani
##tansi
##tant
##tanya
##tar
##tara
##tas
##tase
##tasi
##tasinya
##tat
##tata
##tator
##taur
##tav
##taw
##tawa
##taz
##tc
##te
##tebr
##ted
##tega
##tek
##tel
##telasi
##tem
##tember
##tempor
##temukan
##ten
##teng
##tenham
##tensi
##tenstein
##ter
##tera
##teran
##terapi
##teri
##teria
##teriak
##terian
##terinya
##terior
##tern
##ternal
##tero
##ters
##teru
##tes
##tet
##th
##tha
##the
##ther
##thia
##thy
##ti
##tia
##tian
##tiar
##tib
##tiban
##tic
##tica
##tical
##tice
##ticons
##tics
##ticus
##ticut
##tid
##tida
##tie
##tier
##ties
##tif
##tifik
##tifikasi
##tifkan
##tig
##tih
##tihad
##tik
##tika
##tikal
##tikan
##til
##tim
##time
##tin
##tina
##ting
##tingen
##tinggi
##tinya
##tio
##tion
##tional
##tionary
##tions
##tip
##tipe
##tipula
##tir
##tis
##tisan
##tisi
##tisida
##tit
##titu
##titusi
##tium
##tius
##tiv
##tival
##tivasi
##tive
##tivitas
##tivo
##tk
##tle
##tm
##tn
##to
##tober
##toc
##tom
##ton
##tong
##tonik
##tono
##top
##tor
##toral
##toran
##tori
##toro
##tos
##tosa
##tow
##town
##toy
##tp
##tr
##tra
##track
##trad
##tram
##trans
##trasi
##tre
##trech
##tren
##tress
##tret
##tri
##tria
##trial
##tribu
##tribut
##tributor
##trik
##trin
##tris
##tro
##tron
##trop
##truktur
##trukturisasi
##trum
##try
##ts
##tt
##tu
##tua
##tual
##tualang
##tuan
##tuanya
##tuasi
##tudo
##tug
##tugas
##tuh
##tuhan
##tuhkan
##tui
##tuj
##tuju
##tujuan
##tujui
##tujuinya
##tuk
##tukan
##tukar
##tukarkan
##tul
##tulis
##tum
##tun
##tung
##tunya
##tup
##tur
##tura
##turan
##turbasi
##ture
##tures
##turi
##turkan
##turn
##turunan
##turut
##tus
##tusan
##tusuk
##tut
##tuti
##tv
##ty
##tz
##u
##ua
##uak
##ual
##uali
##ualian
##ualitas
##uan
##uang
##uansa
##uanya
##uap
##uar
##uara
##uarakan
##uard
##uari
##uary
##uas
##uasa
##uasai
##uasainya
##uasan
##uasi
##uaskan
##uat
##uatan
##uatu
##ub
##uba
##ubah
##ubahan
##uban
##ubang
##ube
##uber
##ubern
##ubi
##ubl
##ublik
##ublikasikan
##ubs
##ubung
##ubungan
##ubungi
##uc
##uca
##ucapkan
##ucci
##uce
##uch
##uchi
##uci
##ucian
##ucikan
##uck
##ucle
##ucon
##uction
##ucu
##ucuk
##ucut
##ucuti
##ud
##uda
##udaan
##udah
##udahkan
##udan
##udang
##udar
##udara
##udaraan
##uddin
##ude
##uder
##udi
##udian
##udikan
##udin
##udo
##udu
##uduk
##udukan
##uduki
##udul
##udung
##ue
##uel
##uela
##uer
##ues
##uet
##uez
##uf
##ug
##uga
##ugar
##ugat
##ugawa
##uge
##ugerah
##ugerahi
##ugerahkan
##ugh
##ught
##ugikan
##ugo
##ugrah
##ugu
##uguhkan
##uguran
##uh
##uha
##uhan
##uhi
##uhkan
##uhnya
##uhu
##uhur
##ui
##uil
##uin
##uinya
##uit
##uj
##uja
##ujan
##uji
##ujian
##uju
##ujud
##ujudan
##ujudkan
##ujuk
##ujung
##ujuran
##uk
##uka
##ukaan
##ukah
##ukai
##ukan
##ukanya
##ukau
##uke
##ukh
##uki
##ukim
##ukir
##ukis
##ukiskan
##ukkan
##uko
##ukses
##uksi
##uktur
##uku
##ukuh
##ukuhan
##ukuhkan
##ukul
##ukuli
##ukum
##ukung
##ukupi
##ukur
##ukuran
##ul
##ula
##ulaan
##ulah
##ulai
##ulak
##ulam
##ulan
##ulang
##ulangan
##ulangi
##ulap
##ular
##ularis
##ulas
##ulasi
##ulasikan
##ulat
##ulata
##ulatif
##ulator
##ulatus
##ulauan
##uld
##ule
##uler
##ulf
##uli
##ulia
##uliah
##uliakan
##ulik
##ulikan
##ulin
##uling
##ulir
##ulis
##ulistiwa
##ulit
##ulkan
##ull
##ullah
##ulo
##ulosa
##ult
##ultasi
##ultur
##ultural
##ulu
##uluh
##uluk
##uluki
##ulum
##ulung
##ulur
##ulus
##ulusan
##uluskan
##ulya
##ulyo
##um
##uma
##umah
##uman
##umar
##umas
##umasan
##umb
##umbang
##umber
##umbu
##ume
##umen
##ument
##umentasi
##umer
##umi
##umin
##umkan
##umlah
##umo
##ump
##umpa
##umpah
##umpai
##umpalan
##umpang
##umpuhkan
##umpul
##umpulan
##umpulkan
##umpun
##umsi
##umsikan
##umu
##umulasi
##umumkan
##umur
##umuskan
##un
##una
##unaga
##unan
##unangan
##unc
##uncak
##unci
##uncing
##uncul
##unculan
##unculkan
##uncur
##uncurkan
##und
##unda
##undaan
##undai
##undan
##undang
##undanya
##under
##undi
##undingkan
##unduk
##undukkan
##unduran
##une
##unes
##ung
##unga
##ungan
##unge
##ungg
##unggal
##unggu
##ungi
##ungk
##ungkan
##ungkap
##ungkapkan
##ungkin
##ungkinan
##ungkinkan
##ungku
##ungkung
##ungkus
##ungsi
##ungsikan
##ungu
##ungut
##ungutan
##uni
##unia
##unj
##unjang
##unjuk
##unjukan
##unjukkan
##unjung
##unjungan
##unjungi
##unkan
##unn
##uno
##unt
##unting
##untingan
##untu
##untuhan
##untuhkan
##untuk
##untukan
##untukkan
##untungan
##untungkan
##untut
##untutan
##unuh
##unungan
##unya
##unyai
##unyi
##unyikan
##uo
##up
##upa
##upai
##upakan
##upan
##upang
##upas
##upe
##upi
##upiter
##upkan
##uplai
##upsi
##upuk
##upun
##ur
##ura
##urah
##urahan
##urai
##ural
##uran
##urance
##urang
##urangan
##uransi
##uras
##urasi
##urat
##urch
##ure
##uri
##uria
##urian
##urinya
##urkan
##urn
##urnian
##urnikan
##urnya
##uro
##urs
##urt
##uru
##uruan
##uruh
##uruhan
##uruk
##urun
##urung
##urus
##urusan
##urutan
##ury
##uryeo
##us
##usa
##usah
##usaha
##usahaan
##usahakan
##usai
##usak
##usan
##usat
##usc
##use
##usep
##user
##ush
##ushi
##ushima
##ushu
##usi
##usia
##usiaan
##usif
##usik
##usim
##usin
##usinya
##uskan
##usnya
##uss
##ussalam
##ussia
##ust
##usta
##ustakaan
##uster
##ustik
##ustr
##ustru
##usu
##usuk
##usukan
##usul
##usun
##usur
##usus
##ut
##uta
##utama
##utamaan
##utan
##utanan
##utang
##utani
##utar
##utaran
##utasi
##utat
##ute
##uter
##utes
##uth
##uti
##utif
##utik
##uting
##ution
##utip
##utkan
##utnya
##uto
##utr
##utra
##utrad
##utradara
##utradaraan
##utradarai
##utri
##uts
##utsu
##utu
##utuh
##utuhan
##utunya
##utup
##utus
##utusan
##utuskan
##utut
##uty
##uv
##uw
##uwa
##uwangi
##ux
##uy
##uyen
##uz
##v
##va
##vada
##val
##van
##vari
##vas
##vasi
##vat
##ve
##ved
##vel
##velt
##ven
##vensi
##ver
##vers
##versi
##ves
##vestasi
##vestasikan
##vet
##vez
##vi
##via
##vic
##view
##ville
##vin
##ving
##vir
##vis
##vius
##vo
##vy
##w
##wa
##waan
##wagen
##wah
##wai
##wak
##wakan
##waktu
##wal
##wald
##wall
##wan
##wana
##wang
##wangi
##wani
##wannya
##wanto
##wanya
##war
##wara
##ward
##ware
##wari
##waringin
##warna
##warts
##was
##wat
##water
##wati
##wave
##way
##wayatkan
##ways
##we
##ween
##weg
##weh
##well
##wer
##west
##wet
##wi
##wich
##wick
##wid
##width
##wig
##wijaya
##wil
##win
##wir
##wis
##wisata
##wo
##won
##wono
##wood
##word
##work
##worth
##wu
##wulan
##x
##xa
##xi
##xia
##xon
##xt
##xx
##xy
##y
##ya
##yad
##yadi
##yah
##yai
##yak
##yakarta
##yakini
##yal
##yam
##yama
##yamin
##yan
##yana
##yang
##yangan
##yangi
##yangkan
##yani
##yanti
##yanto
##yanya
##yap
##yar
##yarakat
##yarakatan
##yarat
##yaratkan
##yas
##yasa
##yat
##yata
##yataan
##yati
##yatt
##yaw
##yawan
##yawar
##yawarah
##yc
##yce
##ych
##yd
##ye
##yek
##yen
##yeong
##yer
##yet
##yg
##yi
##yid
##yim
##yin
##yit
##yl
##yli
##ym
##yn
##yo
##yod
##yol
##yon
##yong
##yono
##yoshi
##yp
##yphi
##yr
##yra
##ys
##yte
##yth
##yu
##yuan
##yudi
##yuh
##yum
##yun
##yung
##yut
##yx
##yyah
##z
##za
##zah
##zai
##zak
##zaki
##zal
##zam
##zan
##zar
##zat
##zation
##zawa
##zburg
##ze
##zed
##zel
##zen
##zer
##zh
##zhab
##zhou
##zi
##zia
##ziarah
##zidae
##zier
##zig
##zim
##zin
##zine
##zio
##zir
##zo
##zoa
##zon
##zong
##zu
##zuki
##zy
##zyn
##zynski
##zz
##zza
##zzi
##zzo
##µ
##º
##ß
##æ
##ð
##ø
##þ
##đ
##ħ
##ı
##ł
##ław
##ŋ
##œ
##ɐ
##ɑ
##ɔ
##ə
##ɛ
##ɡ
##ɪ
##ʁ
##ʃ
##ʊ
##ʒ
##ʔ
##ʰ
##ʲ
##ʻ
##ʼ
##ʾ
##ʿ
##ˈ
##ˌ
##ː
##α
##β
##γ
##δ
##ε
##ζ
##η
##θ
##ι
##κ
##λ
##μ
##ν
##ξ
##ο
##ος
##ου
##π
##ρ
##ς
##σ
##τ
##υ
##φ
##χ
##ψ
##ω
##а
##б
##в
##г
##д
##е
##ж
##з
##и
##к
##л
##м
##н
##о
##ов
##п
##р
##с
##т
##у
##ф
##х
##ц
##ч
##ш
##щ
##ъ
##ы
##ь
##э
##ю
##я
##і
##ј
##ћ
##қ
##ө
##ա
##ե
##ի
##կ
##յ
##ն
##ո
##տ
##ր
##א
##ב
##ג
##ד
##ה
##ו
##ז
##ח
##ט
##י
##ך
##כ
##ל
##ם
##מ
##ן
##נ
##ס
##ע
##פ
##צ
##ק
##ר
##ש
##ת
##ء
##ا
##ال
##ان
##ب
##ة
##ت
##ث
##ج
##ح
##خ
##د
##ذ
##ر
##ز
##س
##ش
##ص
##ض
##ط
##ظ
##ع
##غ
##ـ
##ف
##ق
##ك
##ل
##م
##ن
##ه
##و
##ى
##ي
##ين
##پ
##چ
##ڠ
##ڤ
##ک
##گ
##ہ
##ی
##अ
##क
##ग
##च
##ज
##ड
##ण
##त
##द
##ध
##न
##प
##ब
##भ
##म
##य
##र
##ल
##व
##श
##ष
##स
##ह
##ा
##ि
##ी
##ो
##ক
##গ
##জ
##ত
##দ
##ন
##প
##ব
##ম
##য
##র
##ল
##শ
##স
##হ
##া
##ি
##ী
##ে
##க
##ச
##த
##ப
##ம
##ய
##ர
##ல
##ா
##ி
##ு
##ం
##ర
##ల
##ు
##ก
##ค
##ง
##จ
##ช
##ด
##ต
##ท
##ธ
##น
##บ
##ป
##พ
##ม
##ย
##ร
##ล
##ว
##ศ
##ส
##ห
##อ
##ะ
##า
##เ
##แ
##ར
##ာ
##ა
##ე
##ი
##ლ
##ო
##რ
##ს
##ᄇ
##ᅡ
##ᅢ
##ᅣ
##ᅥ
##ᅦ
##ᅧ
##ᅨ
##ᅩ
##ᅪ
##ᅬ
##ᅭ
##ᅮ
##ᅯ
##ᅱ
##ᅲ
##ᅳ
##ᅴ
##ᅵ
##ᆨ
##ᆫ
##ᆯ
##ᆷ
##ᆸ
##ᆺ
##ᆼ
##រ
##ា
##ᨅ
##ᨆ
##ᨈ
##ᨑ
##ᨒ
##ᨕ
##ᨙ
##ᨚ
##ᴡ
##ℓ
##あ
##い
##う
##え
##お
##か
##き
##く
##け
##こ
##さ
##し
##す
##せ
##そ
##た
##ち
##っ
##つ
##て
##と
##な
##に
##の
##は
##ひ
##ふ
##ほ
##ま
##み
##め
##も
##ゃ
##や
##よ
##ら
##り
##る
##れ
##ろ
##わ
##を
##ん
##ア
##ィ
##イ
##ウ
##ェ
##エ
##オ
##カ
##キ
##ク
##ケ
##コ
##サ
##シ
##ス
##セ
##ソ
##タ
##チ
##ッ
##ツ
##テ
##ト
##ナ
##ニ
##ハ
##ヒ
##フ
##ヘ
##ホ
##マ
##ミ
##ム
##メ
##モ
##ャ
##ヤ
##ュ
##ョ
##ラ
##リ
##ル
##レ
##ロ
##ワ
##ン
##ー
##ꦏ
##ꦠ
##ꦤ
##ꦧ
##ꦩ
##ꦫ
##ꦭ
##ꦱ
##ꦺ
$
%
&
(
)
*
+
,
-
.
/
0
00
000
01
02
03
04
05
050
06
07
08
09
1
10
100
1000
101
102
103
104
105
106
107
108
109
11
110
111
112
113
114
115
116
117
118
119
12
120
1200
121
122
123
124
125
126
127
128
129
13
130
1300
131
132
133
134
135
136
137
138
139
14
140
1400
141
142
143
144
145
146
147
148
149
15
150
1500
151
152
153
154
155
156
157
158
159
16
160
1600
161
162
163
164
165
166
167
168
169
17
170
1700
171
172
173
174
175
176
177
178
179
18
180
1800
181
1815
182
1825
183
1830
1837
184
1840
1846
1848
1849
185
1850
1851
1852
1854
1855
1856
1857
1858
1859
186
1860
1861
1862
1863
1864
1865
1866
1867
1868
1869
187
1870
1871
1872
1873
1874
1875
1876
1877
1878
1879
188
1880
1881
1882
1883
1884
1885
1886
1887
1888
1889
189
1890
1891
1892
1893
1894
1895
1896
1897
1898
1899
19
190
1900
1901
1902
1903
1904
1905
1906
1907
1908
1909
191
1910
1911
1912
1913
1914
1915
1916
1917
1918
1919
192
1920
1921
1922
1923
1924
1925
1926
1927
1928
1929
193
1930
1931
1932
1933
1934
1935
1936
1937
1938
1939
194
1940
1941
1942
1943
1944
1945
1946
1947
1948
1949
195
1950
1951
1952
1953
1954
1955
1956
1957
1958
1959
196
1960
1960an
1961
1962
1963
1964
1965
1966
1967
1968
1969
197
1970
1970an
1971
1972
1973
1974
1975
1976
1977
1978
1979
198
1980
1980an
1981
1982
1983
1984
1985
1986
1987
1988
1989
199
1990
1990an
1991
1992
1993
1994
1995
1996
1997
1998
1999
2
20
200
2000
2001
2002
2003
2004
2005
2006
2007
2008
2009
201
2010
2011
2012
2013
2014
2015
2016
2017
2018
2019
202
2020
203
204
205
206
207
208
209
21
210
212
214
215
216
217
219
22
220
221
222
224
225
226
227
228
23
230
235
238
24
240
245
25
250
2500
251
255
256
26
260
265
27
270
275
28
280
29
290
3
30
300
3000
301
305
31
310
315
3166
32
320
325
33
330
34
340
35
350
36
360
365
37
370
375
38
380
39
390
3d
4
40
400
4000
41
42
420
43
430
44
440
45
450
46
460
47
48
480
49
5
50
500
5000
51
52
520
53
54
55
550
56
560
57
58
59
6
60
600
6000
61
62
63
64
640
65
650
66
67
68
69
7
70
700
71
72
720
73
737
74
747
75
750
76
77
78
79
8
80
800
81
82
83
84
85
850
86
87
88
89
9
90
900
91
92
93
94
95
950
96
97
98
99
:
;
=
?
@
[
[CLS]
[MASK]
[PAD]
[SEP]
[UNK]
\
]
^
_
`
a
a3
aa
aang
aar
aaron
ab
aba
abad
abadi
abah
abang
abb
abbas
abbasi
abbasiyah
abc
abd
abdi
abdul
abdullah
abdur
abdurrahman
abe
abel
aber
abh
abi
abidin
abim
abjad
abn
abnormal
aborsi
about
abraham
abram
abri
abs
absen
absol
absolut
abstr
abstrak
abu
abubakar
abul
ac
academ
academy
acak
acap
acara
acaranya
acc
access
account
ace
aceh
ach
achi
achiev
achmad
acid
acmae
acmaeodera
act
action
activ
actor
acuan
ad
ada
adak
adakalanya
adalah
adam
adams
adanya
adap
adaptasi
adapun
adat
add
ade
adegan
adel
adelaide
aden
adh
adi
adik
adiknya
adil
adip
adipati
adis
adit
aditya
adj
admin
administr
administrasi
administratif
administration
administrator
admir
admiral
adnan
adobe
adolf
adonan
adopsi
adr
adri
adrian
adu
adv
advanced
adven
advent
adventure
adver
advis
advokasi
advokat
ae
aeg
aek
aer
af
afc
afd
aff
affairs
afgan
afganistan
afghan
afghanistan
afi
afiliasi
afr
africa
african
afrika
after
ag
aga
again
against
agak
agaknya
agam
agama
agamanya
agar
age
agen
agency
agenda
ageng
agensi
agent
agn
agnes
agr
agraria
agraris
agre
agreement
agreg
agregat
agresi
agresif
agric
agrilus
agro
agromy
agromyzidae
agu
agung
agus
agustinus
agustus
ah
ahl
ahli
ahmad
ahmed
ai
aib
aid
aids
aik
aim
ain
air
airbus
aircraft
aires
airlangga
airlines
airnya
airport
airways
ais
aisyah
aj
aja
ajaib
ajakan
ajang
ajar
ajaran
ajarannya
ajax
aji
ajudan
ak
aka
akad
akadem
akademi
akademik
akademis
akademisi
akal
akan
akar
akarnya
akb
akb48
akbar
akh
akhir
akhiran
akhirat
akhirnya
akhlak
aki
akibat
akibatnya
akira
akomodasi
akrab
akreditasi
akronim
aksara
akselerasi
aksen
akses
aksesoris
aksi
aksinya
akta
aktif
akting
aktingnya
aktiv
aktivis
aktivitas
aktivitasnya
aktor
aktris
aktual
aku
akuarium
akuisisi
akumulasi
akun
akuntan
akuntansi
akurasi
akurat
akustik
akut
al
ala
alab
alabama
alai
alam
alamat
alami
alamiah
alamnya
alan
alang
alarm
alas
alasan
alasannya
alaska
alat
alauddin
alb
alban
albania
albar
alber
albert
alberto
albion
album
albumnya
alc
ald
aldi
aldo
ale
aleks
aleksand
aleksander
aleksandria
alergi
aless
alessandro
alex
alexand
alexander
alexandra
alexandre
alexandria
alf
alfa
alfabet
alfonso
alfred
alg
alga
algorit
algoritme
alhasil
ali
alian
aliansi
alias
alice
alien
alif
align
alih
alik
alim
aliran
alis
alit
aliyah
alj
aljabar
aljazair
alk
alkali
alkimia
alkitab
alkohol
all
allah
allen
alli
alliance
allium
alm
almar
almarhum
alokasi
alonso
alor
aloy
alp
alpen
alph
alpha
alq
alquran
als
also
alt
altar
altern
alternatif
alternative
alum
aluminium
alumni
alumnus
alun
alur
alv
alvin
alwi
am
ama
amal
aman
amanah
amanat
amanda
amangk
amangkurat
amar
amarah
amaryll
amaryllidaceae
amat
amatir
amaz
amazon
amb
ambang
ambar
ambarawa
amber
ambigu
ambil
ambisi
ambisius
ambon
ambul
ambulans
amd
amelia
amendemen
amer
america
american
amerika
amf
amfibi
ami
amil
amin
aminah
amino
amir
amm
amn
amonia
amor
amp
ampel
amph
ampli
ampuh
ampun
amr
amster
amsterdam
amun
amunisi
amy
an
ana
anak
anakan
anaknya
anal
analis
analisis
analog
analogi
analy
analysis
anand
ananda
anang
ananta
anark
anarkis
anarkisme
anas
anast
anat
anatolia
anatomi
anc
ancaman
ancol
and
anda
andal
andalan
andalas
andalusia
anders
anderson
andi
andika
andil
andr
andre
andrea
andreas
andres
andrew
android
andy
ane
aneh
anehnya
aneka
anemia
ang
angel
angela
angeles
angg
angga
anggap
anggapan
anggaran
anggota
anggotanya
anggrek
anggun
anggur
angin
angk
angka
angkasa
angkat
angkatan
angkatnya
angker
angklung
angkot
angkut
angkutan
anglikan
anglo
angola
angs
angsa
angsur
ani
anim
animalia
animasi
animation
anime
animisme
anis
anita
anj
anjing
anjungan
anjuran
ann
anna
anne
anom
anomali
anonim
anorganik
another
ans
ansh
ant
antagonis
antar
antara
antaranya
antariksa
antarktika
antarm
antarmuka
antarnegara
antartika
antas
antasari
antena
anth
antha
anthaxia
anthony
anthrax
anti
antib
antibiotik
antibodi
antigen
antik
antim
anting
antiokh
antiokhia
antioksidan
antis
antiv
antivirus
anto
antologi
anton
antonio
antonius
antr
antrop
antropolog
antropologi
antusias
antv
anu
anugerah
anum
anumerta
anus
anwar
any
anyaman
anyar
ap
apa
apabila
apakah
apal
apalagi
apapun
apar
aparat
aparatur
apartemen
apartheid
apat
apbd
apbn
apel
api
aplikasi
apok
apol
apollo
apost
apostolik
apotek
app
appl
apple
application
apresiasi
april
apung
aq
aqu
aqua
aquari
ar
ara
arab
arabia
araf
arafat
aragon
arah
arahan
arak
arakan
aram
araneae
araneidae
araneus
arang
aransemen
aras
arashi
arb
arbit
arc
arca
arch
archit
ard
ardi
are
area
areal
arema
aren
arena
arg
argentina
argo
argumen
argumentasi
ari
aria
arie
arief
ariel
arif
arifin
aris
arist
aristot
aristoteles
arit
arizona
arj
arjuna
ark
arke
arkeolog
arkeologi
arkeologis
arktik
arm
armada
armenia
armstrong
army
arn
arnold
arok
arom
aroma
arondisemen
around
arr
ars
arsen
arsenal
arsip
arsitek
arsitektur
arsyad
art
artefak
artem
arteri
arth
arthropoda
arthur
arti
artian
artic
artif
artikel
artikelnya
artileri
artinya
artis
artist
artistik
arts
aru
arun
arung
arus
arwah
arya
aryo
as
asa
asahan
asal
asalkan
asalnya
asam
asap
asas
asasi
asc
asean
asem
asep
aset
asetat
ash
ashley
asi
asia
asian
asih
asilidae
asim
asimilasi
asin
asing
asiria
asisten
ask
asli
aslinya
asm
asma
asmara
asmat
asosiasi
asp
aspal
asparagales
aspek
asper
asperg
aspir
aspirasi
asrama
asri
ass
assemb
asset
assist
associ
associated
association
ast
aster
asteraceae
asterales
asteroid
asti
aston
astr
astra
astrag
astragalus
astro
astronom
astronomi
asuh
asuhan
asumsi
asupan
asuransi
asw
asy
asyur
at
ata
atalanta
atap
atas
atasan
atasannya
atasnya
atau
ataupun
ate
ateis
aten
ath
athena
athletic
ati
atl
atlan
atlanta
atlantic
atlantik
atlantis
atlas
atlet
atletico
atletik
atm
atma
atmos
atmosfer
atom
atp
atr
atraksi
atribut
att
atta
attack
aturan
au
aud
audi
audio
audisi
audit
auditorium
aug
augus
august
augustus
aula
aulia
aun
aur
aura
aus
austin
austr
austral
australia
australian
austria
austronesia
aut
auth
author
authority
autisme
auto
autobots
autom
aux
av
avatar
aven
avenue
aver
avi
aviation
aviv
aw
awak
awal
awalan
awalnya
awam
awan
awang
award
awards
away
awet
ax
ay
aya
ayah
ayahanda
ayahandanya
ayahnya
ayam
ayat
ayo
ayu
ayub
ayyub
az
azerbaijan
azhar
aziz
aztek
b
ba
bab
baba
babad
babak
babakan
babel
babi
babil
babilonia
baby
bac
baca
bacaan
bach
back
background
bacon
bad
bada
badai
badak
badan
badannya
badar
baden
badung
bae
baek
baekje
baf
bag
bagai
bagaikan
bagaiman
bagaimana
bagaimanapun
bagan
bagasi
bagh
baghdad
bagi
bagian
bagiannya
bagikan
baginda
baginya
bagus
bah
baha
bahagia
bahan
bahar
bahari
bahasa
bahasanya
bahawa
bahaya
bahkan
bahrain
bahru
bahtera
bahu
bahw
bahwa
bahwasanya
bai
baik
baiknya
bait
baitu
baitul
baj
baja
bajak
baju
bak
baka
bakal
bakar
bakat
bakatnya
bakau
baker
bakri
bakrie
baks
bakso
bakteri
bakti
baku
bal
bala
balai
balan
balap
balapan
balas
balasan
bald
bale
balet
bali
balik
balikpapan
baling
balistik
balita
balkan
ball
balok
balon
bals
balsaminaceae
baltik
bam
bamb
bambang
bambu
ban
banc
band
banda
bandar
bandara
banding
bandingkan
bandit
bandung
bandwidth
bang
bangau
bangga
banggai
bangk
bangka
bangkai
bangkalan
bangkit
bangkitnya
bangkok
bangkrut
bangku
banglad
bangladesh
bangs
bangsa
bangsal
bangsanya
bangsawan
bangun
bangunan
bangunannya
bani
banj
banjar
banjarbaru
banjarmasin
banjarnegara
banjir
bank
banking
bankir
bant
bantal
bantalan
bantar
bantaran
banten
banteng
bantu
bantuan
bantul
banu
bany
banyak
banyaknya
banyu
banyuasin
banyumas
banyuwangi
bao
bap
bapa
bapak
bapaknya
baptis
baptisan
bar
bara
barack
barak
barang
barangay
barangkali
barat
barb
barbar
barbara
barcel
barcelona
barel
bari
baris
barisan
barito
barn
barnabas
baro
barok
baron
barong
barr
barry
bart
barth
baru
barulah
barunya
barus
bas
basa
basah
base
based
basel
basi
basic
basil
basilika
basis
basket
baso
basque
basri
bass
bast
bastian
basuki
bat
bata
batak
batal
batalion
batalyon
batam
batang
batara
batas
batasan
batavia
baterai
bath
batik
batin
batman
battle
batu
batuan
batubara
batuk
batur
bau
baud
bav
bavaria
baw
bawa
bawaan
bawah
bawahan
bawahannya
bawahnya
bawang
bay
baya
bayan
bayang
bayangan
bayar
bayaran
bayer
bayern
bayi
bayinya
bayu
baz
bb
bbc
bbm
bc
bca
bd
be
bea
beach
bean
bear
beasiswa
beast
beat
beatles
beautiful
beauty
beb
beban
bebas
bebatuan
bebek
beberapa
bec
beca
becak
beck
bed
beda
bedah
bedanya
bee
been
bef
before
beg
begin
begitu
begonia
begoniaceae
beh
bei
beijing
being
beir
beirut
bej
bejana
bek
bekal
bekas
bekasi
bekerj
bekerja
bekerjasama
beku
bel
bela
beladiri
belah
belahan
belajar
belak
belaka
belakang
belakangan
belakangnya
belalang
belanda
belang
belanja
belantara
belar
belarus
belas
belasan
belerang
belgia
beli
belia
beliau
belitung
bell
bella
belle
belok
belu
beluk
belukar
belum
belut
bem
ben
benang
benar
bencana
benci
bend
benda
bendahara
bendera
bendungan
bened
benedik
benediktus
benfica
beng
bengal
bengali
bengawan
bengk
bengkalis
bengkel
bengkok
bengkulu
beni
benih
bening
benj
benjamin
benny
bensin
bent
bentang
benteng
bentrok
bentrokan
bentuk
bentukan
bentuknya
benturan
benua
benyamin
benz
beograd
beper
bepergian
ber
berabad
beracun
berada
beradaptasi
beradik
beradu
berafiliasi
beragam
beragama
berair
berak
berakar
berakhir
berakhirnya
berakibat
beraksi
berakting
beraktivitas
beral
beralamat
beralasan
beralih
beraliran
beralkohol
berambut
beran
beranak
beraneka
berang
berangg
beranggapan
beranggotakan
berangkat
berangsur
berani
beranjak
berant
berantai
berantakan
berapa
berapi
berar
berarg
berargumen
berarti
beras
berasal
berat
beratnya
beraturan
berau
berawak
berawal
berb
berbadan
berbagai
berbagi
berbahan
berbahasa
berbahaya
berbakat
berbakti
berbalik
berbanding
berbaring
berbaris
berbasis
berbatasan
berbatu
berbau
berbaur
berbayar
berbeda
berbekal
berbel
berbelanja
berbelok
berbentuk
berber
berbicara
berbincang
berbisnis
berbobot
berbohong
berbuah
berbuat
berbukit
berbulan
berbulu
berbunga
berbunyi
berburu
berc
bercabang
bercahaya
bercak
bercampur
bercanda
bercerai
bercerita
bercita
bercocok
bercorak
berd
berdagang
berdakwah
berdamai
berdampak
berdampingan
berdarah
berdasar
berdasarkan
berdatangan
berdaulat
berdaya
berdebat
berdekatan
berdiam
berdiameter
berdinas
berdiri
berdirinya
berdiskusi
berdo
berdoa
berdomisili
berdosa
berdua
berduet
berduka
berdurasi
berduri
bereaksi
beredar
bereks
berem
berenang
berencana
beres
berevolusi
berf
berfirman
berfokus
berfungsi
berg
berga
bergabung
bergambar
berganda
berganti
bergantian
bergantung
bergaul
bergaya
bergegas
bergel
bergelar
bergelombang
bergen
bergengsi
bergenre
berger
bergerak
bergeser
bergi
bergulir
berguna
berguru
berh
berhadapan
berhak
berhala
berhaluan
berharap
berharga
berhasil
berhati
berhenti
berhubungan
beri
berib
beribadah
beribu
berik
berikan
beriklim
berikut
berikutnya
berim
beriman
berin
beringin
berinisi
berinisiatif
berinter
berinteraksi
berinvestasi
berisi
berisikan
berisiko
beristirahat
berita
berj
berjaga
berjalan
berjalannya
berjam
berjangka
berjanji
berjarak
berjasa
berjaya
berjenis
berjiwa
berjualan
berjuang
berjudul
berjumlah
berjumpa
berk
berkabung
berkah
berkaitan
berkaki
berkala
berkali
berkampanye
berkantor
berkap
berkapasitas
berkar
berkarakter
berkari
berkarier
berkarya
berkas
berkat
berkata
berke
berkeb
berkebangsaan
berkebun
berkec
berkecamuk
berkecepatan
berkecimpung
berked
berkedudukan
berkeinginan
berkek
berkekuatan
berkel
berkelahi
berkelana
berkelanjutan
berkeley
berkeli
berkeliaran
berkeliling
berkelompok
berkem
berkemah
berkembang
berkembangnya
berkenaan
berkenalan
berkenan
berkend
berkendara
berkep
berkepala
berkepanjangan
berker
berkes
berkesempatan
berkesinambungan
berkewarganegaraan
berkh
berkhianat
berkip
berkiprah
berkisah
berkisar
berkol
berkolaborasi
berkom
berkomentar
berkomitmen
berkomp
berkompetisi
berkomunikasi
berkon
berkons
berkonsentrasi
berkonsultasi
berkontribusi
berkualitas
berkuasa
berkuda
berkulit
berkumpul
berkunjung
berkurang
berkurangnya
berl
berlabuh
berlaga
berlainan
berlaku
berlakunya
berlalu
berlandaskan
berlangganan
berlangsung
berlangsungnya
berlanjut
berlantai
berlapis
berlari
berlatar
berlatih
berlawanan
berlayar
berlebih
berlebihan
berli
berlian
berlibur
berlimpah
berlin
berlindung
berlokasi
berlomba
berlubang
berm
bermacam
bermain
bermakna
bermaksud
berman
bermanfaat
bermarkas
bermas
bermasalah
bermasyarakat
bermata
bermatap
bermatapencaharian
bermesin
bermigrasi
bermimpi
berminat
bermotif
bermotor
bermuara
bermuatan
bermuda
bermukim
bermula
bermunculan
bermus
bermusik
bermusuhan
bermutu
bern
berna
bernada
bernama
bernapas
bernard
bernaung
bernegosiasi
berni
berniat
bernilai
bernomor
bernuansa
berny
bernyanyi
berolah
beroperasi
berorientasi
berp
berpacaran
berpakaian
berpaling
berpandangan
berpangkat
berpartisipasi
berpas
berpasangan
berpasir
berpat
berpegang
berpen
berpend
berpendapat
berpendidikan
berpenduduk
berpeng
berpengalaman
berpengaruh
berpengh
berpenghasilan
berpenghuni
berper
berperan
berperang
berperilaku
berpesan
berpidato
berpihak
berpikir
berpindah
berpisah
berpori
berposisi
berpotensi
berpr
berprestasi
berprofesi
berpuasa
berpura
berpusat
berputar
berry
bers
bersa
bersabda
bersah
bersahabat
bersaing
bersaksi
bersalah
bersama
bersamaan
bersamanya
bersambung
bersandar
bersangkutan
bersarang
bersatu
bersaudara
bersayap
berse
berseb
bersebelahan
berseberangan
bersedia
bersejarah
bersek
bersekolah
bersekutu
bersel
berselang
berselingkuh
berselisih
bersem
bersemangat
bersembunyi
bersenjata
bersentuhan
bersep
bersepakat
bersepeda
berser
berseru
berseteru
bersi
bersiap
bersifat
bersih
bersik
bersikap
bersikeras
bersim
bersimpati
bersin
bersinar
berskala
berspekulasi
berstatus
bersuara
bersuku
bersumber
bersumpah
bersy
bersyukur
bert
berta
bertab
bertabrakan
bertah
bertahan
bertahap
bertahta
bertahun
bertajuk
bertakhta
bertambah
bertambahnya
bertanding
bertanggung
bertanggungjawab
bertani
bertanya
bertapa
bertaraf
bertarung
bertek
bertekad
bertelur
bertem
bertema
bertemakan
berteman
bertempat
bertempur
bertemu
bertenaga
bertengger
bertengkar
bertentangan
bertepatan
berter
berteriak
berterima
bertetangga
berti
bertiga
bertikai
bertindak
bertingkat
bertiup
bertobat
bertolak
bertr
bertrans
bertu
bertubuh
bertugas
bertujuan
bertukar
bertulis
bertuliskan
bertumbuh
bertumpu
bertunangan
berturut
beruang
berubah
berujung
berukuran
berulang
berumur
berunding
berunt
beruntun
beruntung
berupa
berupaya
berurusan
berurutan
berusaha
berusia
bervari
bervariasi
berw
berwajah
berwarna
berwawasan
berwenang
berwujud
berz
berziarah
bes
besar
besaran
besarnya
beserta
besi
besok
best
bet
beta
betapa
betawi
beth
betina
betis
beton
better
betul
between
bever
bey
beyond
bg
bh
bhakti
bhar
bharat
bhay
bhayangkara
bhik
bhikkhu
bhutan
bi
bia
biak
bian
biang
biar
biara
biarawan
biarawati
biarkan
bias
biasa
biasanya
biaya
bib
bibi
bibinya
bibir
bibit
bible
bibli
bic
bicara
bid
bidadari
bidan
bidang
bidangnya
big
bih
bij
bijak
bijaksana
biji
bijian
bijih
bik
biksu
bil
bila
bilah
bilamana
bilang
bilangan
bilateral
bilbao
bilik
bill
billboard
billy
bim
bima
bimb
bimbingan
bimo
bin
bina
binaan
binatang
bincang
biner
bing
bingkai
bingung
binjai
bint
bintan
bintang
bintara
binti
bintik
bio
biof
biografi
biokimia
biola
biologi
biologis
biom
bioskop
bioteknologi
bip
bir
bird
birmingham
biro
birokrasi
birokrat
biru
bis
bisa
bishop
biskuit
bisma
bisnis
bisnisnya
bisu
bit
biz
bizantium
bj
bk
bl
bla
black
blackberry
blackburn
blair
blambangan
blan
blanc
blang
blank
ble
bless
blitar
block
blog
blogger
blok
blokade
blood
bloom
blora
blu
blue
blues
blueto
bluetooth
bm
bmw
bn
bni
bo
board
boat
bob
bobby
bobo
bobot
boc
bocah
bocor
bod
bodi
bodoh
body
boeing
bog
bogor
boh
bohemia
boj
bojonegoro
bojong
bok
bol
bola
bolaang
bolak
boleh
boles
bolesław
boliv
bolivia
bollywood
bolog
bologna
bolshevik
bolton
bom
bomb
bombay
bomber
bombyli
bombyliidae
bon
bonang
bonaparte
bond
bondowoso
bone
boneka
bong
bongkar
bonjol
bont
bontang
bonus
book
books
boom
boot
bor
bord
bordeaux
boris
borju
borjuis
born
borneo
boro
borobudur
boros
borussia
bos
bosan
bosnia
boss
boston
bot
botak
botani
both
botol
bottom
boul
bour
bourg
bourgogne
bow
box
boy
boyol
boyolali
boys
bp
bpd
bpk
bps
br
bra
brad
bradley
brah
brahma
brahmana
brain
bram
bran
brand
brantas
brasil
brav
bravo
brawijaya
brazil
bre
break
brebes
bremen
brev
bri
brian
brid
bridge
brig
brigade
brigadir
brigjen
brilian
brimob
bris
brit
britain
britan
britania
british
bro
broad
broadband
broadcasting
broadway
brom
bromo
bron
brook
brooklyn
bros
brother
brothers
brow
brown
browser
brt
bruce
brun
brunei
bruno
brussel
brussels
brut
brutal
bruto
bry
bryan
bs
bt
bts
bu
buah
buahan
buahnya
buana
buang
buangan
buas
buat
buatan
buatannya
buaya
bub
bubar
bubuk
bubur
buch
buck
bud
budak
budap
budapest
budaya
budayanya
budayawan
budd
buddh
buddha
buddhis
buddhisme
budha
budi
budidaya
budiman
buenos
buff
bug
bugis
buh
buil
build
building
buj
bujang
bujur
buk
buka
bukan
bukanlah
bukannya
bukhari
bukit
bukittinggi
bukti
buku
bukunya
bul
bulan
bulanan
bulannya
bulat
bulb
bulbophyllum
buleleng
buletin
bulg
bulgaria
bull
bulu
buluh
bulungan
bulus
bum
bumbu
bumi
bumn
bun
bunc
bund
bunda
bundar
bundaran
bundes
bundesliga
bung
bunga
bunganya
bungk
bungkus
bungo
bungsu
bunker
buntu
bunuh
bunyi
bup
bupati
buprestidae
bur
bureau
burg
burger
burhan
burhanuddin
burma
burn
buronan
bursa
burton
buru
buruan
buruh
buruk
buruknya
burung
bus
busa
busan
busana
bush
business
busuk
busur
but
buta
butir
butiran
buton
butter
button
butuh
buwono
buy
buyut
bw
by
byz
c
ca
cab
cabai
cabang
cabe
cac
cacat
cacing
cad
cadang
cadangan
caesar
caf
cafe
cag
cagar
cagli
cagliari
cah
cahaya
cai
cair
cairan
cak
cakap
cakar
cakra
cakram
cakraw
cakrawala
cakung
cakup
cakupan
cal
calcar
calcio
cali
calif
california
call
calon
calvin
cam
camat
camb
cambridge
cambuk
camera
cameron
camp
campaign
campania
campbell
campur
campuran
campus
can
canada
canberra
canc
cancer
cand
candi
candra
candu
candy
canggih
cangk
cangkang
cangkir
cannes
canon
cant
cantik
cao
cap
cape
capit
capital
capitol
car
cara
caranya
carbon
card
cardiff
care
carex
carey
cari
carl
carlo
carlos
carn
carol
carolina
caroline
carr
carter
cas
case
cash
cass
cast
casting
castle
castro
cat
catan
catatan
cath
catherine
cathol
catholic
catur
cav
caw
cawan
cay
cb
cbs
cc
cctv
cd
cdma
ce
cec
ced
cedera
cek
ceko
cekoslowakia
cekungan
cel
celah
celana
celcius
celebr
cell
celsius
celtic
cem
cemara
cemas
cemburu
cemer
cemerlang
cemp
cempaka
cen
cend
cendana
cendekiawan
cender
cenderawasih
cenderung
ceng
cengk
cengkih
cent
center
centr
central
centre
century
ceo
cep
cepat
cepu
cer
cerah
cerai
ceramah
ceramb
cerambyc
cerambycidae
cerdas
cerdik
ceria
cerita
ceritanya
cermat
cermin
cerob
cerpen
ces
cesar
cet
cetak
cetakan
cew
cewek
cf
cg
cgi
ch
cha
chad
chair
chairman
chak
chal
chall
challenge
challenger
cham
chamber
champ
champi
champion
champions
championship
chan
chand
chandra
chang
change
channel
chao
chaos
chap
chaplin
chapter
char
charl
charles
charlie
charlot
charlotte
chart
charter
chat
chavez
che
chech
chechnya
check
chel
chelsea
chem
chemical
chen
cheng
cher
chester
chev
chi
chiang
chic
chicago
chick
chief
chik
chil
child
children
chile
chili
chin
china
chinese
ching
chip
chir
chironom
chironomidae
chlor
cho
choi
choice
chol
chong
chop
chow
chris
christ
christian
christina
christine
christmas
christoph
christopher
chrisye
chron
chrys
chrysoboth
chrysobothris
chu
chun
chung
church
churchill
ci
cia
ciam
ciamis
cian
cianjur
cib
cibu
cic
cid
cig
cih
cij
cik
cikal
cikampek
cikarang
cil
cilacap
cile
cilegon
cilik
cim
cimahi
cin
cina
cinc
cincin
cind
cinder
cindy
cinema
ciner
cint
cinta
cintanya
cip
cipinang
cipta
ciptaan
ciptaannya
ciptakan
cir
circ
circle
cirebon
ciri
cis
cit
cita
citanya
citar
citra
city
ciuman
civ
civil
cl
cla
clar
clara
clark
clarke
clas
class
classic
clath
clathria
claude
claudi
clay
cle
clean
clear
clement
cli
client
cliff
clinton
clo
close
cloud
club
cluster
cm
cn
cnn
co
coach
coast
cob
coba
cobaan
coc
coca
cock
cocok
cod
code
codex
coel
coff
coh
cohen
cok
cokelat
coklat
col
cola
cold
cole
coleoptera
colin
coll
college
collins
colomb
color
colorado
colspan
columbia
columbus
com
come
comeback
comedy
comics
comm
command
commer
commerce
commission
committe
committee
common
commun
communication
communications
community
comp
company
competition
complex
computer
comte
con
conan
conc
cond
condong
conf
conference
cong
conn
connec
connecticut
cons
conserv
constant
constitu
consul
cont
content
contin
contoh
contohnya
contr
control
conv
convention
cook
cool
cooper
cop
copa
copy
cor
corak
cord
core
corn
cornelis
cornell
corong
corp
corpor
corporate
corporation
cos
cosm
cost
costa
cot
coul
coun
counc
council
count
counter
country
county
coup
cour
course
court
cov
cover
cow
cowok
cp
cpu
cr
craig
crazy
cre
creative
credit
cres
cri
crim
crime
cris
cristian
critics
cro
cross
crow
crown
cru
cruz
cry
crystal
cs
ct
cu
cua
cuaca
cub
cuc
cuci
cucu
cucunya
cucur
cucurbit
cucurbitales
cuk
cukai
cukup
cul
cultural
culture
cum
cuma
cumi
cun
cup
cuplikan
cur
curah
curam
curi
curiga
curtis
curug
cust
cut
cuti
cv
cy
cyber
cyc
cyn
cyper
cyperaceae
cyperus
d
da
dab
dac
dad
dada
dadanya
dadi
dae
daend
daendels
daeng
daerah
daerahnya
daftar
dag
dagang
dagangan
daging
dagingnya
dagu
dah
daha
dahan
dahi
dahlan
dahsyat
dahulu
dahulunya
dai
daily
daim
daimyo
dairi
dak
dakwaan
dakwah
dal
dalam
dalamnya
dalang
dalem
dalil
dall
dallas
dam
damai
daman
damar
damaskus
dampak
dampaknya
dan
dana
danau
dance
dand
dang
dangdut
dangkal
dani
daniel
danny
dansa
dap
dapat
dapatkan
dapur
dar
dara
darah
darahnya
darat
daratan
dari
daring
darinya
daripada
darius
dark
darm
darma
darul
darurat
darussalam
darwin
das
dasar
dasarnya
dasawarsa
dash
dat
data
datab
database
datang
datangnya
datar
dataran
date
dato
datu
datuk
daud
daun
daunnya
daur
dav
dave
david
davies
davis
daw
day
daya
dayak
dayang
days
dayung
db
dc
dd
de
dea
dead
deal
dealer
dean
dear
death
deb
debat
debit
debu
debut
debutnya
dec
december
decep
decepticons
ded
deda
dedaunan
deddy
dede
dedikasi
deep
def
defa
default
defense
defensif
definisi
definitif
defisit
deg
degradasi
deh
dehid
dei
dek
dekade
dekan
dekat
dekatnya
deklar
deklarasi
dekorasi
dekret
dekrit
del
delapan
delegasi
delhi
deli
dell
della
delta
dem
demak
demam
demand
demang
demi
demikian
demikianlah
demo
demografi
demokrasi
demokrat
demokratik
demokratis
demonstr
demonstran
demonstrasi
demospongia
demospongiae
den
dend
denda
dendam
dendrobium
deng
denga
dengan
dengannya
dengar
denis
denmark
dennis
denny
denominasi
denp
denpasar
denyut
dep
depan
depannya
depart
departem
departemen
departement
department
depend
depo
depok
depor
deposit
depot
depresi
deputi
der
derajat
deras
derby
derek
deret
deretan
dermaga
dermawan
des
desa
desain
desainer
desakan
desanya
desas
desc
desember
desentralisasi
desi
design
deskripsi
desktop
dest
destin
destinasi
desus
det
detail
detasemen
deteksi
detektif
detektor
deter
determin
detik
detroit
deut
deutsche
dev
develop
developer
development
devi
devil
devisa
dew
dewa
dewan
dewasa
dewata
dewi
dg
dh
dhabi
dham
dhani
dhar
dharm
dharma
di
dia
diab
diabadikan
diabaikan
diabetes
diad
diadakan
diadakannya
diadaptasi
diadili
diadopsi
diag
diagn
diagnosis
diagram
diajak
diajarkan
diajukan
diak
diakhiri
diakibatkan
diakon
diakses
diaktifkan
diaku
diakui
diakuisisi
dial
dialah
dialam
dialami
dialaminya
dialek
dialih
dialihkan
dialirkan
dialog
dialokasikan
diam
diaman
diamati
diambil
diameter
diamond
dian
diana
dianalisis
diancam
diandalkan
dianggap
dianggapnya
diangkat
diangkut
dianjurkan
diant
diantara
diantaranya
dianugerahi
dianugerahkan
dianut
diap
diapit
diaplikasikan
diar
diarah
diarahkan
diare
diartikan
dias
diasingkan
diasosiasikan
diasuh
diasumsikan
diat
diatas
diatasi
diatur
diaw
diawali
diawasi
diaz
dib
dibaca
dibacakan
dibagi
dibagian
dibagikan
dibahas
dibakar
dibalik
dibanding
dibandingkan
dibangkitkan
dibangun
dibangunnya
dibantah
dibantai
dibantu
dibaptis
dibatalkan
dibatasi
dibawa
dibawah
dibawakan
dibawanya
dibayangkan
dibayar
dibayarkan
dibeb
dibebaskan
dibedakan
dibekali
dibekukan
dibel
dibeli
dibenarkan
dibentuk
dibentuklah
dibentuknya
diber
diberangkatkan
diberbagai
diberhentikan
diberi
diberikan
diberitahu
diberitakan
diberkati
diberlakukan
diberlakukannya
dibersihkan
dibesarkan
dibiarkan
dibiayai
dibicarakan
dibidang
dibilang
dibina
dibintangi
dibongkar
dibu
dibuang
dibuat
dibuatkan
dibuatnya
dibubarkan
dibudidayakan
dibuka
dibukanya
dibuktikan
dibungkus
dibunuh
diburu
dibutuhkan
dic
dicabut
dicalonkan
dicampur
dicanangkan
dicantumkan
dicap
dicapai
dicari
dicat
dicatat
dicegah
dicer
diceritakan
dicetak
dicetuskan
dicintai
diciptakan
dicirikan
dick
dicky
dicoba
dictionary
dicuci
diculik
dicuri
dicurigai
did
dida
didaerah
didaftarkan
didahului
didakwa
didalam
didalamnya
didampingi
didanai
didapat
didapati
didapatkan
didasari
didasarkan
didatangi
didatangkan
didedikasikan
didefinisikan
didek
didekati
dideklarasikan
didengar
dideportasi
diderita
dideritanya
dides
didesain
dideskripsikan
dideteksi
didi
didiami
dididik
didik
didirikan
didirikannya
didistribusikan
didominasi
didorong
diduduki
diduga
didukung
didunia
die
diedarkan
diego
dieja
dieks
dieksekusi
diekspor
diem
diemb
dien
dieng
dies
diesel
diet
dievakuasi
dif
diferensi
differ
difilmkan
difokuskan
difungsikan
difusi
dig
digabung
digabungkan
digagalkan
digagas
digali
digambar
digambarkan
diganggu
diganti
digantikan
digantung
digarap
digel
digelar
digemari
diger
digerakkan
digimon
digit
digital
digolongkan
digoreng
digubah
digulingkan
digunakan
digunakannya
dih
dihabiskan
dihadap
dihadapan
dihadapi
dihadapkan
dihadiri
dihadirkan
dihancurkan
dihapus
dihapuskan
dihar
diharapkan
dihargai
diharuskan
dihasilkan
dihentikan
dihiasi
dihidangkan
dihidupkan
dihilangkan
dihimpun
dihind
dihindari
dihitung
dihormati
dihubungkan
dihukum
dihuni
diidentifikasi
diijinkan
diikat
diikut
diikuti
diikutsertakan
diilhami
diimp
diimplementasikan
diimpor
diin
diind
diing
diingat
diinginkan
diinter
diiringi
diisi
diisolasi
diizinkan
dij
dijabarkan
dijabat
dijadikan
dijadwalkan
dijaga
dijalan
dijalani
dijalankan
dijamin
dijangkau
dijanjikan
dijarah
dijatuhi
dijatuhkan
dijawab
dijelaskan
dijual
dijuluki
dijumpai
dik
dika
dikabarkan
dikabulkan
dikagumi
dikaitkan
dikaji
dikalahkan
dikalangan
dikan
dikandung
dikar
dikarang
dikarenakan
dikaruniai
dikat
dikatakan
dikategorikan
dikawal
dikebumikan
dikec
dikeh
dikehendaki
dikej
dikejar
dikel
dikelilingi
dikelola
dikelompokkan
dikeluarkan
dikeluarkannya
dikem
dikemas
dikembalikan
dikembangkan
dikemudian
dikemukakan
diken
dikenai
dikenakan
dikenal
dikenali
dikenalkan
dikenang
dikend
dikendalikan
dikepalai
dikepung
diker
dikerahkan
dikeringkan
dikerjakan
diket
diketahui
diketemukan
diketuai
dikhawatirkan
dikhianati
dikhususkan
dikira
dikirim
dikirimkan
dikisahkan
diklaim
diklasifikasikan
diklat
dikombinasikan
dikomp
dikon
dikonfirmasi
dikons
dikonsumsi
dikontrak
dikontrol
dikonversi
dikor
dikritik
diktator
dikti
dikuasai
dikubur
dikuburkan
dikuc
dikukuhkan
dikumpulkan
dikunjungi
dikur
dikurangi
dikutip
dikutuk
dil
dilacak
dilah
dilahirkan
dilaksanakan
dilakukan
dilakukannya
dilalui
dilambangkan
dilancarkan
dilanda
dilanggar
dilangsungkan
dilanjutkan
dilantik
dilapisi
dilaporkan
dilarang
dilarikan
dilatarbelakangi
dilatih
dilayani
dilema
dilempar
dilemparkan
dilengkapi
dilepas
dilepaskan
dilestarikan
diletakkan
dilewati
dili
dilibatkan
dilihat
dilindungi
dilingk
dilintasi
dilip
dilipat
diluar
dilukis
dilukiskan
diluncurkan
dilupakan
dim
dimahkotai
dimainkan
dimak
dimakamkan
dimakan
dimaksud
dimaksudkan
diman
dimana
dimanfaatkan
dimas
dimasa
dimasak
dimasukan
dimasukkan
dimekarkan
dimenangkan
dimengerti
dimensi
dimiliki
dimilikinya
diminati
diminta
diminum
dimodifikasi
dimuat
dimulai
dimulainya
dimunculkan
dimungkinkan
dimusnahkan
din
dina
dinaikkan
dinam
dinamai
dinamakan
dinamika
dinamis
dinamo
dinar
dinas
dinasti
dinda
dinding
ding
dingin
dini
dinik
dinikahi
dinikmati
dinilai
dinobatkan
dinominasikan
dinonaktifkan
dinosaurus
diny
dinyalakan
dinyanyikan
dinyatakan
dio
diob
diobati
dioksida
diolah
dion
dioperasikan
dip
dipad
dipadamkan
dipadukan
dipahami
dipajang
dipak
dipakai
dipaksa
dipamerkan
dipan
dipanaskan
dipancarkan
dipandang
dipandu
dipanen
dipanggang
dipanggil
dipaparkan
dipas
dipasang
dipasangkan
dipasarkan
dipastikan
dipat
dipati
dipec
dipecah
dipecahkan
dipecat
dipegang
dipekerjakan
dipelajari
dipelihara
dipelopori
dipengaruhi
dipenj
dipenjara
dipenjarakan
dipentaskan
dipenuhi
diper
diperankan
diperb
diperbaharui
diperbaiki
diperbarui
diperbolehkan
dipercaya
dipercayai
dipercayakan
dipercepat
diperd
diperdagangkan
diperdebatkan
diperebutkan
dipergunakan
diperhatikan
diperhitungkan
diperiksa
dipering
diperingati
diperintah
diperintahkan
diperk
diperkenalkan
diperkenankan
diperkirakan
diperkosa
diperkuat
diperl
diperlakukan
diperlihatkan
diperluas
diperlukan
diperoleh
diperolehnya
diperpanjang
dipers
dipersembahkan
dipersenjatai
dipersiapkan
dipert
dipertahankan
dipertandingkan
dipertanyakan
dipertemukan
dipertimbangkan
diperuntukkan
dipesan
dipicu
dipilih
dipimpin
dipimpinnya
dipindah
dipindahkan
dipinjam
dipinjamkan
dipisahkan
diplom
diploma
diplomasi
diplomat
diplomatik
dipo
diponegoro
dipopulerkan
dipotong
diprakarsai
dipraktikkan
diprediksi
diproduksi
diproduseri
diproklam
dipromosikan
diproses
diproyeksikan
diptera
dipublikasikan
dipuja
dipuji
dipukul
dipukuli
dipulihkan
dipungut
dipus
dipusatkan
diputar
diputuskan
dir
diragukan
dirahasiakan
diraih
diraihnya
dirampas
dirancang
dirasa
dirasakan
dirawat
dirayakan
dire
direbus
direbut
direct
director
direk
direkam
direkomendasikan
direkrut
direksi
direktorat
direktori
direktur
direncanakan
direndam
direnovasi
direp
dires
diresmikan
direvisi
dirg
dirgantara
diri
dirilis
dirimu
dirintis
dirinya
diriwayatkan
dirjen
dirk
dirujuk
dirumah
dirumuskan
dirusak
dis
disaat
disadari
disahkan
disajikan
disaksikan
disalah
disalib
disalurkan
disamakan
disambut
disampaikan
disamping
disana
disandang
disangka
disapa
disarankan
disaring
disatukan
disc
disco
discovery
dise
diseb
disebabkan
disebar
disebarkan
disebelah
disebuah
disebut
disebutkan
disebutnya
dised
disediakan
disegani
disek
disekitar
disekitarnya
disel
diselamatkan
diselenggarakan
diselesaikan
diselidiki
diselingi
diseluruh
disem
disembah
disembuhkan
disembunyikan
disempurnakan
disen
disengaja
disep
disepakati
diser
diserah
diserahkan
diserang
diserap
diserbu
disertai
disertakan
disertasi
disesuaikan
diset
disetiap
disetujui
disewa
disi
disiapkan
disiarkan
disiksa
disimp
disimpan
disimpulkan
disin
disingkat
disingkirkan
disini
disiplin
disisi
disita
disitu
disk
diskriminasi
diskusi
disney
disp
display
disponsori
dist
distorsi
distr
distribusi
distributor
district
distrik
disuarakan
disukai
disumbangkan
disunting
disuruh
disusul
disusun
disutradarai
dit
dita
ditafsirkan
ditahan
ditahbiskan
ditahun
ditak
ditakdirkan
ditaklukkan
ditakuti
ditambah
ditambahkan
ditampilkan
ditampung
ditanam
ditanami
ditand
ditandai
ditandatangani
ditangani
ditanggapi
ditangguhkan
ditanggung
ditangkap
ditanya
ditargetkan
ditarik
ditaruh
ditata
ditaw
ditawan
ditawari
ditawarkan
ditayangkan
ditebang
diteg
ditegakkan
ditegaskan
ditekan
ditekankan
ditel
ditelan
diteliti
ditelusuri
ditem
ditemani
ditemb
ditembak
ditembakkan
ditempat
ditempati
ditempatkan
ditempuh
ditemui
ditemukan
ditemukannya
ditengah
ditentang
ditentukan
diter
diterapkan
diterbangkan
diterbitkan
diterima
diterimanya
diterjemahkan
diteruskan
ditetapkan
diti
ditiadakan
ditimbulkan
ditinggal
ditinggalkan
ditingkatkan
ditinjau
ditiru
ditjen
ditolak
ditolong
ditonton
ditopang
ditrans
ditransfer
ditu
dituangkan
ditud
dituduh
ditug
ditugaskan
dituju
ditujukan
ditukar
ditul
ditularkan
ditulis
dituliskan
ditulisnya
ditum
ditumbuhi
ditump
ditunda
ditunjang
ditunjuk
ditunjukkan
dituntut
ditur
diturunkan
ditutup
ditutupi
dituturkan
diubah
diucapkan
diuji
diukir
diukur
diulang
diumumkan
diund
diundang
diunduh
diungkapkan
diur
diuraikan
diurus
diurutkan
dius
diusahakan
diusir
diusulkan
diusung
diut
diutamakan
diutus
div
diva
divisi
division
divonis
diw
diwajibkan
diwak
diwakili
diwar
diwarisi
diwariskan
diwarnai
diwawancarai
diwujudkan
diy
diyakini
dj
dja
djarum
djo
djoko
dju
dk
dki
dkk
dkp
dkpbb
dl
dll
dm
dn
dna
do
doa
dob
doc
doctor
document
dod
doel
dog
dogma
dok
dokter
doktor
doktrin
dokumen
dokumentasi
dokumenter
dol
dolar
dollar
dolok
dom
domain
domba
dome
domest
domestik
domin
dominan
dominasi
domini
dominika
dompet
don
donal
donald
donasi
donau
dong
dongeng
donggala
doni
donna
donny
dono
donor
door
dop
dor
dora
doraemon
dorong
dorongan
dort
dortmund
dos
dosa
dosen
dosis
dot
dou
double
doug
douglas
dow
down
download
dp
dpd
dpl
dpp
dpr
dprd
dr
dra
draf
draft
drag
dragon
drain
drainase
drama
dramatis
drastis
dream
dri
drive
driver
drop
drs
drug
drum
drummer
ds
dsb
dst
dt
du
dua
dual
dualisme
duanya
dub
dubai
dublin
duc
dud
duduk
duel
duet
dugaan
duk
duka
duke
dukuh
dukun
dukungan
dukungannya
dul
dulu
dulunya
dum
dumai
dumb
dumbledore
dun
dunia
dunianya
duniawi
duo
dup
dur
durasi
duren
duri
durian
duryod
duryodana
dus
dusun
dut
duta
dutch
duyung
dv
dvd
dw
dwi
dy
dyah
dynam
dz
dzul
e
eag
ear
earl
early
earth
eas
east
eastern
easy
eb
ec
eceran
ech
econom
economic
economics
ed
eddie
eddy
eden
edgar
edge
edi
edin
edinburgh
edisi
edison
edition
editor
editorial
edmund
edo
eduar
eduardo
educ
education
eduk
edukasi
edward
edwin
ef
efek
efeknya
efektif
efektivitas
efesus
eff
effendi
efisi
efisien
efisiensi
eg
ego
egois
eh
ein
einstein
eis
ej
ejaan
ejekan
ek
eka
ekaristi
eko
ekologi
ekologis
ekonom
ekonomi
ekonominya
ekonomis
ekor
ekornya
ekosistem
eks
eksek
eksekusi
eksekutif
eksemplar
eksentr
eksentrisitas
eksis
eksistensi
eksklusif
eksp
ekspansi
ekspedisi
eksper
eksperimen
eksperimental
eksplisit
eksploitasi
eksplorasi
ekspor
ekspres
ekspresi
ekstensi
ekstensif
eksternal
ekstr
ekstra
ekstrak
ekstrakurikuler
ekstrem
ekstrim
eku
ekuador
el
elang
ele
elec
electr
electric
electron
electronic
elegan
elek
elektor
elektr
elektrik
elektro
elektrom
elektromagnetik
elektron
elektronik
elektronika
elemen
elf
eli
elis
elisabeth
elit
elite
elizabeth
elli
ellie
ellis
elvis
em
email
eman
emansipasi
emas
emb
embar
embargo
embrio
emerg
emil
emile
emily
emir
emirat
emisi
emma
emmanuel
emmy
emosi
emosional
emp
empat
empedu
emper
empir
empire
empiris
empl
empu
en
enak
enam
enc
encyc
encyclopedia
end
endang
endapan
ende
endemik
ener
energi
energy
eng
enggan
engine
engineer
engineering
engkau
england
english
enim
ensik
ensiklik
ensiklopedia
ent
entah
enter
enterprise
entertainment
entitas
entr
entrepr
entri
envir
environment
enzim
ep
eparki
epic
epid
epidemi
epik
epil
epis
episkopal
episod
episode
eq
equ
er
era
erat
eri
eric
erica
ericaceae
ericales
erick
ericsson
erik
eritr
ern
ernest
ernst
erop
eropa
erosi
error
erwin
ery
es
esa
esai
esc
eselon
esensi
esensial
esk
esok
esp
esper
ess
est
estate
ester
estetika
estimasi
estonia
estr
et
etan
etanol
eth
ethi
ethiopia
eti
etienne
etik
etika
etim
etimologi
etis
etn
etnik
etnis
eu
eud
euf
eug
eugene
eugenia
euk
eun
eup
eur
eurasia
euro
europ
europa
europe
european
eurovision
eus
euseb
eut
ev
eva
evakuasi
evaluasi
evan
evang
evangel
evans
even
event
ever
everton
every
evol
evolusi
evolution
ew
ex
exc
excel
excell
exchange
exec
executive
exoprosopa
exp
exper
experience
expl
explorer
expo
express
ext
extr
extra
ey
eyang
eye
eyes
ez
f
f1
fa
fab
fabaceae
fabales
fac
face
facebook
fach
facto
factor
fad
fadil
fah
fahri
fai
fair
faisal
faith
fajar
fak
faksi
fakta
faktanya
faktor
fakul
fakultas
fal
fall
fals
falsa
falsafah
fam
fame
famili
familia
familiar
family
fan
fana
fanatik
fang
fans
fant
fantas
fantasi
fantasy
faqih
far
fara
farah
fari
farid
fariz
farm
farmasi
fas
fasa
fase
fashi
fashion
fasih
fasil
fasilitas
fasis
fasisme
fast
fat
fatah
fatal
fath
father
fatih
fatimah
fatwa
fau
fauna
fauzi
fav
favorit
favoritnya
faw
fay
fbi
fc
fe
feature
feb
febr
februari
february
fed
feder
federal
federasi
federation
feed
feel
fei
fel
felipe
felix
fellow
fem
femin
feminis
feminisme
fen
feng
fenom
fenomena
fenomenal
feod
feodal
fer
ferdin
ferdinand
fergus
ferguson
feri
fermentasi
fernand
fernandez
fernando
ferr
ferrari
ferry
fes
festival
fey
ff
ffi
fh
fi
fia
fib
fiber
fic
fid
fidel
field
fif
fifa
fig
figh
figur
fiji
fik
fikih
fiksi
fiktif
fil
file
files
filip
filipina
filipus
film
filmfare
filmnya
films
filosof
filosofi
filosofis
filsafat
filsuf
filter
filum
fin
final
finalis
finan
financ
finance
financial
finansial
find
fine
finis
finish
finlandia
finn
fior
fiorentina
fiqih
fir
fira
firaun
firda
fire
firef
firma
firman
first
fis
fish
fisher
fisi
fisik
fisika
fisikawan
fisiknya
fisiologi
fisiologis
fisip
fiskal
fit
fitnah
fitri
fitur
five
fix
fk
fl
flag
flam
fland
flandria
flash
flat
flav
fle
fleksi
fleksibel
fleksibilitas
flet
fletcher
flex
flight
flo
flor
flora
florence
flores
florida
flow
flu
fluida
fluk
fluor
fly
flying
fm
fn
fo
focus
fog
fok
fokker
fokus
fol
foll
follow
fon
fond
fondasi
fonem
font
food
foot
football
for
forbes
force
ford
fore
foreign
forensik
forest
form
formal
formasi
format
formula
formulasi
formulir
fort
fortune
forum
forward
fos
fosfat
fosfor
fosil
foster
fot
foto
fotografer
fotografi
foton
fotosintesis
found
foundation
four
fox
fp
fr
fra
frag
fragmen
fraksi
fram
frame
fran
franc
france
francesco
franch
franchise
francis
francisco
franco
francois
frank
franka
frankfurt
franklin
frans
fransis
fransiskus
franz
frasa
frase
fre
fred
freder
frederick
free
freedom
frekuensi
fren
french
frequ
fresh
fret
freud
frey
fri
fried
friedrich
friend
friends
from
fron
front
frustrasi
fs
ft
fu
fuad
fuj
fuji
fujian
fuk
fuku
fukuoka
ful
fulham
full
fun
fund
fundam
fundament
fundamental
fung
fungsi
fungsinya
fungsional
fur
furni
fus
fusi
fut
futsal
future
g
ga
gab
gabriel
gabungan
gad
gadang
gading
gadis
gadjah
gag
gaga
gagah
gagak
gagal
gagang
gagasan
gagasannya
gai
gaib
gain
gairah
gaj
gajah
gaji
gak
gal
gala
galak
galaksi
galang
galangan
galat
galaxy
galeri
gali
galian
galil
galilea
galileo
gall
gallery
galuh
gam
gama
gamb
gambar
gambaran
gambarnya
gambir
gambut
game
gamelan
games
gamma
gamp
gampong
gan
ganas
gand
ganda
gandhi
gandum
gang
gangg
gangguan
gani
ganj
ganja
ganjil
gant
ganti
gantinya
gantung
gao
gap
gapura
gar
gara
garam
garapan
garasi
garcia
gard
garda
garden
gardu
garis
garnis
garnisun
garuda
garut
gary
gas
gat
gatal
gate
gates
gatot
gaul
gaun
gautama
gawang
gay
gaya
gayanya
gayo
gaz
gaza
gb
gd
ge
gear
geb
gebang
ged
gede
gedong
gedung
geg
geger
gej
gejala
gejolak
gel
gelandang
gelang
gelanggang
gelap
gelar
gelaran
gelarnya
gelas
gelembung
gelisah
gelombang
gelora
gem
gema
gemar
gemb
gembala
gembira
geme
gemeente
gemilang
gemp
gempa
gempol
gemuk
gen
genangan
genap
genc
gencar
gencatan
gend
gendang
gender
gene
gener
general
generasi
generation
generator
generik
genesis
genetik
genetika
geng
genggam
genius
genoa
genom
genosida
genre
gent
genta
genteng
gentian
gentianales
genting
genus
geoff
geofisika
geografi
geografis
geologi
geomet
geometri
geor
georg
george
georges
georgia
geos
ger
gerai
gerak
gerakan
gerakannya
gerard
gerbang
gerbong
gerej
gereja
gerejawi
gerhana
gerilya
gerilyawan
gerindra
germain
german
gerobak
gerombolan
ges
gesekan
get
getah
getaran
gh
gha
ghana
ghost
gi
gian
giant
gianyar
giat
gib
gibral
gibraltar
gibson
gie
gig
gigi
gigih
gigitan
gil
gila
gilang
gilbert
giliran
gilirannya
gill
gim
gin
ginj
ginjal
giok
gior
giovan
giovanni
gip
gir
giri
girl
girls
gis
gita
gitar
gitaris
giusep
giuseppe
giv
give
gizi
gk
gl
gla
gladi
glam
glas
glasgow
glass
glee
glen
glenea
glenn
gletser
gli
glik
glo
glob
global
globalisasi
globe
gloria
gluk
glukosa
glut
gm
gn
gnu
go
goa
goal
gob
god
goes
gog
gogh
goguryeo
going
gok
goku
gol
gold
golden
golf
golkar
golongan
gom
gomez
gon
gond
gondang
gong
gonzalez
good
google
gor
gord
gordon
goreng
goresan
gorontalo
gory
goryeo
gos
gosip
gosp
gospel
got
goth
gotong
gov
govern
government
gowa
goyang
gp
gps
gr
gra
grac
grace
graf
grafik
grafis
graha
graham
gram
gramedia
grammy
gran
granada
granat
grand
grande
grant
graph
grass
gratis
grav
gravitasi
gray
gre
great
green
greenland
greg
gregor
gregori
gregorian
gregorius
gregory
gren
gresik
grey
gri
griff
grim
gro
grob
grobogan
grogol
gron
gros
grosir
gross
ground
group
grow
grup
gs
gsm
gt
gu
gua
guad
guadal
guadalkan
guadalkanal
guan
guang
guangdong
guangzhou
guar
guard
guardian
guatem
guatemala
gub
gubern
gubernur
gubuk
guci
gud
gudang
guest
gug
gugatan
gugur
gugus
gugusan
gui
guide
guild
guill
guilla
guinea
guitar
guj
gujarat
gul
gula
gulat
gulung
gulungan
gum
gumpalan
gun
guna
gunakan
gunawan
gunc
guncangan
gund
gundam
gundukan
gundul
gunting
guntur
gunung
guo
gur
gurih
gurita
guru
gurun
gurunya
gus
gustav
gusti
gut
guy
gw
gy
gyeong
gym
h
ha
haag
hab
haber
habib
habibie
habis
habisan
habit
habitat
habitatnya
habsburg
hack
had
hadapan
hadapi
hadi
hadiah
hadir
hadirin
hadirnya
hadis
hadits
haf
hafiz
hag
hai
hair
haiti
haj
hajar
haji
hak
hakikat
hakikatnya
hakim
haknya
hal
halal
halaman
halamannya
halangan
half
hali
halich
halim
hall
halmah
halmahera
halnya
halo
halte
haluan
halus
ham
hama
hamas
hamb
hamba
hambatan
hamburg
hamengku
hamengkubuwono
hamid
hamil
hamilton
hamka
hamp
hampa
hamparan
hampir
hamzah
han
hana
hanafi
hancur
hand
handal
handphone
hang
hangat
hangul
hank
hann
hans
hant
hantu
hanung
hanura
hany
hanya
hanyalah
hanzi
hap
happ
happy
har
hara
harafiah
harahap
haram
harap
harapan
harbor
hard
hardware
harfiah
harga
harganya
hari
harian
harimau
harinya
haris
harm
harmoni
harmonis
harold
harper
harris
harrison
harry
hart
harta
hartono
haru
harum
harun
harus
haruslah
harv
harvard
harvey
haryono
has
hasan
hasanuddin
hash
hasil
hasilnya
hasrat
hass
hassan
hast
hasyim
hat
hati
hatinya
hatta
haus
hav
havana
have
haw
hawa
hawai
hawaii
hay
hayam
hayat
hayati
hayatnya
haz
hb
hbo
hc
hd
he
hea
head
health
heart
heaven
heavy
heb
hebat
hebr
hed
hee
heg
hegemoni
heid
hein
heinrich
heks
hektar
hektare
hel
helai
helen
helena
heli
helik
helikopter
helium
hell
hello
helm
help
helsin
helsinki
hem
hemat
hen
hend
hendak
hendaknya
hendra
hendrik
heng
hengk
hengkang
henri
henry
hent
henti
hep
hepat
hepatitis
her
herak
herald
heran
herb
herbal
herbert
herbivora
hercul
hercules
here
herge
heri
heritage
herm
herman
hermann
hermi
hermione
hern
hernand
hero
herodes
heroik
heru
herz
herzegovina
hes
het
heter
heterogen
hew
hewan
hex
hey
hi
hias
hiasan
hib
hibah
hibrida
hiburan
hid
hidangan
hidayat
hidayatullah
hidey
hideyoshi
hidr
hidro
hidrogen
hidrokarbon
hidroksida
hidung
hidup
hidupnya
hier
hierarki
hig
high
hij
hijau
hijrah
hijri
hijriah
hijriyah
hik
hikayat
hikmah
hikmat
hil
hilal
hilang
hilangnya
hilir
hill
hills
hilton
him
himalaya
himpunan
hin
hind
hindi
hindia
hindu
hingga
hip
hiper
hipertensi
hipn
hipot
hipotesis
hipp
hir
hiroshima
his
hispan
histor
historis
history
hit
hitam
hitler
hits
hitung
hitungan
hiu
hiv
hiz
hj
hk
hkbp
hm
hmi
hms
ho
hoa
hob
hobi
hoc
hod
hof
hoff
hog
hogwarts
hoh
hok
hoki
hokkaido
hol
holding
holdings
holland
hollow
holly
hollywood
holmes
holocaust
holy
hom
home
homo
homogen
homoseksual
hon
hond
honda
honduras
honey
hong
hongaria
hongkong
honor
hook
hop
hope
hor
hori
horis
horisontal
horiz
horizon
horizontal
horm
hormat
hormon
horn
horor
hos
hosp
hospital
host
hot
hotel
hotspur
hour
hous
house
houston
how
howard
hp
hr
hs
htm
html
htt
http
https
hu
hua
huang
hub
hubungan
hubungannya
hud
huda
hudson
hugh
hughes
hugo
hui
hujan
hukum
hukuman
hukumnya
hul
hull
hulu
hum
human
humani
humanis
humas
humor
hun
hung
hungaria
huni
hunian
hunt
hunter
hunting
hur
huru
huruf
hus
husain
husein
huss
hussein
hut
huta
hutan
hutang
hw
hy
hyang
hybrid
hyd
hymed
hymedesmia
hyp
hyper
hyun
hyundai
i
ia
iain
ialah
ian
ib
ibadah
ibadat
iberia
iblis
ibm
ibn
ibnu
ibrahim
ibrani
ibtid
ibtidaiyah
ibu
ibukota
ibunda
ibundanya
ibunya
ic
ice
ich
ichigo
icon
id
ida
ide
ideal
idealisme
iden
identifikasi
identik
identitas
identitasnya
idenya
ideologi
ideologis
idi
idol
idola
idris
idrus
idul
ie
ieyasu
if
ig
ign
ignatius
ih
ii
iii
ij
ijazah
ijin
ik
ika
ikan
ikat
ikatan
ikh
ikhlas
ikhwan
ikip
iklan
iklim
ikon
ikut
ikuti
il
ilah
ilahi
ile
ilegal
ilham
ili
ilir
ill
illinois
ilm
ilmi
ilmiah
ilmu
ilmunya
ilmuwan
ilusi
ilustrasi
ilyas
im
imag
image
imaj
imajinasi
imam
imamat
iman
imb
imbalan
imbang
imf
imigran
imigrasi
imlek
imm
imp
impati
impatiens
imper
imperi
imperial
imperialisme
imperium
impian
impiannya
impl
implement
implementasi
implikasi
impor
impresi
improv
impul
imran
imun
in
ina
inang
inap
inc
inci
ind
indah
indeks
independ
independen
independent
index
india
indian
indiana
indie
indikasi
indikator
indische
individ
individu
individual
indo
indom
indon
indonesia
indonesian
indosat
indosi
indosiar
indr
indra
indragiri
indramayu
induk
induknya
induksi
industr
industri
industrial
industrialisasi
industries
industry
indy
inf
infan
infanteri
infantri
infeksi
infin
inflasi
influ
influenza
info
inform
informal
informasi
informatika
information
inframerah
infras
infrastruktur
ing
ingat
ingatan
ingg
inggris
ingin
inginkan
ini
inilah
inipun
inisi
inisiatif
initi
inj
injeksi
injil
injili
ink
inka
inklusif
inkub
inn
inov
inovasi
inovatif
inpres
input
ins
insan
insecta
insentif
inside
insiden
insinyur
inskripsi
insp
inspeksi
inspektur
inspir
inspirasi
inst
instal
instalasi
instan
instansi
insting
institu
institusi
institut
institute
instr
instruksi
instruktur
instrumen
instrument
instrumental
insulin
int
intan
integ
integr
integral
integrasi
integritas
intel
intelek
intelektual
intelijen
intellig
intelligence
intens
intensif
intensitas
inter
interaksi
interaktif
interface
interim
interior
interm
intern
internal
internasional
international
internet
interpretasi
interval
intervensi
inti
intim
intinya
into
intr
intra
intrik
intu
inv
invasi
invent
invest
investasi
investig
investigasi
investment
investor
io
ion
ip
ipa
ipar
iparnya
ipb
iphone
ipm
ips
iq
iqbal
ir
ira
irak
irama
iran
iraq
irawan
irc
irene
irfan
iri
irian
irig
irigasi
iring
iringan
iris
irisan
irjen
irlandia
iron
ironis
ironisnya
irwan
is
isa
isaac
isabel
isabella
isbn
ish
ishak
ishaq
isi
isinya
isis
isk
iskand
iskandar
isl
islam
islami
islamic
islamiyah
island
islandia
ism
isma
ismail
iso
isolasi
isotop
isra
israel
iss
issu
ist
istan
istana
istananya
istanbul
isteri
isterinya
isti
istiadat
istilah
istimewa
istiq
istiqlal
istirahat
istr
istri
istrinya
istvan
isu
isyarat
it
ita
itachi
itali
italia
itb
item
itik
ito
its
itu
itulah
itunes
itupun
iv
ivan
iw
iwan
ix
iz
izin
j
ja
jab
jabar
jabatan
jabatannya
jabodetabek
jac
jack
jackie
jackson
jacob
jacques
jad
jadi
jadikan
jadwal
jae
jag
jaga
jagat
jago
jagoan
jagung
jah
jahat
jahe
jai
jain
jaj
jajahan
jajak
jajanan
jajaran
jak
jaka
jakarta
jaket
jakob
jaksa
jal
jala
jalal
jalan
jalanan
jalannya
jalil
jalur
jam
jama
jamaah
jamaika
jamak
jamal
jamb
jambi
jambu
james
jami
jamie
jamil
jaminan
jamu
jamuan
jamur
jan
janda
jane
janeiro
jang
jangan
janganlah
jangk
jangka
jangkar
jangkauan
janin
janj
janji
janjinya
jans
jantan
jantung
januari
january
jap
japan
japanese
jar
jarak
jaraknya
jarang
jari
jaring
jaringan
jarum
jas
jasa
jasad
jasadnya
jasanya
jasmani
jason
jat
jatah
jateng
jati
jatim
jatin
jatinegara
jatuh
jatuhnya
jauh
jauhnya
java
javas
jaw
jawa
jawab
jawaban
jawabannya
jawabnya
jawatan
jawi
jay
jaya
jayapura
jaz
jazirah
jazz
je
jean
jeb
jebakan
jed
jeda
jeddah
jef
jeff
jefferson
jeffrey
jej
jejak
jejaring
jel
jelajah
jelas
jelata
jelek
jelly
jem
jema
jemaah
jemaat
jemb
jembatan
jember
jembrana
jemp
jen
jena
jenazah
jenazahnya
jend
jendela
jender
jenderal
jendral
jenewa
jeng
jengk
jenis
jenisnya
jenius
jenjang
jennifer
jenuh
jeong
jep
jepang
jepara
jer
jerami
jeremy
jerman
jernih
jerry
jersey
jeruk
jerusalem
jes
jessica
jesus
jet
jew
jh
ji
jia
jian
jiang
jib
jihad
jik
jika
jikalau
jil
jilbab
jilid
jim
jimat
jimmy
jin
jinak
jing
jingga
jip
jir
jitu
jiwa
jiwanya
jk
jkt48
jl
jln
jo
joan
job
jobs
jodoh
joe
joel
jog
jogja
jogjakarta
joh
johan
johann
johannes
johannesburg
johar
john
johnny
johnson
johor
joint
jok
joko
jokowi
jol
jombang
jon
jonas
jonathan
jones
jong
jor
jordan
jorge
jorong
jos
jose
josef
joseon
joseph
josh
joshua
journ
journal
journey
joy
jp
jpg
jr
jt
ju
jual
juan
juanda
juang
juara
jubah
jud
judi
judul
judulnya
jug
juga
juj
jujur
jul
juli
julia
julian
julie
julio
julius
julukan
july
jum
jumat
jumlah
jumlahnya
jump
jumpa
jun
junc
june
jung
juni
junior
juniornya
junta
jupiter
jur
jurang
juri
jurn
jurnal
jurnalis
jurnalisme
jurnalistik
juru
jurus
jurusan
jus
just
justice
justin
justru
jusuf
juta
jutaan
juven
juventus
juz
jw
k
ka
kab
kabar
kabarnya
kabel
kabilah
kabin
kabinet
kabu
kabul
kabupaten
kabur
kabut
kac
kaca
kacamata
kacang
kacangan
kacau
kad
kadal
kadang
kadar
kader
kades
kadi
kadipaten
kadir
kaf
kafe
kafilah
kafir
kag
kaget
kagum
kah
kai
kaidah
kain
kairo
kais
kaisar
kait
kaitan
kaitannya
kaj
kajian
kak
kaka
kakak
kakaknya
kakan
kakao
kakap
kakashi
kakawin
kakek
kakeknya
kaki
kakinya
kaku
kal
kala
kalah
kalam
kalangan
kalau
kalbar
kalender
kaleng
kali
kalian
kalib
kaliber
kaligrafi
kalijaga
kalim
kalimantan
kalimat
kalinya
kalium
kalk
kalla
kalori
kalsel
kalsium
kaltim
kalung
kam
kamal
kamar
kamarnya
kamb
kambing
kamboja
kamen
kamer
kamera
kamerun
kami
kamil
kamila
kamis
kamp
kampanye
kampanyenya
kampar
kampung
kampungnya
kampus
kamu
kamus
kan
kana
kanaan
kanada
kanak
kanal
kanan
kanannya
kanc
kancah
kand
kandang
kandangnya
kandas
kandidat
kandung
kandungan
kandungnya
kang
kanj
kanjeng
kanji
kank
kanker
kann
kanon
kanonik
kans
kansas
kanselir
kant
kantin
kanton
kantong
kantor
kantornya
kantung
kanvas
kaos
kap
kapak
kapal
kapalnya
kapan
kapas
kapasitas
kapasitasnya
kapel
kapit
kapita
kapital
kapitalis
kapitalisme
kapol
kapolda
kapolri
kapoor
kapsul
kapten
kapuas
kapur
kar
kara
karaeng
karakter
karakteristik
karakternya
karam
karang
karangan
karanganyar
karangasem
karantina
karaoke
karat
karate
karawang
karb
karbohidrat
karbon
karbonat
kard
kardi
kardinal
karel
karen
karena
karenanya
karesidenan
karet
kargo
kari
karib
karibia
karier
kariernya
karikat
karim
karimun
karirnya
karismatik
karl
karma
karn
karna
karnaval
karno
karo
karpet
kart
karta
kartanegara
kartas
kartika
kartini
kartu
kartun
karun
karung
karunia
karya
karyanya
karyawan
kas
kasad
kasar
kasat
kaset
kash
kashmir
kasi
kasih
kasihan
kasim
kasino
kast
kasta
kastil
kastilia
kasur
kasus
kat
kata
katak
katakan
katalis
katalog
katanya
kate
katedral
kategori
katek
kath
katholik
katie
katolik
katup
kau
kauk
kaukasus
kaum
kauman
kaur
kaus
kav
kaval
kavaleri
kaw
kawah
kawan
kawanan
kawannya
kawasaki
kawasan
kawat
kawi
kawin
kay
kaya
kayu
kaz
kazakh
kazakhstan
kb
kbri
kbs
kc
kd
ke
keab
keabadian
keabs
keabsahan
keadaan
keadaannya
keadilan
keag
keagamaan
keagungan
keahlian
keahliannya
keajaiban
keamanan
kean
keanekaragaman
keangg
keanggotaan
kearah
kearifan
keas
keaslian
keatas
keb
kebahagiaan
kebaikan
kebajikan
kebakaran
kebaktian
kebal
kebalikan
kebanggaan
kebangkitan
kebangkrutan
kebangs
kebangsaan
kebanyakan
kebaya
kebayoran
kebebasan
kebenaran
kebenarannya
kebenc
kebencian
keber
keberadaan
keberadaannya
keberagaman
keberangkatan
keberanian
keberatan
keberh
keberhasil
keberhasilan
keberhasilannya
keberl
keberlangsungan
keberlanjutan
kebers
kebersamaan
kebersihan
keberuntungan
kebesaran
kebetulan
kebi
kebiasaan
kebij
kebijakan
kebijakannya
kebijaksanaan
kebing
kebingungan
kebis
kebo
kebocoran
kebohongan
kebon
kebu
kebudayaan
kebugaran
kebumen
kebun
kebutuhan
kec
kecakapan
kecaman
kecamatan
kecanduan
kecantikan
kecap
kecelakaan
kecemasan
kecenderungan
kecepatan
kecerd
kecerdasan
kecewa
kecil
kecilnya
kecintaan
kecoklatan
kecuali
kecurangan
kecurigaan
ked
keda
kedah
kedai
kedalam
kedalaman
kedamaian
kedatangan
kedatangannya
kedaul
kedaulatan
kedekatan
kedelai
kedelapan
kedepan
kediaman
kediamannya
kedik
kediktator
kediktatoran
kediri
kedok
kedokteran
kedu
kedua
keduanya
kedudukan
kedudukannya
kedung
keduta
kedutaan
keemasan
keempat
keempatnya
keenam
keep
kees
keesokan
keg
kegagalan
kegelapan
kegem
kegemaran
kegemb
kegembiraan
kegemukan
kegi
kegiatan
kegiatannya
kegig
kegubern
kegubernuran
kegunaan
keguruan
keh
kehabisan
kehadiran
kehadirannya
kehakiman
kehamilan
kehancuran
kehar
keharusan
kehend
kehendak
kehidup
kehidupan
kehidupannya
kehilangan
kehit
kehitaman
kehormatan
kehutanan
kei
keikut
keikuts
keikutsertaan
keilmuan
keim
keimanan
keindahan
keinginan
keinginannya
keislaman
keistimewaan
keith
kej
kejadian
kejahatan
kejaksaan
kejam
kejang
kejar
kejaran
kejatuhan
kejauhan
kejayaan
kejayaannya
kejelasan
keji
kejiwaan
keju
kejuaraan
kejujuran
kejuruan
kejutan
kek
kekacauan
kekag
kekaisaran
kekal
kekalahan
kekasih
kekasihnya
kekayaan
kekayaannya
kekebalan
kekec
kekecewaan
kekej
kekejaman
kekeliruan
kekeluargaan
keker
kekerabatan
kekerasan
kekeringan
kekh
kekhalifahan
kekhasan
kekhawatiran
kekosongan
kekristenan
kekuasaan
kekuasaannya
kekuatan
kekuatannya
kekun
kekuningan
kekurangan
kel
kela
kelabu
kelah
kelahiran
kelahirannya
kelainan
kelak
kelakuan
kelam
kelamaan
kelamin
kelancaran
kelangkaan
kelangsungan
kelanjutan
kelantan
kelapa
kelaparan
kelar
kelas
kelasnya
kelautan
kelayakan
kelebihan
keledai
kelel
kelelahan
kelelawar
kelem
kelemahan
kelemb
kelembaban
kelembagaan
kelengkapan
kelenjar
kelenteng
kelestarian
kelihatan
kelihatannya
keliling
kelima
kelimpahan
kelinci
keliru
kelistrikan
kelly
kelola
kelompok
kelompoknya
kelopak
keluar
keluaran
keluarga
keluarganya
keluarnya
keluhan
kelulusan
kelurahan
kem
kemac
kemacetan
kemah
kemahasiswaan
kemajuan
kemakmuran
kemal
kemampuan
kemampuannya
keman
kemand
kemandirian
kemang
kemanusiaan
kemarahan
kemarau
kemarin
kemas
kemasan
kemasyarakatan
kematangan
kematian
kematiannya
kemauan
kemayoran
kemb
kembali
kembalinya
kembang
kembar
kemeja
kemen
kemenangan
kemenangannya
kementerian
kementrian
kemenyan
kemerahan
kemerd
kemerdekaan
kemerdekaannya
kemeros
kemerosotan
kemew
kemewahan
kemih
kemiliter
kemiliteran
kemiri
kemiringan
kemiripan
kemiskinan
kemitraan
kemud
kemudahan
kemudi
kemudian
kemuliaan
kemunculan
kemunduran
kemungkinan
kemurahan
kemurnian
ken
kena
kenaikan
kenal
kenalan
kenampakan
kenangan
kenapa
kenari
kenc
kencan
kencana
kencang
kend
kendal
kendala
kendali
kendaraan
kendari
kendati
kenegaraan
keng
kenikmatan
kenis
kenn
kennedy
kenneth
kenny
kent
kental
kentang
kentu
keny
kenya
kenyamanan
kenyataan
kenyataannya
keong
kep
kepad
kepada
kepadaku
kepadamu
kepadanya
kepadatan
kepahlawanan
kepala
kepalanya
kepan
kepanduan
kepanger
kepangeranan
kepanikan
kepastian
kepat
kepatuhan
kepausan
kepe
keped
kepedulian
kepem
kepemilikan
kepemimpinan
kepemimpinannya
kepemudaan
kepend
kependidikan
kependudukan
kepeng
kepengurusan
kepentingan
keper
keperawatan
kepercaya
kepercayaan
kepercayaannya
kepergian
keperluan
kepindahan
keping
kepingan
kepiting
kepler
kepolisian
keponakan
keponakannya
keppres
kepresidenan
kepribadian
keprihatinan
kepuasan
kepulangan
kepulauan
kepunahan
keputihan
keputus
keputusan
keputusannya
ker
kera
kerabat
kerabatnya
keracunan
keragaman
keraguan
kerah
keraj
kerajaan
kerajaannya
kerajinan
kerak
keram
keramaian
keramat
keramik
kerang
kerangka
keranjang
kerap
kerapatan
keras
kerasnya
keraton
kerbau
kerdil
keren
kereta
keri
keributan
kerikil
kerinci
kerind
kering
keringat
keris
kerj
kerja
kerjanya
kerjasama
kernel
keroncong
kerta
kertas
kerucut
kerugian
kerukunan
kerum
kerumunan
keruntuhan
kerupuk
kerus
kerusakan
kerusuhan
kes
kesabaran
kesadaran
kesaksian
kesaktian
kesal
kesalah
kesalahan
kesalahannya
kesalahpahaman
kesamaan
kesan
kesana
kesatria
kesatuan
kesayangan
kese
keseb
kesebelas
kesed
kesederhanaan
kesedihan
keseh
keseharian
kesehatan
kesehatannya
keseimbangan
kesej
kesejahteraan
kesel
keselamatan
keseluruhan
keseluruhannya
kesem
kesemb
kesembilan
kesempatan
kesempurnaan
kesemuanya
kesen
kesenangan
kesenian
kesenjangan
kesep
kesepakatan
kesepian
kesepuluh
keser
kesesuaian
keset
kesetaraan
kesetiaan
kesetimbangan
keshogunan
kesi
kesiapan
kesibukan
kesibukannya
kesimpulan
kestabilan
kesuburan
kesucian
kesuk
kesukaan
kesukses
kesuksesan
kesul
kesulitan
kesultanan
kesus
kesusastraan
ket
keta
ketaatan
ketahanan
ketahuan
ketahui
ketak
ketakutan
ketan
ketapang
ketat
ketebalan
keteg
ketegangan
ketek
ketekunan
ketel
ketem
keten
ketenagakerjaan
ketenangan
ketenaran
ketentuan
ketepatan
keter
keterampilan
keterangan
keterb
keterbatasan
keterbuk
keterbukaan
ketergantungan
keterkaitan
keterl
keterlambatan
keterlibatan
keterlibatannya
ketersediaan
ketert
ketertarikan
ketertiban
ketetapan
keti
ketiadaan
ketidak
ketidakadilan
ketidakm
ketidakmampuan
ketidakp
ketidakpastian
ketidakpuasan
ketidaks
ketidakse
ketidakstabilan
ketiga
ketiganya
ketik
ketika
ketimbang
ketinggalan
ketinggian
ketr
ketrampilan
ketu
ketua
ketuanya
ketuhan
ketuhanan
ketujuh
ketupat
keturunan
keturunannya
ketut
keuangan
keun
keunggulan
keunikan
keuntungan
keus
keuskup
keuskupan
keutamaan
keutuhan
kevin
kew
kewajib
kewajiban
kewalahan
kewar
kewarganegaraan
kewenangan
kewira
kewirausahaan
key
keyakinan
keyakinannya
keyboard
kfc
kg
kh
khadi
khadijah
khair
khal
khalayak
khali
khalid
khalifah
kham
khan
kharis
kharisma
khas
khasiat
khasnya
khat
khatib
khatulistiwa
khawatir
khay
khaz
khazanah
khitan
khmer
kho
khotbah
khur
khus
khusus
khususnya
ki
kia
kiai
kiamat
kian
kiasan
kib
kiblat
kick
kid
kids
kidul
kidung
kiev
kij
kijang
kik
kiki
kil
kilang
kilat
kill
kilogram
kilometer
kim
kimi
kimia
kimiawan
kimiawi
kin
kincir
kind
kiner
kinerja
king
kingdom
kings
kini
kios
kip
kipas
kiper
kiprah
kiprahnya
kir
kira
kirana
kiranya
kiri
kirim
kiriman
kirinya
kirk
kis
kisah
kisahnya
kisaran
kisi
kiss
kit
kita
kitab
kj
kk
kl
kla
klaim
klan
klang
klas
klasemen
klasifikasi
klasik
klaten
klaus
kle
klenteng
kli
klien
klik
klim
klimaks
klinik
klinis
klip
kliwon
klor
klorida
klub
klubnya
klungkung
km
km2
kn
knight
knil
knock
know
knowledge
ko
koalisi
kob
kobe
koc
koch
kod
kodam
kode
kodeks
kodepos
kodim
kodok
kodrat
koefisien
koes
kog
kognitif
koh
koin
kok
koki
koko
kokoh
kol
kolabor
kolaborasi
kolam
kolega
koleganya
koleksi
kolektif
kolektor
kolese
kolesterol
koln
kolom
kolomb
kolombia
kolon
kolonel
koloni
kolonial
kolonialisme
kolum
kom
koma
komand
komandan
komando
komar
komb
kombinasi
komedi
komedian
koment
komentar
komentator
komering
komersial
komet
komik
komis
komisaris
komisi
komisioner
komite
komitmen
komnas
komod
komoditas
komodo
komp
kompak
kompas
kompatib
kompatibel
kompeni
kompensasi
kompet
kompeten
kompetensi
kompetisi
kompetitif
kompetitor
kompi
kompilasi
kompl
komplek
kompleks
kompleksitas
komplikasi
komponen
komponis
komposer
komposisi
komprehensif
kompresi
kompromi
komputasi
komputer
komun
komunal
komune
komuni
komunikasi
komunis
komunisme
komunitas
komuter
kon
kond
kondang
kondisi
kondisinya
kondom
konduktor
kondusif
koneksi
konf
konfederasi
konferensi
konfigurasi
konfirmasi
konflik
konfr
konfrontasi
kong
konglomerat
kongo
kongregasi
kongres
kongsi
konj
konk
konkret
konon
konotasi
konrad
kons
konsekuensi
konsekuensinya
konseling
konsensus
konsentr
konsentrasi
konsep
konsepnya
konsepsi
konseptual
konser
konservasi
konservatif
konsesi
konsili
konsisten
konsistensi
konsol
konsolidasi
konsonan
konsorsium
konspirasi
konstan
konstant
konstanta
konstantin
konstantinopel
konstantinus
konstelasi
konstitu
konstituen
konstitusi
konstitusional
konstruk
konstruksi
konsul
konsulat
konsultan
konsultasi
konsumen
konsumsi
kont
kontainer
kontak
konteks
kontempor
kontemporer
konten
kontes
kontestan
kontin
kontingen
kontinu
kontr
kontra
kontrak
kontraknya
kontraksi
kontraktor
kontras
kontrasepsi
kontribusi
kontribusinya
kontributor
kontrol
kontrov
kontroversi
kontroversial
kontur
konv
konvensi
konvensional
konver
konversi
konvoi
konyol
koordinasi
koordinat
koordinator
kop
kopassus
kopenhagen
koper
koperasi
kopi
koptik
kor
koran
korawa
korban
korbannya
kore
korea
korean
koreksi
korelasi
korem
koresponden
koridor
korintus
korn
korpor
korporasi
korps
korup
korupsi
kos
kosakata
kosm
kosmetik
kosmologi
kosmos
kosong
kosovo
kosta
kostrad
kostum
kot
kota
kotabaru
kotak
kotamadya
kotanya
kotawaringin
koto
kotor
kotoran
kov
kow
kp
kpi
kpk
kpu
kpud
kr
kra
krab
krak
krakatau
kramat
kraton
kre
kreasi
kreatif
kreativitas
kredib
kredit
krem
kres
kresna
kreta
kretek
kri
krim
krimea
kriminal
kris
krisdayanti
krishna
krisis
krist
kristal
kristen
kristian
kristiani
kristus
kriteria
kritik
kritikan
kritikus
kritis
krl
kro
kroasia
krom
kromosom
kron
kronik
kronis
kronologi
kronologis
kru
krueng
ks
ksatria
kt
ktp
ktt
ku
kuad
kuah
kuala
kualifikasi
kualitas
kualitasnya
kualitatif
kuan
kuantan
kuantitas
kuantitatif
kuantum
kuar
kuartal
kuasa
kuat
kuatnya
kub
kuba
kubah
kubik
kubu
kubur
kuburan
kuc
kuching
kucing
kud
kuda
kudanya
kudeta
kudus
kue
kuh
kuhp
kuil
kuis
kuj
kuk
kuku
kukuh
kul
kuli
kuliah
kuliahnya
kuliner
kulit
kulitnya
kulon
kultur
kultural
kultus
kum
kuman
kumar
kumbang
kumis
kumpulan
kumuh
kun
kunc
kunci
kund
kung
kuning
kuningan
kunjung
kunjungan
kunjungannya
kunjungi
kuno
kunt
kunti
kunyit
kuomintang
kuota
kup
kupang
kupu
kur
kura
kurang
kurangnya
kurator
kurban
kurdi
kurikulum
kurma
kurnia
kurniawan
kursi
kursus
kurt
kurun
kurung
kurungan
kurus
kurva
kus
kusta
kusuma
kut
kuta
kutai
kutip
kutipan
kuto
kutu
kutub
kutukan
kuwait
kuwu
kv
kw
kwan
kwar
kwee
ky
kyai
kyoto
l
la
lab
laba
label
labor
laboratorium
labu
labuan
labuhan
lac
lad
lada
ladang
lady
laf
lag
laga
lagi
lagu
laguna
lagunya
lah
lahan
lahat
lahir
lahirnya
lai
lain
lainnya
lainya
laj
laju
lajur
lak
lake
laki
lakinya
lakon
laks
laksamana
laksana
laku
lakukan
lal
lala
lalat
lalu
lalunya
lam
lama
laman
lamanya
lamaran
lamb
lamban
lambang
lambat
lambung
lamela
lami
lamiaceae
lamiales
lamongan
lamp
lampau
lampiran
lampu
lampung
lan
lanc
lancar
land
landak
landas
landasan
lane
lang
langg
langganan
langit
langka
langkah
langkat
langs
langsung
langu
language
lanjut
lanjutan
lanka
lans
lansia
lanskap
lant
lantai
lantaran
lantas
lanud
lao
laos
lap
lapang
lapangan
lapar
lapis
lapisan
lapor
laporan
laptop
lar
lara
larang
larangan
laras
lari
laris
larry
larut
larutan
larva
las
lasem
laser
laskar
last
lat
latar
late
lati
latif
latih
latihan
latin
latvia
lau
lauk
laun
laur
laura
laut
lautan
lav
lava
law
lawan
lawang
lawannya
lawas
lawrence
lay
layak
layaknya
layanan
layang
layar
layer
lazim
lazimnya
lazio
lb
lc
lcd
ld
le
lea
lead
leader
league
learning
leb
lebah
lebak
lebanon
lebar
lebaran
lebarnya
lebat
lebih
lebur
lec
led
ledak
ledakan
lee
leeds
left
leg
lega
legal
legend
legenda
legendaris
legi
legisl
legislasi
legislatif
legitimasi
legiun
leh
leher
lehernya
leiden
leip
leipzig
lek
lel
lelah
lelaki
lelakinya
lelang
lele
leluasa
lelucon
leluhur
leluhurnya
lem
lemah
lemak
lemari
lemb
lembab
lembaga
lembah
lembang
lembap
lembar
lembaran
lembu
lembut
lemhan
lemp
lempeng
lempengan
len
lencana
lend
lendir
leng
lengan
lengk
lengkap
lengkapnya
lengkung
lengkungan
lenin
lennon
lens
lensa
lentera
lenyap
leo
leon
leonard
leonardo
leop
leopold
lep
lepas
lept
ler
lereng
les
lesbian
lesi
lesmana
less
lest
lestari
leste
let
letak
letaknya
letjen
letkol
letnan
letter
letusan
leu
leuc
leuk
lev
level
levi
levy
lew
lewat
lewis
lex
lg
lgbt
lh
lhok
lhokseumawe
li
lia
lian
liang
liar
liat
lib
liber
liberal
liberalisme
libert
liberty
libr
library
libur
liburan
libya
lic
licik
licin
lid
lidah
lie
liem
lies
lif
life
lift
lig
liga
ligan
light
ligue
lih
lihat
lik
like
liku
lil
lili
lilin
lille
lily
lim
lima
limbah
limf
limit
limited
limp
lin
linc
lincah
lincoln
lind
linda
lindung
line
linear
ling
lingg
lingga
lingk
lingkar
lingkaran
lingkungan
lingkungannya
lingkup
lingu
linguistik
lini
link
lintang
lintas
lintasan
linux
linyphi
linyphiidae
lion
lionel
liong
lions
lip
lipat
lipatan
lipi
lippo
liputan
liqu
lir
liri
lirik
liriknya
liriomyza
lis
lisa
lisan
lisbon
lisensi
list
listrik
lit
liter
literatur
lith
lithuan
lithuania
litium
little
litu
lituania
litur
liturgi
liu
liv
live
liverpool
living
lk
ll
lloyd
lm
lo
lob
lobi
loc
local
lock
lockheed
lod
log
logam
logan
logat
logika
logis
logistik
logo
loh
lok
lokakarya
lokal
lokasi
lokasinya
lokomotif
lol
lolos
lomb
lomba
lombard
lombok
lomp
lompat
lompatan
lon
lonc
lonceng
london
long
longgar
longsor
lontar
look
lop
lopez
lor
lord
lorenzo
lori
lorong
los
lost
lot
lotus
lou
louis
louise
lov
lovato
love
low
loy
loyal
loyalitas
lp
ls
lsm
lt
ltd
lu
luang
luar
luarnya
luas
luasnya
lub
lubang
lubis
lubuk
luc
luca
lucas
luciano
lucky
lucu
lucy
lud
ludwig
luf
luft
lug
luh
luhur
lui
luigi
luis
luk
luka
lukas
luke
lukis
lukisan
lukisannya
lukman
luksemburg
lulus
lulusan
lum
lumajang
lumayan
lumba
lumbung
lump
lumpuh
lumpur
lumut
lun
luna
lunak
lung
lup
lupa
lupus
luput
lurah
lurus
lus
lut
luth
luther
lutheran
lutut
luw
luwu
lux
ly
lyc
lyn
lyon
m
m2
ma
maaf
maat
maatsch
maatschappij
mab
mabes
mabuk
mac
macam
macan
macarthur
macet
mach
machine
mack
mad
mada
madagaskar
made
madi
madinah
madiun
madonna
madras
madrasah
madrid
madu
madura
madya
mae
maestro
mafia
mag
maga
magang
magazine
magdal
magdalena
magelang
magetan
magh
magic
magis
magister
magma
magn
magnesium
magnet
magnetik
magnitudo
magnus
mah
maha
mahab
mahabharata
mahak
mahakam
mahal
mahar
maharaja
maharani
mahasis
mahasiswa
mahasiswi
mahat
mahathir
mahayana
mahdi
mahir
mahk
mahkamah
mahkota
mahluk
mahmud
mai
maia
mail
main
mainan
mainkan
mainstream
maj
majal
majalah
majalengka
majapahit
majelis
majemuk
majikan
majlis
major
maju
mak
maka
makalah
makam
makamnya
makan
makanan
makanannya
makar
makasar
makassar
makau
make
makedonia
makh
makhluk
makin
making
makkah
maklum
maklumat
makmur
makna
maknanya
makro
maksimal
maksimum
maksud
maksudnya
mal
mala
malah
malahan
malaikat
malaka
malam
malang
malapetaka
malaria
malas
malay
malaya
malaysia
malcolm
male
mali
malik
malin
maling
mall
malta
malu
maluku
mam
mama
mamalia
mami
mampu
man
mana
manado
manaf
manag
management
manager
manaj
manajemen
manajer
manakala
manapun
manas
manc
mancanegara
manch
manchester
manchu
manchuria
mancur
mand
mandailing
mandal
mandala
mandar
mandarin
mandat
mandela
mandi
mandiri
manfaat
mang
manga
mangan
mangg
mangga
manggarai
manggung
mangk
mangkat
mangkubumi
mangkuk
mangkun
mangrove
mangsa
mangsanya
mangun
manhattan
mani
manif
manifestasi
manifesto
manik
manila
manipulasi
manis
manj
mann
manok
manokwari
mans
mansur
mansyur
mant
mantan
mantap
mantel
mantra
manu
manual
manuel
manuf
manufac
manufaktur
manus
manusia
manusiawi
manuskrip
manuver
many
mao
map
mapan
mapp
maq
mar
mara
marah
marak
maraknya
maran
marc
marcel
march
marco
marcos
marcus
mard
mardi
maret
marg
marga
margar
margaret
margin
mari
maria
mariah
marian
mariana
marie
marin
marina
marine
marinir
marino
mario
maritim
marj
mark
markas
market
marketing
markus
marmer
marne
maroko
maros
marquez
marri
mars
marse
marseille
marsekal
marsh
marshall
mart
martabat
martapura
martha
martin
martine
martinez
martir
marty
maru
marvel
marwan
marx
marxis
marxisme
mary
maryam
maryland
marzuki
mas
masa
masak
masakan
masalah
masalahnya
masam
masanya
masehi
mash
masi
masif
masih
masing
masinis
masjid
masjidil
mask
maskapai
masker
maskot
maskulin
mason
mass
massa
massachus
massachusetts
massal
master
masturbasi
masuk
masukan
masuknya
masy
masyarakat
masyarakatnya
masyumi
mat
mata
matahari
matan
matang
matanya
mataram
match
matemat
matematika
matematikawan
matematis
mater
materi
material
math
mathi
mati
matius
matriks
matrix
mats
matt
matth
matthew
mau
maud
maul
maulana
maulid
maupun
maur
maurice
maut
maw
mawar
max
maxim
maxwell
may
maya
mayang
mayat
mayjen
mayor
mayoritas
mayur
maz
mazhab
mazmur
mb
mba
mbah
mbc
mc
mcc
mccar
mccarthy
mccartney
mcdonald
mcg
mck
mclaren
md
mdpl
me
mean
mebel
mec
med
medal
medali
medan
medang
medi
media
mediator
medic
medical
medicine
medis
meditasi
mediter
mediterania
medium
meeting
meg
mega
megah
megal
megap
megatron
megaw
megawati
meh
mei
meiji
mej
meja
mek
mekah
mekan
mekanik
mekanika
mekanis
mekanisme
mekar
mekkah
meksiko
mel
melacak
melahirkan
melainkan
melaju
melaka
melaksanakan
melakukan
melakukannya
melalui
melamar
melambangkan
melampaui
melan
melanagromyza
melancarkan
melanda
melanggar
melangkah
melangsungkan
melanjutkan
melantik
melapor
melaporkan
melarang
melarikan
melast
melastomataceae
melati
melatih
melawan
melayang
melayani
melayu
melbourne
melebar
melebarkan
melebihi
melebur
meledak
meledakkan
meleg
melejit
melek
melekat
melel
meleleh
melem
melemah
melemahkan
melemp
melempar
melemparkan
melengkapi
melengkung
melenyapkan
melepas
melepaskan
meles
melesat
melestarikan
meletakkan
meletus
meletusnya
melewati
melewatkan
meli
melibatkan
melihat
melihatnya
melimpah
melindung
melindungi
melindunginya
melingk
melingkar
melingkupi
melintang
melintas
melintasi
melip
meliput
meliputi
melly
melodi
meloloskan
melompat
melon
melonjak
melontarkan
meluas
melukai
melukis
melukiskan
meluluskan
melumpuhkan
melun
meluncur
meluncurkan
melupakan
mem
memaafkan
memacu
memad
memadai
memadamkan
memadukan
memahami
memainkan
memajukan
memak
memakai
memakainya
memakan
memaks
memaksa
memaksakan
memaksanya
memaksimalkan
memalukan
memamerkan
meman
memanas
memanaskan
memancarkan
memancing
memandang
memandu
memanfaatkan
memang
memanggil
memanggilnya
memangsa
memanipulasi
memanj
memanjang
memanjat
memantapkan
memantau
memaparkan
memas
memasak
memasang
memasarkan
memasok
memastikan
memasukan
memasuki
memasukkan
memat
mematahkan
mematikan
mematuhi
memb
membaca
membacakan
membacanya
membagi
membagikan
membah
membahas
membahayakan
membaik
membakar
membalap
membalas
membalik
membalikkan
membandingkan
membanggakan
membangkitkan
membangun
membantah
membantai
membantu
membantunya
membas
membatalkan
membatasi
membawa
membawahi
membawakan
membawanya
membayangkan
membayar
membeb
membebaskan
membedakan
membedakannya
membeku
membel
membela
membelah
membeli
membelinya
membelot
memben
membenarkan
membenci
membendung
membengk
membentang
membentuk
member
memberantas
memberdayakan
memberhentikan
memberi
memberikan
memberikannya
memberinya
memberit
memberitah
memberitahu
memberitahukan
memberitakan
memberkati
memberlakukan
memberontak
membersihkan
membesar
membesarkan
membiarkan
membiayai
membicarakan
membidangi
membimbing
membina
membingungkan
membintangi
memblokir
membolehkan
membongkar
membran
membu
membuahkan
membuang
membuat
membuatnya
membubarkan
membujuk
membuka
membuktikan
membungk
membungkus
membunuh
membunuhnya
memburu
memburuk
membusuk
membutuhkan
meme
memec
memecah
memecahkan
memecat
memegang
memelihara
memeluk
memen
memenangi
memenangkan
memengaruhi
memenjarakan
mement
mementingkan
memenuhi
memer
memerangi
memerankan
memeriksa
memerintah
memerintahkan
memerlukan
memesan
memetakan
memetik
memf
memfasilitasi
memfokuskan
memicu
memihak
memikat
memikirkan
memil
memilih
memiliki
memilki
memimpin
memindahkan
meminimalkan
meminjam
meminjamkan
meminta
memintanya
meminum
memisahkan
memo
memodifikasi
memohon
memon
memor
memori
memorial
memory
memotivasi
memotong
memotret
memp
mempekerjakan
mempelai
mempelajari
mempengaruhi
memper
memperb
memperbaharui
memperbaiki
memperbarui
memperbesar
memperbolehkan
mempercaya
mempercayai
mempercayakan
mempercepat
memperd
memperdalam
memperebutkan
mempergunakan
memperhatikan
memperhitungkan
mempering
memperingati
memperingatkan
memperjuangkan
memperk
memperkaya
memperkenalkan
memperkirakan
memperkuat
memperl
memperlakukan
memperlambat
memperlihatkan
memperluas
memperm
mempermudah
memperoleh
memperpanjang
mempers
mempersatukan
mempersembahkan
mempersiapkan
mempert
mempertahankan
mempertanyakan
mempertemukan
mempertimbangkan
mempraktikkan
memprediksi
mempresentasikan
memproduksi
memproklam
mempromosikan
memproses
memprotes
mempublikasikan
mempunyai
memuaskan
memuat
memudahkan
memudar
memuja
memuji
memukau
memukul
memulai
memuliakan
memulihkan
memunc
memuncak
memuncaki
memunculkan
memungkinkan
memungut
memus
memusatkan
memusnahkan
memutar
memutus
memutuskan
men
mena
menaati
menab
menabrak
menafsirkan
menag
menahan
menaiki
menaikkan
menak
menakjub
menakjubkan
menaklukan
menaklukkan
menakutkan
menamai
menamakan
menamatkan
menambah
menambahkan
menampakkan
menampilkan
menampung
menanam
menanamkan
menand
menandai
menandakan
menandatangani
menang
menangani
menangg
menanggap
menanggapi
menanggulangi
menanggung
menangis
menangkap
menangkapnya
menanjak
menantang
menanti
menantu
menantunya
menanyakan
menara
menargetkan
menari
menarik
menariknya
menaruh
menasihati
menata
menatap
menaungi
menaw
menawan
menawar
menawarkan
menayangkan
menc
mencabut
mencair
mencakup
mencalonkan
mencampur
mencantumkan
mencap
mencapai
mencari
mencatat
mencatatkan
mencegah
mencegahnya
mencer
menceraikan
menceritakan
mencerminkan
mencetak
mencetuskan
mencintai
mencintainya
menciptakan
mencium
mencoba
mencolok
mencuat
mencuci
mencukupi
menculik
mencurahkan
mencuri
mencurigai
mend
mendadak
mendaftar
mendaftarkan
mendahului
mendaki
mendalam
mendalami
mendampingi
mendanai
mendapat
mendapati
mendapatkan
mendapatkannya
mendarat
mendasar
mendasari
mendasarkan
mendatang
mendatangi
mendatangkan
mendefinisikan
mendek
mendekat
mendekati
mendekatkan
mendeklarasikan
mendel
mendengar
mendengarkan
menderita
mendes
mendesain
mendesak
mendeskripsikan
mendeteksi
mendi
mendiami
mendiang
mendidih
mendidik
mendik
mendirikan
mendiskusikan
mendistribusikan
mendo
mendokumentasikan
mendominasi
mendorong
mendorongnya
menduduki
menduga
mendukung
mendukungnya
menebus
meneg
menegakkan
menegaskan
menek
menekan
menekankan
menekuni
menel
menelan
menelepon
meneliti
menelurkan
menelusuri
menem
menemani
menemb
menembak
menembaki
menembakkan
menembus
menemp
menempat
menempati
menempatkan
menempatkannya
menempel
menempuh
menemui
menemukan
menemukannya
menenangkan
menendang
menengah
menenggelamkan
menentang
menentangnya
menentu
menentukan
mener
menerangkan
menerapkan
menerbangkan
menerbitkan
meneri
menerima
menerimanya
menerjemahkan
menerobos
menerus
meneruskan
menetap
menetapkan
menetas
menetr
menewaskan
meng
menga
mengab
mengabadikan
mengabaikan
mengabarkan
mengabdi
mengabdikan
mengabulkan
mengacaukan
mengacu
mengad
mengadakan
mengadaptasi
mengadili
mengadopsi
mengadu
mengag
mengagumi
mengagumkan
mengaitkan
mengajak
mengajaknya
mengajar
mengajari
mengajarkan
mengaji
mengajukan
mengak
mengakhiri
mengakibatkan
mengakomodasi
mengakses
mengaktifkan
mengaku
mengakui
mengakuisisi
mengal
mengalah
mengalahkan
mengalami
mengalihkan
mengalir
mengalirkan
mengam
mengamalkan
mengamankan
mengamati
mengambang
mengambil
mengambilnya
mengampuni
mengamuk
mengan
menganalisis
mengancam
mengandalkan
mengandung
mengangg
menganggap
menganggapnya
mengangkat
mengangkatnya
mengangkut
menganjurkan
mengant
mengantar
mengantarkan
mengantisipasi
menganugerahkan
menganut
mengap
mengapa
mengapung
mengar
mengarah
mengarahkan
mengarang
mengartikan
mengarungi
mengas
mengasah
mengasihi
mengasingkan
mengasuh
mengatakan
mengatas
mengatasi
mengatur
mengaw
mengawal
mengawali
mengawasi
mengeb
mengebor
mengec
mengecam
mengecewakan
mengecil
menged
mengedepankan
mengej
mengejar
mengejek
mengejutkan
mengek
mengeks
mengeksekusi
mengeksploitasi
mengeksplorasi
mengekspor
mengekspresikan
mengel
mengelilingi
mengelola
mengeluarkan
mengeluh
mengem
mengemb
mengembalikan
mengemban
mengembang
mengembangkan
mengembara
mengemudi
mengemukakan
mengen
mengenai
mengenakan
mengenal
mengenali
mengenalkan
mengenalnya
mengenang
mengend
mengendalikan
mengendap
mengendarai
mengenyam
mengepalai
mengepung
menger
mengerahkan
mengerikan
mengering
mengerjakan
mengerti
menges
mengesahkan
mengesampingkan
mengesankan
mengetahui
mengevaluasi
mengg
mengga
menggabungkan
menggagalkan
menggagas
menggalang
menggali
menggambar
menggambarkan
menggandeng
mengganggu
mengganti
menggantikan
menggantikannya
menggantinya
menggantung
menggantungkan
menggarap
menggel
menggelar
menggeluti
menggemb
mengger
menggerakkan
menggeser
menggigit
menggoda
menggug
menggugat
menggulingkan
menggun
menggunakan
menggunakannya
mengguncang
mengh
menghabisi
menghabiskan
menghadang
menghadap
menghadapi
menghadiri
menghadirkan
menghafal
menghalangi
menghalau
menghambat
menghampiri
menghancurkan
menghang
menghantam
menghantarkan
menghapus
menghapuskan
menghar
mengharapkan
menghargai
mengharuskan
menghasilkan
menghasut
menghemat
menghembuskan
menghendaki
menghentikan
mengherankan
menghiasi
menghibur
menghidup
menghidupi
menghidupkan
menghilang
menghilangkan
menghimpun
menghina
menghind
menghindar
menghindari
menghisap
menghitung
menghormati
menghormatinya
menghubung
menghubungi
menghubungkan
menghukum
menghuni
mengibarkan
mengidap
mengidentifikasi
mengidentifikasikan
mengikat
mengikut
mengikuti
mengikutinya
mengikutsertakan
mengilhami
mengimbangi
mengimp
mengimplementasikan
mengimpor
mengin
menginap
mengincar
mengind
mengindikasikan
menginformasikan
menging
mengingat
mengingatkan
menginginkan
menginj
menginjak
mengins
menginspirasi
menginstruksikan
mengintegrasikan
menginter
menginvasi
mengira
mengirim
mengirimkan
mengiringi
mengis
mengisahkan
mengisi
mengisolasi
mengisyaratkan
mengitari
mengizinkan
mengk
mengkaji
mengkhawatirkan
mengkhianati
mengkhususkan
mengklaim
mengkonfirmasi
mengkons
mengkonsumsi
mengkoordinasikan
mengkritik
mengob
mengobati
mengolah
mengoleksi
mengom
mengomentari
mengonsumsi
mengontrak
mengontrol
mengoperasikan
mengoptimalkan
mengor
mengorbankan
mengorbit
mengorganisir
mengu
menguap
menguasai
menguat
menguatkan
mengubah
mengubahnya
mengubur
menguc
mengucapkan
mengudara
menguji
mengukir
mengukuhkan
mengukur
mengulang
mengulangi
mengulas
mengumpulkan
mengumumkan
mengun
mengunci
mengund
mengundang
mengundurkan
mengungg
mengungguli
mengungkap
mengungkapkan
mengungsi
mengunjungi
menguntungkan
mengupayakan
mengur
menguraikan
mengurangi
mengurung
mengurus
mengurusi
mengus
mengusahakan
mengusir
mengusulkan
mengusung
mengut
mengutamakan
mengutarakan
mengutip
mengutuk
mengutus
meni
meniadakan
menik
menikah
menikahi
menikahkan
menikmati
menilai
menimba
menimbulkan
menimpa
menindas
mening
meninggal
meninggalkan
meninggalkannya
meninggalnya
meningkat
meningkatkan
meningkatnya
meninjau
menip
menipu
meniru
menit
meniti
menitik
menj
menjabarkan
menjabat
menjadi
menjadikan
menjadikannya
menjaga
menjajah
menjalan
menjalani
menjalankan
menjalar
menjalin
menjamin
menjangkau
menjanjikan
menjarah
menjatuhkan
menjauh
menjauhi
menjauhkan
menjawab
menjebak
menjel
menjelajah
menjelajahi
menjelang
menjelaskan
menjelma
menjembatani
menjemput
menjual
menjualnya
menjuarai
menjulang
menjumpai
menjunjung
menolak
menolaknya
menolong
menolongnya
menonjol
menonjolkan
menonton
menopang
menor
mens
menstabilkan
menstr
menstruasi
mensyaratkan
ment
menta
mentah
mental
mentawai
mentega
menteng
menteri
menterinya
mentor
mentrans
mentransfer
menu
menuai
menuangkan
menud
menuduh
menug
menugaskan
menuju
menuk
menukar
menular
menulis
menuliskan
menum
menumbuhkan
menump
menumpang
menumpas
menumpuk
menun
menunaikan
menunda
menundukkan
menunggu
menunjang
menunjuk
menunjukan
menunjukkan
menuntun
menuntut
menur
menurun
menurunkan
menurunnya
menurut
menuruti
menurutnya
menusuk
menutup
menutupi
menuturkan
meny
menya
menyabet
menyadari
menyadarkan
menyaingi
menyajikan
menyakit
menyakiti
menyakitkan
menyaksikan
menyala
menyalah
menyalahkan
menyalakan
menyalin
menyalurkan
menyamai
menyamakan
menyamar
menyambung
menyambut
menyampaikan
menyandang
menyangg
menyangka
menyangkal
menyangkut
menyantap
menyanyi
menyanyikan
menyapa
menyapu
menyarankan
menyaring
menyatakan
menyatu
menyatukan
menyayangi
menye
menyeb
menyebabkan
menyebar
menyebarkan
menyebarluaskan
menyeber
menyeberang
menyeberangi
menyebut
menyebutkan
menyebutnya
menyed
menyediakan
menyedihkan
menyeimbangkan
menyel
menyelam
menyelamatkan
menyelamatkannya
menyelenggarakan
menyelesaikan
menyelesaikannya
menyelidiki
menyelinap
menyeluruh
menyem
menyembah
menyembuhkan
menyembunyikan
menyempurnakan
menyenangkan
menyentuh
menyepakati
menyer
menyerah
menyerahkan
menyerang
menyerap
menyerbu
menyeret
menyertai
menyertakan
menyerukan
menyerupai
menyes
menyesal
menyesatkan
menyesuaikan
menyet
menyetujui
menyewa
menyiapkan
menyiarkan
menyiksa
menyimp
menyimpan
menyimpang
menyimpulkan
menyinggung
menyingkir
menyingkirkan
menyir
menyiratkan
menyisakan
menyisihkan
menyita
menyokong
menyoroti
menyuarakan
menyukai
menyukainya
menyulitkan
menyumbang
menyumbangkan
menyunting
menyuruh
menyuruhnya
menyus
menyusui
menyusul
menyusun
menyusup
menyusuri
menyusut
menyutradarai
mer
mera
meragukan
merah
meraih
merak
merakit
meramalkan
merambah
merambat
merampas
merampok
merancang
merangk
merangkap
merangkul
merangsang
merantau
meranti
merapi
merasa
merasakan
merata
meratifikasi
merauke
meraup
merawat
merayakan
merc
mercedes
merch
mercury
mercus
mercusuar
mercy
merd
merdeka
mere
merebak
merebut
mered
meredakan
meredam
mereduksi
merefleksikan
mereformasi
merek
mereka
merekam
merekomendasikan
merekrut
merel
merem
meren
merencanakan
merendahkan
merep
merepresentasikan
meres
meresmikan
merespon
merespons
merevisi
merger
meri
meriah
meriam
meridian
merilis
meringankan
merintis
meriwayatkan
merk
merkuri
merob
merokok
merosot
merpati
merta
mertua
mertuanya
meru
merugikan
merujuk
merumuskan
meruncing
merupakan
merusak
mes
mesi
mesias
mesin
mesinnya
mesir
mesjid
meski
meskipun
mesopot
mesopotamia
mess
message
messenger
messi
mesti
mestinya
met
meta
metabol
metabolisme
metaf
metafisika
metafora
metal
metam
metan
metana
mete
meteor
meteorologi
meter
meth
method
metil
metod
metode
metodologi
metrik
metro
metropolitan
mew
mewah
mewajibkan
mewak
mewakili
mewar
mewarisi
mewariskan
mewarnai
mewawancarai
mewujudkan
mex
mexico
mey
meyakini
meyakinkan
mg
mgr
mh
mhz
mi
mia
miami
mic
mich
michael
michel
michelle
michi
michigan
miconia
micro
micros
microsoft
mid
midd
middle
mie
mif
mig
migas
migran
migrasi
miguel
mih
mik
mika
mike
mikhael
mikhail
mikro
mikroorganisme
mikroskop
mil
milan
milenium
miles
mili
miliar
milik
miliki
miliknya
milimeter
milisi
militan
military
militer
militernya
mill
millen
miller
milli
million
milo
milton
mim
mimbar
mimi
mimp
mimpi
mimpinya
min
mina
minahasa
minang
minangkabau
minat
minatnya
mind
mineral
ming
mingg
minggu
mingguan
minh
mini
miniatur
minim
minimal
minimnya
minimum
minister
minor
minoritas
mint
minta
minum
minuman
minus
minyak
mir
mira
miranda
miring
mirip
mirror
mirza
mis
misa
misal
misalkan
misalnya
misi
misil
misinya
misionaris
miskin
miss
mission
missis
missouri
mister
misteri
misterius
mistik
mistis
mit
mitch
mitchell
mitologi
mitos
mitra
mits
mitsub
mitsubishi
mix
miya
miz
mk
ml
mm
mn
mnc
mo
mob
mobil
mobile
mobilisasi
mobilitas
mobilnya
moch
mochtar
mod
moda
modal
mode
model
moder
moderat
modern
modernisasi
modifikasi
modul
modus
mog
mogok
moh
mohamad
mohamed
mohammad
mohammed
mohd
mohon
moj
mojo
mojokerto
mok
mol
moldova
molek
molekul
molekuler
molotov
mom
momen
momentum
mon
monaco
monako
monarki
monas
moncong
mond
moneter
money
mong
mongol
mongolia
mongondow
monica
monitor
mono
monopoli
mons
monster
mont
monte
monten
montenegro
month
montre
montreal
monumen
monumental
monyet
moon
moor
moore
mor
moral
moralitas
more
morf
morfologi
morgan
mori
morning
moro
morris
mort
mortir
mos
moscow
moses
mosi
mosk
moskow
moskwa
moss
most
mot
mother
motif
motion
motiv
motivasi
moto
motogp
motor
motors
motto
mou
moun
mount
mountain
mouse
mov
movement
movie
movies
moy
moyang
moz
mozart
mozilla
mp
mpr
mprs
mpu
mr
mrs
mrt
ms
msc
mt
mts
mtv
mu
mual
muar
muara
muas
muasal
muat
muatan
muawiyah
mub
muc
much
mud
muda
mudah
mudanya
mudi
mudik
muf
mufti
mug
mugh
muh
muhamad
muhammad
muhammadiyah
mui
muj
mujah
mujahidin
muk
muka
mukh
mukhtar
mukim
mukj
mukjizat
muktamar
mukti
mul
mula
mulai
mulanya
mulia
muller
multi
multik
multil
multim
multimedia
multin
multinasional
multip
multiple
mulus
mulut
mulutnya
mulya
mulyadi
mum
mumbai
mump
mun
muna
munchen
muncul
muncullah
munculnya
mund
mundur
mundurnya
mung
mungkin
munich
munir
munisip
munisipalitas
munt
muntah
muq
mur
murad
murah
muri
muria
murid
muridnya
murka
murni
murphy
murray
murtad
mus
musa
museum
mush
musi
musibah
music
musik
musikal
musiknya
musim
musiman
musisi
musl
muslim
muslimah
muslimin
musnah
mussol
mussolini
must
musta
mustafa
mustah
mustahil
musuh
musuhnya
musyawarah
mut
muta
mutakhir
mutasi
muti
mutiara
mutl
mutlak
mutlaknya
mutu
muz
mv
mw
my
myan
myanmar
myc
mycale
mycetoph
mycetophila
mycetophilidae
mycomya
myr
myrt
myrtaceae
myrtales
mys
myth
n
na
nab
nabati
nabi
nac
nad
nada
nadi
nadia
naf
nafas
nafkah
nafsu
nag
naga
nagari
nagasaki
nagoya
nah
nahd
nahdlatul
nai
naif
naik
naiknya
naj
najib
nak
nakal
nakh
nakhoda
nal
nam
nama
namanya
name
namun
nan
nana
nanas
nancy
nang
nangg
nangka
nani
nanjing
nano
nanti
nantinya
nap
napas
napoleon
napoli
naq
nar
nara
narap
narapidana
naras
narasi
narasumber
naratif
nari
nark
narkoba
narkotika
naruto
nas
nasa
nasabah
nascar
nash
nasi
nasib
nasibnya
nasihat
nasional
nasionalis
nasionalisme
nasir
naskah
naskahnya
nasution
nat
nata
natal
nathan
nation
national
nations
nato
natrium
natsir
natuna
natur
natural
nature
naungan
nav
navar
navig
navigasi
navy
naw
nawawi
nay
naz
nazar
nazi
nba
nbc
nc
nd
ne
nebula
nec
ned
neder
nederland
nee
need
neg
negara
negaranya
negarawan
negatif
negeri
negerinya
negosiasi
negri
neh
neil
neill
nek
nektar
nel
nelayan
nelson
nem
nen
nenek
neneknya
neo
neon
nep
nepal
neph
neptunus
ner
neraca
neraka
nero
nes
nest
nestor
net
netr
netral
network
neur
neuron
neutron
nev
nevada
never
neville
new
newcastle
news
newton
next
ng
nga
ngab
nganjuk
ngaw
ngawi
nge
ngo
ngr
ngurah
nguyen
nh
nhk
ni
nia
niaga
nias
niat
niatnya
nib
nic
nice
nich
nicholas
nick
nickel
nickelodeon
nico
nicola
nicolas
nie
nielsen
nig
niger
nigeria
night
nih
nik
nikah
nike
nikel
nikmat
nikol
nikotin
nil
nila
nilai
nilainya
nim
nin
nina
ning
ningrat
nini
ninja
nino
nint
nintendo
nio
nip
nippon
nir
nirk
nirkabel
nirlaba
nis
nisan
nish
niss
nissan
nit
nitrat
nitrogen
nixon
niz
nj
nk
nkri
nm
no
nob
nobel
nobunaga
noda
node
noer
nog
nok
nokia
nol
nom
nomin
nominal
nominasi
nomor
non
nona
nonaktif
nong
nons
noor
nop
nopember
nor
nord
norm
norma
normal
norman
normandia
north
norweg
norwegia
nos
not
nota
notaris
notasi
note
nothing
nou
nov
nova
novel
novelis
novelnya
november
novi
now
nowiki
np
nps
npsn
nr
ns
nt
ntb
ntt
nu
nuansa
nubuat
nucle
nug
nugini
nugroho
nuh
nuk
nukle
nuklir
num
number
nun
nunukan
nur
nuran
nurani
nurdin
nurh
nuri
nurul
nus
nusa
nusantara
nut
nutrisi
ny
nya
nyai
nyak
nyala
nyaman
nyamuk
nyany
nyanyian
nyar
nyaris
nyata
nyatanya
nyawa
nyawanya
nyeri
nyi
nyoman
nyonya
o
oak
oasis
ob
obama
obat
obatan
obenberger
ober
objek
objektif
obl
oblast
obligasi
obor
obser
observ
observasi
observatorium
obsesi
obyek
oc
occ
oce
ocean
och
october
od
oda
ode
oed
oet
of
ofensif
off
offic
office
officer
official
og
ogan
oh
ohio
oil
ojek
ok
oka
oki
okin
okinawa
oksid
oksida
oksidasi
oksigen
oktober
ol
olah
olahan
olahraga
old
ole
oleh
olehnya
olga
oli
olig
olimp
olimpiade
oliv
olive
oliver
olivia
olymp
olympi
olympic
om
oman
omar
ombak
ome
omega
omi
on
once
ond
onder
one
ong
ongkos
online
only
onlyinclude
ono
ons
ont
ontario
onthophagus
op
open
oper
opera
operasi
operasinya
operasional
operation
operator
opini
opium
oposisi
opsi
optik
optim
optimal
optimis
optimus
or
ora
oral
orang
orange
orangnya
orangtua
orangtuanya
orangutan
oranye
orbit
orbital
orch
orchestra
orchidaceae
ord
orde
order
ordin
ordo
org
organ
organik
organis
organisasi
organisasinya
organisme
organiz
organization
ori
oricon
orient
oriental
orientalis
orientasi
orig
origin
original
orkes
orkestra
orland
orle
orleans
ormas
orn
ornamen
orth
ortod
ortodoks
os
osaka
oscar
osis
oslo
osman
ost
ot
otak
otentik
oth
other
oto
otom
otomatis
otomotif
otonom
otonomi
otor
otoritas
otoriter
otot
ott
otto
ottoman
ou
our
out
outlet
output
ov
oval
over
ow
owen
own
ox
oxford
oxy
oxyop
oz
ozon
p
pa
pab
pabean
pablo
pabrik
pabrikan
pac
pacar
pacaran
pacarnya
pach
pacific
pacitan
pack
pacu
pad
pada
padahal
padal
padam
padang
padanya
padat
padatan
padepokan
padi
padjad
padjadjaran
padma
padri
paduan
paduka
pag
pagan
pagar
pagaru
pagaruyung
page
pagelaran
pager
pagi
paginya
pagoda
paguy
paguyuban
pah
paha
paham
pahang
pahat
pahatan
pahit
pahlawan
pai
pain
paj
pajajaran
pajak
pajang
pak
pakai
pakaian
pakaiannya
pakan
pakar
pakem
paket
pakis
pakistan
paksa
pakta
paku
pakuan
pakubuwana
pal
pala
palace
palang
palangka
palawija
pale
palem
palembang
paleont
palermo
palest
palestina
pali
paling
palm
palopo
palsu
palu
pam
paman
pamannya
pamekasan
pameran
pamf
pamflet
pamong
pamor
pamp
pamungkas
pan
panah
panama
panas
panc
panca
pancaran
pancasila
panci
pand
panda
pandai
pandan
pandang
pandangan
pandangannya
pandawa
pandeg
pandeglang
pandu
panduan
panel
panembahan
panen
pang
pangan
pangandaran
pangdam
pangeran
pangg
panggang
panggil
panggilan
panggung
pangk
pangkal
pangkalan
pangkat
panglima
pangsa
panicum
panik
panitia
panj
panjaitan
panjalu
panjang
panjangnya
panji
panorama
pans
pant
pantai
pantang
pantas
panther
panti
pantun
pantura
panutan
panzer
paolo
pap
papa
papan
paparan
paper
papirus
papua
par
para
parad
parade
paradi
paradigma
paradoks
paragraf
paragu
paraguay
parah
parahyangan
paral
paralel
param
parameter
paran
parang
paranormal
paras
parasit
parazoa
pard
pare
parepare
parf
parfum
pari
pariaman
parigi
paripurna
paris
parit
pariwisata
park
parker
parkir
parlemen
parlementer
parma
parodi
paroki
parsial
part
partai
partainya
parti
partik
partikel
partisan
partisi
partisipan
partisipasi
partner
party
paru
paruh
pas
pasai
pasal
pasalnya
pasaman
pasang
pasangan
pasangannya
pasar
pasaran
pasc
pasca
pascal
pascap
pascasar
pascasarjana
paser
pasha
pasi
pasien
pasif
pasifik
pasir
pask
paskah
pasokan
paspor
pass
pasta
pasti
pastinya
pastor
pastoral
pasukan
pasukannya
pasundan
pasuruan
pat
patah
patahan
paten
path
pati
patih
patogen
patokan
patri
patriark
patrick
patriot
patriotik
patroli
patron
pattimura
patuh
patung
patungan
patut
paud
paul
paulo
paulus
paus
pav
paw
pawai
pay
paya
payah
payakumbuh
payudara
payung
paz
pb
pbb
pc
pd
pda
pdam
pdb
pdi
pdip
pdt
pe
peace
pear
pearl
peb
pebisnis
pec
pecah
pecahan
pecahnya
pecandu
pecinta
ped
pedagang
pedalaman
pedang
pedas
pedesaan
pedoman
pedro
pedukuhan
peduli
peer
peg
pegang
pegangan
pegaw
pegawai
pegulat
pegunungan
pei
pej
pejabat
pejalan
pejuang
pek
peka
pekal
pekalongan
pekan
pekanbaru
pekar
pekarangan
pekat
pekerj
pekerja
pekerjaan
pekerjaannya
pekon
pel
pela
pelabuhan
pelac
pelacur
pelajar
pelajaran
pelaksana
pelaksanaan
pelaksanaannya
pelaku
pelakunya
pelan
pelancong
pelanggan
pelanggaran
pelangi
pelantikan
pelap
pelapis
pelaporan
pelarangan
pelarian
pelarut
pelat
pelataran
pelatih
pelatihan
pelaut
pelawak
pelay
pelayan
pelayanan
pelayanannya
pelayaran
pelbagai
pele
peleburan
pelec
pelecehan
peledak
pelengkap
pelep
pelepasan
pelestarian
peletakan
peleton
peliharaan
pelindung
pelita
pelopor
pelosok
peluang
pelukis
pelunc
peluncur
peluncuran
peluru
peluruhan
pem
pemad
pemadam
pemadaman
pemahaman
pemain
pemainnya
pemak
pemakai
pemakaian
pemakaman
pemakan
pemalang
pemalsuan
pemalu
peman
pemanasan
pemancar
pemand
pemandangan
pemandian
pemandu
pemanfaatan
pemangku
pemangsa
pemantauan
pemas
pemasangan
pemasaran
pemasok
pemasukan
pematang
pemb
pembac
pembaca
pembacaan
pembacanya
pembagian
pembah
pembaharuan
pembahasan
pembajak
pembajakan
pembakaran
pembal
pembalap
pembalasan
pembangkit
pembangun
pembangunan
pembangunannya
pembantaian
pembantu
pembaruan
pembatalan
pembatas
pembatasan
pembawa
pembayaran
pembebasan
pembedaan
pembedahan
pembekuan
pembel
pembela
pembelaan
pembelahan
pembelajaran
pembeli
pembelian
pemben
pembenahan
pembenaran
pembengk
pembengkakan
pembentuk
pembentukan
pembentukannya
pember
pemberani
pemberantasan
pemberdayaan
pemberh
pemberhentian
pemberi
pemberian
pemberitaan
pemberitahuan
pemberlakuan
pemberontak
pemberontakan
pembersih
pembersihan
pembesar
pembesaran
pembi
pembiayaan
pembicara
pembicaraan
pembimbing
pembina
pembinaan
pembom
pembu
pembuangan
pembuat
pembuatan
pembuatannya
pembubaran
pembuk
pembuka
pembukaan
pembuktian
pembuluh
pembun
pembunuh
pembunuhan
pemburu
pemda
pemec
pemecahan
pemecatan
pemegang
pemekaran
pemelih
pemeliharaan
pemeluk
pemenang
pemenangnya
pementasan
pemenuhan
pemer
pemeran
pemerannya
pemeriksa
pemeriksaan
pemerint
pemerintah
pemerintahan
pemerintahannya
pemerkos
pemerkosaan
pemes
pemesanan
pemetaan
pemicu
pemikir
pemikiran
pemikirannya
pemil
pemilih
pemilihan
pemilik
pemiliknya
pemilu
pemimpin
pemimpinnya
pemin
peminat
pemindahan
pemir
pemirsa
pemisah
pemisahan
pemkab
pemogokan
pemotongan
pemotr
pemotretan
pemrograman
pemrosesan
pemuda
pemujaan
pemuk
pemuka
pemukim
pemukiman
pemukul
pemul
pemula
pemulihan
pemungutan
pemurnian
pemus
pemusik
pemusnahan
pemutar
pemutaran
pen
pena
penafsiran
penahan
penahanan
penak
penakluk
penaklukan
penal
penalaran
penalti
penamaan
penambahan
penambang
penambangan
penampakan
penampilan
penampilannya
penampungan
penanaman
penand
penanda
penandatangan
penandatanganan
penang
penangan
penanganan
penangg
penanggalan
penanggulangan
penanggung
penangkap
penangkapan
penangkaran
penari
penarik
penarikan
penas
penasaran
penasehat
penasihat
penat
penata
penataan
penawaran
penayangan
penc
penca
pencabutan
pencaharian
pencahayaan
pencak
pencakar
pencalonan
pencapaian
pencari
pencarian
pencat
pencatatan
pencegahan
pencemaran
pencerahan
pencern
pencernaan
pencetak
pencetakan
pencetus
pencinta
pencipta
penciptaan
pencitraan
pencucian
penculikan
pencuri
pencurian
pend
pendaftaran
pendahulu
pendahuluan
pendahulunya
pendak
pendaki
pendakian
pendamping
pendanaan
pendapat
pendapatan
pendapatnya
pendarahan
pendaratan
pendatang
pendek
pendekar
pendekatan
pendeknya
pendeng
pendengar
pendengaran
penderita
penderitaan
pendeta
pendiam
pendidik
pendidikan
pendidikannya
pendingin
pendinginan
pendiri
pendirian
pendiriannya
pendirinya
pendopo
pendorong
penduduk
pendudukan
penduduknya
pendukung
pendukungnya
peneb
penebangan
penebusan
peneg
penegak
penegakan
penekanan
penel
peneliti
penelitian
penelitiannya
penelusuran
penemb
penembak
penembakan
penempatan
penemu
penemuan
penemuannya
penentang
penentangan
penentu
penentuan
pener
penerangan
penerapan
penerbang
penerbangan
penerbit
penerbitan
penerim
penerima
penerimaan
penerj
penerjemah
penerjemahan
penerus
penerusnya
penet
penetapan
penetrasi
peng
pengab
pengabdian
pengacara
pengadaan
pengadilan
pengairan
pengajar
pengajaran
pengajian
pengajuan
pengakuan
pengalaman
pengalamannya
pengalihan
pengaman
pengamanan
pengamat
pengamatan
pengamb
pengambil
pengambilalihan
pengambilan
pengamp
pengampunan
pengan
pengangg
pengangguran
pengangkatan
pengangkut
pengangkutan
penganiayaan
pengantar
pengantin
penganug
penganugerahan
penganut
pengap
pengarah
pengarahan
pengarang
pengaruh
pengaruhnya
pengas
pengasingan
pengasuh
pengatur
pengaturan
pengaw
pengawal
pengawas
pengawasan
pengeb
pengebom
pengeboman
pengeboran
pengec
pengecualian
pengej
pengejaran
pengel
pengelola
pengelolaan
pengelompokan
pengeluaran
pengem
pengemb
pengembalian
pengembang
pengembangan
pengembara
pengemis
pengemudi
pengenal
pengenalan
pengend
pengendali
pengendalian
pengendara
pengep
pengepungan
penger
pengeras
pengeringan
pengerjaan
pengertian
pengesahan
pengetahuan
pengetahuannya
pengg
penggabungan
penggagas
penggalangan
penggalian
penggambaran
pengganti
penggantian
penggantinya
penggemar
penggemarnya
penggemb
pengger
penggerak
penggilingan
penggun
pengguna
penggunaan
penggunaannya
penggunanya
pengh
penghakiman
penghalang
penghambat
penghancuran
penghapusan
penghargaan
penghasil
penghasilan
penghematan
penghentian
penghibur
penghilangan
penghinaan
penghitungan
penghormatan
penghubung
penghujan
penghujung
penghukum
penghulu
penghuni
penghuninya
pengikat
pengikut
pengikutnya
pengin
penginapan
penginj
penginjil
penginjilan
pengintai
pengir
pengirim
pengiriman
pengiring
pengisi
pengisian
pengk
pengkajian
pengkh
pengkhian
pengkhianat
pengkhianatan
pengkhotbah
pengl
penglihatan
pengobatan
pengolah
pengolahan
pengoperasian
pengorbanan
pengrajin
pengu
penguasa
penguasaan
penguat
penguatan
pengubahan
penguburan
penguc
pengucapan
penguin
pengujian
pengukuran
pengulangan
pengumpul
pengumpulan
pengumuman
pengund
pengundian
pengunduran
pengungk
pengungkapan
pengungsi
pengungsian
pengunjuk
pengunjung
pengur
pengurangan
pengurus
pengus
pengusaha
pengusiran
peni
penik
penilaian
penind
penindasan
peninggalan
peningkatan
peninjauan
penip
penipuan
penis
penj
penjabat
penjaga
penjagaan
penjahat
penjajah
penjajahan
penjara
penjarahan
penjelajah
penjelajahan
penjelasan
penju
penjual
penjualan
penjualannya
penjuru
penn
pennsylvania
penobatan
penolakan
penolong
penom
penomoran
penonton
penopang
pens
pensi
pensil
pensiun
pensiunan
pent
pentak
pentakosta
pentas
penting
pentingnya
penu
penuaan
penugasan
penuh
penul
penularan
penulis
penulisan
penulisnya
penump
penumpang
penundaan
penunjang
penunjuk
penunjukan
penuntut
penurunan
penutup
penutupan
penutur
penuturan
peny
penya
penyair
penyajian
penyakit
penyakitnya
penyal
penyalah
penyalahgunaan
penyaluran
penyam
penyambutan
penyampaian
penyandang
penyangga
penyanyi
penyaringan
penyatuan
penyayang
penye
penyebab
penyebabnya
penyebar
penyebaran
penyeberangan
penyebutan
penyed
penyedia
penyediaan
penyel
penyelam
penyelamat
penyelamatan
penyelengg
penyelenggara
penyelenggaraan
penyeles
penyelesaian
penyelidik
penyelidikan
penyelund
penyelundupan
penyem
penyembahan
penyembuhan
penyempurnaan
penyer
penyerahan
penyerang
penyerangan
penyerapan
penyerbuan
penyergapan
penyesalan
penyesuaian
penyewa
penyewaan
penyi
penyiar
penyiaran
penyidik
penyihir
penyiksaan
penyimp
penyimpanan
penyimpangan
penyisihan
penyu
penyul
penyuluhan
penyumbang
penyunting
penyuntingan
penyus
penyusun
penyusunan
penyutradaraan
people
pep
pepatah
pepaya
peperangan
pepohonan
per
perab
perabotan
peradaban
peradangan
peradilan
peraga
perah
perahu
peraih
perairan
perak
perakitan
peral
peralatan
peralihan
peramp
perampok
perampokan
peran
peranakan
peranan
perancang
perancangan
perancis
perang
perangkap
perangkat
perannya
perantara
perantaraan
perantau
perantauan
peranti
perasaan
perasaannya
peraturan
perawan
perawat
perawatan
perayaan
perb
perbaikan
perbandingan
perbankan
perbatasan
perbedaan
perbedaannya
perbekalan
perbel
perbelanjaan
perbendaharaan
perbincangan
perbuatan
perbuatannya
perbud
perbudakan
perbuk
perbukitan
perburuan
perc
percabangan
percakapan
percampuran
percaya
percepatan
perceraian
percetakan
percikan
percintaan
percobaan
percont
percontohan
perd
perda
perdagangan
perdamaian
perdan
perdana
perdananya
perdarahan
perdata
perdebatan
perdesaan
perebutan
pered
peredaran
perek
perekat
perekonomian
perekrutan
peremp
perempat
perempatan
perempuan
perempuannya
perencana
perencanaan
peresmian
perez
perf
perfect
perfilman
perform
performa
performance
perg
perga
pergantian
pergaulan
pergelangan
pergelaran
pergerakan
perges
pergeseran
pergi
pergolakan
perguruan
perh
perhatian
perhatiannya
perhatikan
perhelatan
perhentian
perhi
perhiasan
perhimpunan
perhitungan
perhubungan
perhutani
peri
perib
peribad
peribadatan
peribahasa
perihal
perik
perikan
perikanan
periklanan
peril
perilaku
perilakunya
perilisan
perincian
perindustrian
pering
peringatan
peringkat
perintah
perintis
period
periode
periodik
peris
perisai
peristirahatan
peristiwa
perizinan
perj
perjalan
perjalanan
perjalanannya
perjamuan
perjanjian
perjuangan
perjuangannya
perjudian
perk
perkakas
perkampungan
perkan
perkantoran
perkap
perkara
perkasa
perkataan
perkawinan
perkebunan
perkelah
perkelahian
perkemahan
perkembangan
perkembangannya
perkenalan
perker
perkereta
perkeretaapian
perkiraan
perkotaan
perkuliahan
perkumpulan
perkusi
perl
perlahan
perlakuan
perlawanan
perlengkapan
perlindungan
perlintasan
perlombaan
perlu
perluasan
perlunya
perm
permain
permainan
permainannya
permais
permaisuri
perman
permanen
permas
permasalahan
permata
permen
permesta
permintaan
permintaannya
permohonan
permuk
permukaan
permukaannya
permukiman
permulaan
permus
permusuhan
permusyawar
permusyawaratan
pern
pernah
pernapasan
perniagaan
pernik
pernikahan
pernikahannya
pernyataan
pernyataannya
perokok
peroleh
perolehan
perombakan
perompak
peron
perorangan
perp
perpaduan
perpajakan
perpanjangan
perpecahan
perpindahan
perpisahan
perpustakaan
perputaran
perry
pers
persa
persah
persahabatan
persaingan
persalinan
persamaan
persatu
persatuan
persaudaraan
persawahan
perse
persebaran
persebaya
persediaan
persegi
persek
persekutuan
persel
perselingkuhan
perselisihan
persem
persemakmuran
persembahan
persembunyian
persen
persenjataan
persentase
perseorangan
persep
persepsi
perserikatan
persero
perseroan
perseteruan
persetujuan
persi
persia
persiapan
persib
persidangan
persija
persik
persilangan
persimpangan
persingg
persinggahan
persipura
persis
perso
persoalan
person
persona
personal
personel
personil
perspektif
persyar
persyaratan
pert
pertahanan
pertahun
pertama
pertamanya
pertambahan
pertambangan
pertamina
pertanahan
pertanda
pertandingan
pertanggungjawab
pertanggungjawaban
pertanian
pertanya
pertanyaan
pertapa
pertapaan
pertar
pertarungan
pertemanan
pertempuran
pertemuan
pertemuannya
pertengahan
pertengk
pertengkaran
pertentangan
perth
perti
pertiga
pertigaan
pertikaian
pertimbangan
pertiwi
pertobatan
pertokoan
pertolongan
pertuk
pertukaran
pertumbuhan
pertumbuhannya
pertunjukan
pertunjukkan
peru
perubahan
perum
perumahan
perump
perumpamaan
perumusan
perund
perundang
perundingan
perunggu
perus
perusahaan
perusahaannya
perusahan
perusak
perut
perutnya
perw
perwakilan
perwalian
perwira
perwujudan
pes
pesaing
pesaingnya
pesan
pesanan
pesanggrahan
pesantren
pesat
pesawat
peserta
pesi
pesisir
pesona
pesta
pestisida
pet
peta
petak
petang
petani
petarung
pete
petenis
peter
petern
peternak
peternakan
petersburg
peti
petinggi
petinju
petir
petisi
petr
petra
petro
petrol
petroleum
petron
petrov
petrus
petual
petualang
petualangan
petugas
petunjuk
pew
pewaris
pewarna
pewarta
pewayangan
peziarah
pf
pg
pgri
ph
phd
phil
philadel
philadelphia
philip
philipp
philippe
phill
phillip
phillips
philos
pho
phoenix
phone
phot
php
phy
physic
phyt
phytomyza
pi
pia
piagam
piala
pian
pianis
piano
piatu
pic
pick
picture
pictures
pid
pidana
pidato
pidatonya
pidie
pier
pierre
piet
pieter
pig
pigmen
pihak
pij
pijakan
pik
pikir
pikiran
pikirannya
pil
pilar
pilih
pilihan
pilihannya
pilk
pilkada
pilot
pimpin
pimpinan
pin
pinang
pind
pindah
ping
pingg
pinggang
pinggir
pinggiran
pings
pingsan
pinjaman
pink
pint
pintar
pintu
pinus
pinyin
pion
pionir
pip
pipa
pipi
pir
piramida
piring
piringan
pis
pisa
pisah
pisang
pisau
pist
pistol
piston
pit
pita
pitt
pius
pix
pizza
pj
pk
pkb
pki
pkk
pks
pl
plac
place
plagi
plan
planet
planetisimal
plankton
plant
plas
plasma
plasmod
plastik
plat
platform
platinum
plato
play
playboy
player
playstation
plaza
ple
pleno
pln
plo
plot
plt
plta
plug
plur
pluralisme
plus
plut
pluto
pm
pmi
pn
pnb
pneum
pneumonia
pni
pns
po
poales
poc
pock
pocong
pod
podium
pog
poh
pohon
poin
point
pojok
pok
pokemon
pokok
pol
pola
polandia
polar
polda
pole
polemik
polen
poli
polic
police
policy
polimer
polin
polinesia
polis
polisi
polit
politeknik
political
politik
politiknya
politikus
politis
politisi
poll
polo
polos
polres
polri
polusi
poly
pom
pomp
pompa
pon
pond
pondasi
pondok
pong
ponorogo
pons
ponsel
pont
pontianak
pop
popul
popular
popularitas
populasi
populasinya
populer
por
pori
porifera
porno
pornografi
poros
porsi
port
portal
porto
portofolio
ports
portsmouth
portug
portugal
portugis
pos
pose
posisi
posisinya
positif
position
poso
post
poster
postur
posy
posyandu
pot
potensi
potensial
potent
potentilla
potong
potongan
potret
potter
pound
pow
powell
power
pp
ppi
ppm
ppp
pps
pr
pra
prab
prabowo
prabu
prac
prad
pradesh
prag
praha
praj
praja
prajurit
prak
prakarsa
praktek
praktik
praktiknya
praktis
praktisi
pram
pramb
prambanan
pramoed
pramoedya
pramuka
pran
pranala
prancis
prangko
pras
prasangka
prasar
prasarana
prasasti
prasej
prasejarah
praset
prat
pratama
praw
pray
pre
prec
pred
predator
predikat
prediksi
pref
prefektur
preferensi
prek
prel
prem
preman
premi
premier
premis
premium
prep
pres
present
presentasi
presenter
presiden
presidensial
president
presidium
presley
press
prest
prestasi
prestasinya
pret
pretty
prev
pri
pria
priangan
prib
pribadi
pribadinya
pribumi
price
priest
prihatin
prim
prima
primata
prime
primer
primitif
primordi
primordial
princ
prince
princess
princeton
princip
pring
prinsip
prinsipnya
printer
priok
prioritas
pris
priv
privasi
privat
private
privatisasi
prix
priya
prize
pro
probabilitas
probl
problem
probolinggo
proc
process
prod
prodi
produc
product
production
productions
produk
produknya
produksi
produksinya
produktif
produktivitas
produs
produsen
produser
prof
profes
profesi
profesional
profesionalnya
profesor
professional
professor
profil
profit
progo
program
programmer
progresif
progress
project
projek
prok
proklamasi
prolet
prom
promo
promosi
promotor
prop
propag
propaganda
proper
properti
propinsi
proporsi
proporsional
proposal
proposisi
pros
prosa
prosedur
proses
prosesi
prosesnya
prosesor
prosop
prospek
prostitusi
prot
protagonis
protection
protein
proteksi
protes
protestan
proto
protocol
protokol
proton
prototipe
prov
provinsi
proyek
proyeksi
proyektil
prri
prusia
ps
pse
pseud
psi
psik
psiki
psikiater
psiko
psikolog
psikologi
psikologis
psis
psm
psms
pssi
psych
psychotria
pt
pter
pterolophia
ptol
pu
puak
puas
puasa
pub
publ
public
publik
publikasi
publish
publishing
puc
pucat
pucuk
pud
puerto
pug
puing
puisi
puisinya
puj
pujangga
puji
pujian
puk
pukul
pukulan
pul
pula
pulang
pulau
pulih
pulo
pulp
pulsa
puluh
puluhan
pun
punah
punc
puncak
puncaknya
pung
pungg
punggung
punggungnya
punj
punk
punya
pup
pupuk
pur
pura
purba
purbakala
purbal
purbalingga
puri
purn
purnama
purnawirawan
purw
purwakarta
purwodadi
purwokerto
purworejo
pus
pusaka
pusat
pusatnya
pusdik
push
pusing
puskesmas
pusp
puspa
pustaka
pustakawan
put
putar
putaran
putera
puteranya
puteri
putih
putin
putr
putra
putranya
putri
putrinya
putu
putus
putusan
pv
pw
py
pyongyang
pyth
q
qa
qad
qaeda
qatar
qi
qian
qin
qing
qs
qu
quad
quality
quan
quar
qub
qud
que
quebec
queen
queens
queensland
qui
quick
quo
qur
quraisy
quran
r
ra
rab
raba
rabbi
rabi
rabu
rac
race
rach
rachel
rachman
rachmat
racing
racun
rad
radang
radar
raden
radi
radiasi
radikal
radio
radioaktif
radius
raf
rafael
raff
raffles
rag
raga
ragam
ragu
rah
rahang
rahardjo
rahasia
rahayu
rahib
rahim
rahman
rahmat
rahwana
rai
raid
raider
raih
raihan
rail
rain
rais
raj
raja
rajab
rajanya
rajawali
rajin
rajo
rak
rakai
rakit
raks
raksa
raksasa
rakyat
rakyatnya
ral
ralph
ram
rama
ramad
ramadan
ramadhan
ramah
ramai
ramalan
ramayana
ramb
rambu
rambut
rambutan
rambutnya
ramon
ramos
ramp
rampasan
ramping
rampung
ramuan
ran
rana
ranah
ranc
rancangan
rand
random
randy
rang
range
rangers
rangga
rangk
rangka
rangkaian
rangkap
rangkas
rangsangan
rani
ranj
ranjang
ranjau
rank
ranking
rano
rans
rantai
rantau
ranting
rao
rap
rapat
rapi
rapid
rapper
rapuh
rara
ras
rasa
rasanya
rashid
rasi
rasial
rasio
rasional
rasis
rasisme
rasul
rasulullah
rasyid
rat
rata
rate
ratih
rating
ratio
ratna
ratu
ratulangi
ratus
ratusan
raul
rav
raw
rawa
rawan
rawas
rawat
ray
raya
rayap
raymond
rayon
raz
razak
rb
rc
rcti
rd
re
read
reader
reading
reagan
reak
reaksi
reaktif
reaktor
real
realis
realisasi
realisme
realistis
realitas
reality
reb
rebana
rebo
rebound
rebus
rec
rece
record
records
red
redaksi
redaktur
reduksi
redup
ref
refer
referendum
referensi
refl
refleksi
reform
reformasi
reformis
reg
regenerasi
regi
regina
region
regional
register
registr
registrasi
regnum
regu
regular
regulasi
regulator
reguler
reh
rehabilitasi
reich
rein
reinkarnasi
rej
rejang
rejo
rek
rekam
rekaman
rekan
rekannya
rekayasa
rekening
reklamasi
rekomendasi
rekonsiliasi
rekonstruksi
rekor
rekreasi
reks
rektor
rel
rela
relasi
relatif
relations
relativ
relativitas
relawan
release
relevan
reli
relief
religi
religius
relik
relokasi
rem
remaja
remb
rembang
remix
remote
remp
rempah
ren
rena
renaisans
renaissance
renang
renault
rencana
rencananya
rendah
rendahnya
rendra
rene
reng
reno
renovasi
rent
rentan
rentang
rentetan
reog
rep
repl
replika
repor
report
reporter
repres
represent
representasi
representatif
reproduksi
reptil
republ
republic
republik
republika
reput
reputasi
rer
reruntuhan
res
resc
rescue
research
resep
resepsi
reseptor
reser
reserse
reserve
resesi
resi
residen
residu
resimen
resin
resistensi
resm
resmi
resminya
resolusi
resor
resort
resour
resources
resp
respon
responden
respons
restoran
restorasi
restrukturisasi
restu
ret
retail
retak
retina
retno
retor
retorika
retri
return
reuni
rev
review
revisi
revol
revolusi
revolusioner
revolution
rew
rex
rey
reyn
rez
reza
rezim
rf
rh
rhein
rhod
rhododendron
rhoma
ri
ria
rian
riang
rias
riau
rib
ribu
ribuan
ribut
ric
ricardo
rice
rich
richard
richards
richter
rick
ricky
rico
rid
rider
ridho
ridwan
rif
rig
right
rights
rihan
rihanna
riil
rij
rika
riko
rilis
rim
rima
rimba
rin
rina
rinci
rincian
rind
rindu
ring
ringan
ringk
ringkas
ringkasan
rini
rint
rintangan
rintisan
rio
rip
ris
risalah
riset
risiko
rit
rita
ritel
ritme
ritual
ritus
riv
rival
river
riwayat
riyad
riyadh
riyadi
riyanto
riz
riza
rizal
rizky
rm
rms
rn
rna
ro
road
rob
robbie
robby
robert
roberto
roberts
robin
robinson
roboh
robot
roc
roch
rock
rod
roda
rodrig
rodriguez
roes
rog
roger
rogers
roh
rohani
rohaniwan
rok
rokan
roket
rokok
rol
role
roll
rolling
rom
roma
roman
romansa
romantis
romawi
rombongan
romeo
romo
romp
ron
ronal
ronald
ronaldo
ronde
rong
rongga
ront
room
rooney
roose
roosevelt
root
roro
ros
rosa
rosario
rose
ross
rossa
rossi
rot
rotan
rotasi
rote
roth
roti
rotten
rotterdam
round
rov
rovers
row
rowling
roy
royal
royalti
royong
rp
rpm
rri
rrt
rs
rss
rsud
rt
ru
ruang
ruangan
ruas
rub
rubah
ruben
rubiaceae
rubrik
rud
rudal
rudi
rudolf
rudy
ruf
rug
rugi
ruh
rui
rujukan
ruk
rukun
rul
rum
rumah
rumahan
rumahnya
rumania
rumit
rumor
rumpun
rumput
rumus
rumusan
run
runcing
runner
runtuh
runtuhnya
rup
rupa
rupanya
rupiah
rus
rusa
rusak
rush
rusia
rusli
russell
russia
rusuk
rut
rute
ruth
rutin
ruu
rw
rwanda
ry
ryan
ryu
ryuk
s
s1
s2
sa
saat
saatnya
sab
saba
sabah
sabang
sabar
sabat
sabda
sabit
sabtu
sabu
sabuk
sabun
sac
sach
sachsen
sad
sadar
saddam
saf
safari
safety
sag
saga
sagu
sah
sahabat
sahabatnya
saham
sahamnya
sahara
sai
said
saif
sail
sain
saing
saingan
saingannya
sains
saint
saintifik
saj
saja
sajak
saji
sajian
sak
saka
sakit
sakral
sakram
sakramen
saks
saksi
sakti
saku
sakura
sal
sala
salafi
salah
salahuddin
salak
salam
salat
salatiga
saleh
sales
sali
salib
salim
salinan
saling
salju
salman
salmon
salomo
salon
saltic
salticidae
saluran
salv
salvador
salvia
sam
sama
samad
saman
samar
samaran
samaria
samarinda
samb
samba
sambal
sambas
sambil
sambung
sambungan
sambutan
same
sami
samosir
samp
sampah
sampai
sampang
sampel
samping
sampingan
sampingnya
sampo
sampoerna
sampul
sams
samsung
samud
samudera
samudra
samuel
samurai
san
sana
sanak
sanalah
sanc
sanch
sanchez
sand
sandal
sandang
sandera
sandi
sandiwara
sandra
sandy
sang
sanga
sangat
sangatlah
sangg
sanggar
sanggau
sanggup
sangha
sanghyang
sangihe
sangk
sangkar
sani
sanitasi
sanj
sanjaya
sank
sanksi
sans
sansekerta
sansk
sanskerta
sant
santa
santai
santan
santi
santiago
santo
santos
santoso
santri
santun
sanusi
sao
sap
sapaan
sapi
sapta
sapu
saputra
sar
sara
saraf
sarah
saran
sarana
sarang
sarapan
saras
sarat
sarawak
sard
sardinia
sari
sarjana
sark
sars
sarung
sas
sasak
sasaran
sastr
sastra
sastrawan
sasuke
sat
sate
satelit
satell
satellite
satgas
sati
satria
satu
satuan
satunya
satupun
satur
saturday
saturn
saturnus
satwa
satya
saud
saudagar
saudara
saudaranya
saudari
saudarinya
saudi
saul
saur
saus
sav
save
saw
sawah
sawahlunto
sawit
sax
saxon
say
saya
sayang
sayangnya
sayap
sayapnya
sayembara
sayur
sayuran
sayyid
sb
sbb
sbs
sby
sc
scan
scar
scara
scarabaeidae
scene
sch
schl
schmid
school
schum
schumacher
schw
schwar
sci
science
sciences
scientific
scope
scor
scot
scott
scre
screen
script
sctv
scud
sd
sdm
sdn
se
sea
seakan
sean
seand
seandainya
seantero
searah
search
season
seat
seattle
seb
sebab
sebabnya
sebagai
sebagaimana
sebagainya
sebagi
sebagian
sebaik
sebaiknya
sebaliknya
sebanding
sebanyak
sebaran
sebastian
sebatang
sebatas
sebel
sebelah
sebelas
sebelum
sebelumnya
seben
sebenarnya
sebentar
seberang
seberapa
seberat
sebesar
sebetul
sebetulnya
sebidang
sebuah
sebulan
sebut
sebutan
sec
secara
secepat
secepatnya
second
secret
section
secur
security
sed
sedan
sedang
sedangkan
sedekah
sedemikian
seder
sederajat
sederhana
sedih
sedikit
sedikitnya
sedimen
sedunia
see
seed
seekor
seg
segala
segalanya
segan
segar
segel
segelintir
segenap
segera
segi
segitiga
segmen
seh
sehar
seharga
sehari
seharusnya
sehat
sehingga
sehubungan
sei
seimbang
seine
seiring
seism
sej
sejahtera
sejajar
sejak
sejalan
sejarah
sejarahnya
sejarahwan
sejarawan
sejati
sejatinya
sejauh
sejawat
sejenak
sejenis
sejenisnya
sejuk
sejumlah
sejuta
sek
sekadar
sekali
sekalian
sekaligus
sekalipun
sekar
sekarang
sekarat
sekat
sekelas
sekeliling
sekelilingnya
sekelompok
sekembalinya
seker
seketika
sekian
sekilas
sekira
sekitar
sekitarnya
sekjen
sekolah
sekolahnya
sekret
sekretariat
sekretaris
seks
seksi
seksual
seksualitas
sekte
sektor
seku
sekuat
sekuel
sekularis
sekuler
sekumpulan
sekunder
sekur
sekurang
sekuritas
sekutu
sekutunya
sel
sela
selagi
selain
selaku
selalu
selam
selama
selamanya
selamat
selandia
selang
selangor
selanjutnya
selaput
selaras
selasa
selat
selatan
selayaknya
seleb
selebar
selebaran
selebihnya
selebr
selebriti
seleksi
selektif
selembar
selendang
selepas
selera
seles
selesai
selesainya
seleuk
self
selim
selir
selisih
selo
selokan
seluas
seluler
seluruh
seluruhnya
sem
semacam
semak
semakin
semalam
semang
semangat
semanggi
semar
semarang
semasa
semata
semb
sembah
sembahyang
sembar
sembarang
sembarangan
sembari
sembilan
semboyan
sembuh
sembunyi
semburan
semen
semenanjung
semenjak
sementara
semest
semesta
semester
semestinya
semi
semif
semifinal
semikonduktor
semin
seminar
seminari
seminggu
semiperairan
semisal
semit
semoga
semp
sempat
sempit
sempurna
semu
semua
semuanya
semula
semut
sen
senam
senang
senanti
senantiasa
senapan
senar
senat
senator
senayan
send
sendang
sendi
sendiri
sendirian
sendirinya
sendok
senecio
senegal
senen
seng
sengaja
sengit
sengk
sengketa
sengsara
seni
senilai
seniman
senin
senior
seniornya
senja
senjata
senjatanya
senna
seno
senopati
sens
sensasi
sense
sensitif
sensor
sensus
sent
sentai
sentimen
sentimeter
sentr
sentra
sentral
sentuh
sentuhan
senya
senyawa
senyum
seo
seok
seolah
seorang
seorangpun
seoul
sep
sepak
sepakat
sepakbola
sepanjang
separ
separatis
separuh
sepasang
sepat
sepatu
sepeda
sepen
sepengetahuan
sepeninggal
sepenuhnya
seper
seperangkat
seperempat
seperti
sepertiga
sepertinya
sepi
sepihak
sepotong
september
septu
septuag
septuaginta
sepucuk
sepuh
sepulang
sepuluh
sepup
sepupu
sepupunya
sepur
seputar
ser
seragam
serah
seram
serambi
serang
serangan
serangannya
serangga
serangkaian
serapan
serat
seratus
seraya
serba
serbaguna
serbia
serbu
serbuan
serbuk
serd
serdadu
serdang
seremoni
seremonial
serentak
serge
sergio
seri
serial
seribu
serie
series
serigala
serikat
sering
seringk
seringkali
seringnya
serius
serp
serpihan
serpong
sersan
serta
sertifikasi
sertifikat
seru
seruan
serum
serumpun
serupa
serv
server
service
services
servis
ses
sesaat
sesaji
sesak
sesama
sesamp
sesampainya
sesar
sesat
sese
sesekali
seseorang
sesepuh
sesi
sesosok
sesu
sesuai
sesuatu
sesudah
sesudahnya
sesungg
sesungguhnya
set
setahun
setan
setapak
setara
setebal
setelah
setelahnya
setempat
setengah
setengahnya
seter
seterusnya
seti
setia
setiap
setiawan
setibanya
setidak
setidaknya
setim
setimnya
setinggi
setingkat
seto
setting
setuju
setya
seukuran
seumur
seung
seusai
sev
seven
sever
sevilla
sew
sewa
sewaan
sewaktu
sewenang
sex
sey
sezaman
sf
sg
sh
sha
shab
shad
shadow
shah
shahih
shakes
shakespe
shakespeare
shal
shalat
shall
sham
shan
shang
shanghai
shar
sharing
sharon
shaw
shay
she
shef
sheffield
sheikh
sheila
shek
shel
shell
shen
sheng
sher
shev
shi
shield
shig
shih
shik
shim
shin
shinta
shinto
ship
shir
shire
sho
shock
shogun
shol
sholat
shonen
shop
short
shot
show
shu
shun
shut
si
sia
siaga
siak
sial
siam
sian
siang
siantar
siap
siapa
siapakah
siapapun
siar
siaran
siasat
siau
sib
siber
siberia
sibol
sibolga
sibuk
sic
sich
sid
sidang
side
sidik
sidney
sido
sidoarjo
sie
siena
sierra
sif
sifat
sifatnya
sig
sigit
sign
signal
signif
signifikan
sih
sihir
sij
sik
sikap
sikapnya
sikh
sikka
siklus
siksaan
siku
sil
sila
silam
silang
silat
silih
silik
silikon
silinder
siliwangi
silla
silsilah
siluman
silv
silva
silver
sim
sima
simalungun
simbol
simbolik
simbolis
sime
simetris
simf
simon
simp
simpan
simpanan
simpang
simpat
simpati
simpatisan
simple
simpson
simpsons
simpul
simul
simulasi
simultan
sin
sina
sinag
sinaga
sinai
sinar
sind
sindang
sindikat
sindrom
sinema
sinemat
sinetron
sing
singa
singap
singapore
singapura
singel
singg
singgah
singh
singk
singkat
singkatan
singkatnya
singkawang
singkil
singkong
single
sini
sinilah
sink
sinkron
sinode
sinonim
sint
sinta
sintang
sintesis
sintetis
sinyal
sip
sipil
siprus
siput
sir
sira
siregar
siri
siria
sirih
sirip
sirkuit
sirkulasi
sirkus
siro
sis
sisa
sisanya
sisi
sisik
sisilia
sisinya
sistem
sistematis
sistemik
sister
siswa
siswanya
siswi
sit
sita
site
siti
sitkom
situ
situasi
situbondo
situlah
situs
siv
siwa
six
size
sj
sja
sjah
sjahrir
sk
skadron
skala
skand
skandal
skandinavia
skema
sken
skenario
skep
skeptis
sket
sketsa
ski
skill
skin
skor
skot
skotlandia
skrip
sks
skt
skuadron
skuat
sky
sl
slam
slamet
slank
slav
slavia
sle
sleman
slip
slogan
slot
slov
slovenia
slowakia
slta
sltp
sm
sma
small
sman
smart
smith
smk
smp
smpn
sms
smu
sn
sno
snow
so
soal
sob
soc
socc
soccer
soci
social
society
sod
soe
soeb
soed
soedar
soedirman
soeh
soeharto
soek
soekar
soekarno
soekarnoputri
soem
soen
soep
soer
soet
soew
sof
sofia
soft
software
sofyan
sog
soh
sok
sol
solar
soleh
solid
solidaritas
solo
solok
solomon
solusi
som
somalia
sombong
some
something
son
sond
song
songs
sonny
sony
soo
sop
sopan
soph
sophia
sophie
sopir
sor
sora
sore
sorga
sorong
sorotan
sorry
sos
sosi
sosial
sosialis
sosialisasi
sosialisme
sosialnya
sosio
sosiolog
sosiologi
sosok
soto
sou
soul
sound
soundtrack
sour
source
south
southern
sov
soviet
sp
spa
space
spanduk
spanyol
spar
sparta
spasial
spe
speaker
spec
special
species
speed
spek
spektak
spektakuler
spektr
spektrum
spekulasi
spencer
sperma
spesi
spesial
spesialis
spesialisasi
spesies
spesifik
spesifikasi
spesimen
spi
spider
spin
spion
spir
spiral
spiri
spirit
spiritual
spiritualitas
spl
spo
spong
spongebob
spons
sponsor
spontan
spor
spora
sport
sporting
sports
spot
spp
spr
spring
spy
sq
squ
squar
square
squid
squidward
sr
sragen
sri
sriwijaya
ss
st
sta
stabil
stabilitas
stade
stadi
stadion
stadium
staf
staff
stafnya
stage
stain
stalin
stam
stamford
stan
stand
standar
standard
standardisasi
stanford
stanley
star
starbuck
stars
start
starter
stasi
stasiun
stat
state
states
station
statis
statistik
statistika
status
statusnya
ste
steel
stef
stefan
stein
stella
stem
sten
step
steph
stephan
stephen
ster
stereo
stern
stev
steve
steven
stew
stewart
sti
stic
stie
stik
still
stim
stimulus
stir
stm
sto
stock
stockholm
stok
stoke
stone
stop
stor
store
storm
story
str
stra
strat
strata
strateg
strategi
strategic
strategis
stream
streaming
street
stres
stress
strike
striker
string
strip
stroke
strong
struc
struktur
struktural
stt
stu
stuart
stud
student
studi
studies
studinya
studio
studios
study
stupa
stur
stutt
stuttgart
sty
style
su
suaka
suami
suaminya
suap
suar
suara
suaranya
suasana
suatu
sub
subang
subd
subianto
subjek
subk
subregnum
subroto
subs
subsidi
subspesies
substansi
substansial
substrat
subuh
subur
subyek
suc
succ
such
suci
sud
sudah
sudan
sudarso
sudirman
sudut
suf
suff
suffragan
sufi
sufyan
sug
sugi
suh
suharto
suhu
sui
suit
suite
suj
sujud
suk
suka
sukabumi
sukacita
sukam
sukan
sukar
sukarela
sukarelawan
sukarno
sukhoi
sukma
sukoharjo
sukses
suksesi
suku
sul
sula
sulaiman
sulap
sulawesi
sulf
sulfat
sulfur
suling
sulis
sulit
sulitnya
sull
sullivan
sultan
sulu
sulung
sulungnya
sum
suma
suman
sumar
sumat
sumatera
sumatra
sumba
sumbang
sumbangan
sumbangsih
sumbar
sumbawa
sumber
sumberdaya
sumbernya
sumbu
sumedang
sumenep
sumeria
summer
sumo
sumpah
sumsum
sumur
sun
sunan
sunat
sund
sunda
sunday
sunderland
sung
sungai
sungguh
sungk
sunnah
sunni
sunny
suntikan
sunyi
sup
supaya
super
superi
superior
superman
supermarket
supern
supers
suplai
suplemen
suporter
supp
supply
suppor
support
supr
supran
supranatural
supremasi
supri
sur
sura
surabaya
surah
surakarta
suram
surat
suratnya
surau
surga
surgawi
suri
suriah
surin
suriname
suro
surut
surv
survei
survey
survival
surya
suryani
suryo
sus
susah
susan
susi
susilo
susp
suspensi
suster
susu
susulan
susun
susunan
sut
suta
sutan
sutera
sutra
sutradara
suv
suw
suz
suzuki
sv
sw
swa
swadaya
swalayan
swan
swas
swasembada
swasta
swedia
sweet
swift
swiss
switch
swt
sy
sya
syaf
syafi
syah
syahadat
syahid
syaikh
syair
syam
syams
syamsul
syar
syarat
syari
syariah
syariat
syarif
sybra
syd
sydney
sye
syeikh
syekh
syi
syiah
syl
sylv
syn
syria
system
systems
syukur
syuting
sz
t
ta
taat
tab
tabanan
tabel
tabi
table
tablet
tabloid
tabrakan
tabu
tabung
tabungan
tac
tad
tadi
tadinya
tae
tafsir
tafsiran
tag
tagihan
tah
tahan
tahanan
tahap
tahapan
tahir
tahta
tahu
tahun
tahunan
tahunnya
tai
tail
taipei
tais
taiwan
taj
tajam
tajik
tajuk
tak
taka
takdir
take
takhta
takluk
taks
taksi
taksonomi
taktik
taktis
takut
tal
tala
talang
talaud
talent
talenta
tali
taliban
talk
tall
talmud
tam
tama
taman
tamat
tamb
tambah
tambahan
tambak
tambang
tami
tamil
tamp
tampak
tampaknya
tampan
tampil
tampilan
tampuk
tamu
tan
tana
tanah
tanahnya
tanam
tanaman
tand
tanda
tandang
tandingan
tanduk
tang
tangan
tangani
tangannya
tangerang
tangg
tangga
tanggal
tangganya
tanggap
tanggapan
tangguh
tanggul
tanggung
tangk
tangkai
tangkap
tangkapan
tangki
tangkis
tani
tanj
tanjakan
tanjung
tanjungpinang
tank
tanker
tanpa
tant
tantangan
tante
tany
tanya
tanz
tanzania
tao
tap
tapa
tapak
tapal
tapan
tapanuli
tape
tapi
taq
tar
tara
taraf
tarakan
tarbiyah
tarekat
target
tari
tarian
tarif
tarik
tarikh
taring
taruhan
taruman
taruna
tas
tasaw
tasawuf
tasik
tasikmalaya
task
tat
tata
tatan
tatanan
tatap
tatar
tatkala
tato
tau
taufan
taufik
tauh
tauhid
taurat
tav
taw
tawa
tawanan
tawang
tawar
tawaran
tawarikh
tawon
tax
tay
tayang
tayangan
taylor
tb
tbk
td
te
team
teaser
teater
teatrikal
teb
tebal
tebing
tebu
tebusan
tech
techn
technical
technology
ted
teddy
teen
teg
tegak
tegal
tegang
tegangan
tegas
teguh
teh
teheran
tek
teka
tekad
tekan
tekanan
teki
tekn
teknik
teknis
teknisi
teknologi
teks
tekstil
tekstual
tekstur
tektonik
tekun
tel
teladan
telaga
telah
telak
telanjang
telapak
tele
telecom
teleg
telegram
telegraph
telek
telekomunikasi
telepon
teles
teleskop
telev
televisi
television
telinga
teliti
telkom
telkomsel
tell
telugu
teluk
telur
tem
tema
teman
temanggung
temannya
temb
tembaga
tembak
tembakan
tembakau
tembang
tembikar
tembok
tembus
temp
tempat
tempatnya
tempe
temper
temperatur
templ
temple
tempo
tempor
tempuh
tempur
temu
temuan
temui
temukan
temurun
ten
tenaga
tenang
tend
tenda
tendangan
tender
teng
tengah
tengahnya
tengg
tenggara
tenggelam
tenggelamnya
tengger
tenggoro
tenggorokan
tengk
tengkorak
tengku
tenis
tennes
tennessee
tent
tentang
tentara
tentaranya
tentu
tentunya
tenun
teolog
teologi
teologis
teor
teorema
teoretis
teori
teorinya
tep
tepat
tepatnya
tephritidae
tepi
tepian
tepung
ter
terak
terakhir
terakhirnya
terakreditasi
terampil
terancam
terang
terangan
terangkat
terap
terapan
terapi
terapung
terarah
teras
terasa
teratai
teratas
teratur
terawal
terawat
terb
terbaca
terbagi
terbaik
terbaiknya
terbakar
terbalik
terbang
terbangun
terbanyak
terbar
terbaring
terbaru
terbarukan
terbarunya
terbatas
terbawa
terbawah
terbebas
terbelah
terbelakang
terbenam
terbentang
terbentuk
terbentuklah
terbentuknya
terber
terbesar
terbesarnya
terbi
terbiasa
terbilang
terbit
terbitan
terbitnya
terbu
terbuat
terbuk
terbuka
terbukti
terbunuh
terburuk
terc
tercantum
tercapai
tercatat
tercemar
tercepat
tercermin
tercinta
tercipta
terciptanya
terd
terdaftar
terdahulu
terdakwa
terdalam
terdampar
terdapat
terdegradasi
terdekat
terdekatnya
terdengar
terdepan
terdesak
terdeteksi
terdiri
terdorong
terduga
tere
terencana
terendah
terendam
terengganu
teres
teresa
terf
terfokus
terg
tergabung
terganggu
tergantung
tergel
tergolong
terh
terhadap
terhadapnya
terhalang
terhambat
terhenti
terhind
terhindar
terhingga
terhitung
terhormat
terhubung
teri
teriakan
teridentifikasi
terigu
terikat
terima
terinfeksi
teringat
terinspirasi
terintegrasi
terisi
terisolasi
teritori
teritorial
terj
terjadi
terjadilah
terjadinya
terjaga
terjal
terjalin
terjangkau
terjatuh
terjebak
terjemahan
terjual
terjun
terk
terkadang
terkait
terkalahkan
terkandung
terkaya
terkecil
terkecuali
terkej
terkejut
terkemuka
terkena
terkenal
terkendali
terkesan
terkini
terkonsentrasi
terkontaminasi
terkontrol
terkuat
terkubur
terkumpul
terkunci
terl
terlah
terlahir
terlaksana
terlalu
terlama
terlambat
terlarang
terlaris
terlarut
terlatih
terlebih
terlempar
terlepas
terletak
terlibat
terlihat
terlindung
terlindungi
terluar
terluas
terluka
terlupakan
term
termahal
termal
termas
termasuk
termasy
termin
terminal
terminologi
termodinamika
termu
termuat
termuda
tern
ternak
ternama
ternate
ternyata
terob
terobosan
terobsesi
terompet
teror
terorganisir
teroris
terorisme
terowongan
terp
terpadat
terpadu
terpakai
terpaksa
terpanjang
terpapar
terpasang
terpecah
terpelajar
terpenc
terpencil
terpengaruh
terpenting
terpenuhi
terper
terperangkap
terperinci
terpesona
terpilih
terpilihnya
terpisah
terpisahkan
terpopuler
terpotong
terpusat
terputus
terror
terry
ters
tersambung
tersangka
tersebar
tersebut
tersed
tersedia
tersedianya
tersel
terselesaikan
tersembunyi
tersen
tersendiri
tersentuh
tersenyum
terserang
tersesat
tersi
tersimpan
tersingkir
tersirat
tersisa
tersohor
terstruktur
tersusun
tert
tertanam
tertanggal
tertangkap
tertarik
tertawa
tertekan
tertembak
tertentu
tertera
tertib
tertidur
tertinggal
tertinggi
tertu
tertua
tertuang
tertulis
tertunda
tertutup
terukur
terumbu
terungkap
terurai
terus
terusan
terutama
terw
terwujud
terwujudnya
tes
tesis
test
tet
tetangga
tetangganya
tetap
tetapi
tetesan
tetua
teuku
teungku
tewas
tewasnya
tex
texas
text
tg
tgl
th
thai
thailand
thal
thalib
tham
thamrin
than
thank
thari
that
the
theat
theater
theatre
their
them
then
theo
theod
theodore
theory
ther
thera
theravada
there
theresia
these
they
thi
thing
things
think
third
this
tho
thom
thomas
thomp
thompson
thomson
thor
thr
three
thril
thriller
through
thur
ti
tia
tiada
tian
tiang
tiap
tiara
tib
tiba
tiber
tibet
tid
tidak
tidaklah
tidaknya
tidore
tidur
tidurnya
tien
tig
tiga
tiger
tii
tik
tika
tikar
tiket
tikungan
tikus
til
tim
timah
timb
timbal
timbul
timbulnya
time
times
timnas
timnya
timor
timotius
timur
tin
tina
tind
tindak
tindakan
tindakannya
tindih
ting
tinggal
tinggalkan
tinggalnya
tinggi
tingginya
tingk
tingkah
tingkat
tingkatan
tini
tinjauan
tinju
tint
tinta
tintin
tio
tiong
tionghoa
tiongkok
tip
tipe
tipikal
tipis
tipu
tipul
tipula
tipulidae
tir
tirai
tiran
tiri
tirinya
tiro
tirta
tiruan
tis
tit
tita
titan
titanic
titel
titi
titik
title
tito
titus
tj
tjah
tjok
tk
tki
tl
tm
tn
tni
to
tob
toba
tobing
tod
today
tog
togo
toh
toilet
tok
toko
tokoh
tokohnya
tokugawa
tokyo
tol
tolak
toleran
toleransi
tolong
tom
tomas
tomat
tomato
tomatoes
tomb
tombak
tombol
tommy
tomo
tomohon
ton
tond
tong
tonggak
tongkat
toni
tonton
tontonan
tony
too
tool
top
topan
topeng
topi
topik
topografi
topologi
tor
toraja
torino
torn
toro
toronto
torpedo
torres
torym
torymus
tos
tot
total
toto
tottenham
touch
toulouse
tour
tow
tower
town
toy
toyota
tp
tpa
tpi
tr
tra
track
trad
trade
tradisi
tradisional
traf
traffic
trag
tragedi
tragis
trail
trailer
train
training
trak
traktat
tram
tran
trans
transaksi
transfer
transform
transformasi
transformers
transisi
transistor
transit
transjakarta
transl
transmigrasi
transmisi
transp
transparan
transparansi
transpl
transplantasi
transpor
transport
transportasi
trauma
trav
travel
tray
trayek
tre
treat
tree
trek
trem
tren
trend
trengg
trenggal
trenggalek
trev
tri
trial
tribun
trich
trick
trig
trik
trikora
tril
triliun
trilogi
trim
trin
trinidad
trinitas
trinity
trio
trip
triple
tris
trisakti
trit
tritunggal
tro
trofi
tromb
trop
tropis
trotsky
troy
troya
true
truk
trump
trun
trust
truth
try
ts
tsan
tsanawiyah
tsar
tsu
tsun
tsunami
tt
tu
tua
tuah
tuan
tuanku
tuannya
tuanya
tub
tuban
tuber
tubuh
tubuhnya
tud
tuduhan
tudung
tug
tugas
tugasnya
tugu
tuh
tuhan
tuj
tujuan
tujuannya
tujuh
tuk
tukang
tukar
tul
tulang
tuli
tulis
tulisan
tulisannya
tulungagung
tulus
tum
tumbang
tumbuh
tumbuhan
tumbuhnya
tumenggung
tumor
tump
tumpang
tumpukan
tumpul
tun
tuna
tunai
tunas
tunduk
tung
tungg
tunggal
tunggu
tunggul
tungk
tungku
tunisia
tunj
tunjangan
tunt
tuntas
tuntutan
tup
tur
turb
turbin
turbo
turi
turin
turis
turk
turki
turn
turnamen
turner
turun
turunan
turunnya
turut
tus
tusuk
tut
tutup
tutur
tv
tvri
tw
twin
twitter
two
ty
typ
type
u
uang
uangnya
uap
ub
ubah
uber
ubi
ubud
ubuntu
ubur
uc
ucapan
uch
uchiha
ud
udang
udara
udayana
udin
ue
uefa
uf
ufo
ug
uganda
ugm
uh
ui
uighur
uin
uj
ujar
uji
ujian
ujung
ujungnya
uk
uki
ukir
ukiran
ukm
ukraina
ukur
ukuran
ukurannya
ul
ulah
ulama
ulang
ulangan
ular
ulasan
ulat
ultim
ultimatum
ultr
ultra
ulu
ulum
ulung
um
uma
umar
umat
umay
umayyah
umb
umbi
umbul
umi
umm
umno
ump
umpan
umum
umumnya
umur
umurnya
un
una
unc
und
undang
undangan
under
underground
undian
unesco
ung
ungg
unggas
unggul
unggulan
ungk
ungkapan
ungu
uni
unic
unicef
unik
uniknya
unil
union
unit
united
univ
univers
universal
universe
universitas
university
unix
unjuk
uns
unsur
unta
untaian
untuk
untuknya
untung
untungnya
up
upacara
upah
upaya
upayanya
update
upeti
upgrade
upi
upt
ur
uraian
uranium
uranus
urat
urban
urbanisasi
urdu
urin
url
urugu
uruguay
urusan
urut
urutan
us
usa
usah
usaha
usahanya
usai
usang
usb
usd
use
user
ushul
usia
usianya
uskup
usman
uss
ust
ustad
ustadz
usul
usulan
usulnya
usus
ut
utama
utamanya
utan
utang
utara
utc
utomo
utrech
utrecht
utsman
utsmani
utsmaniyah
utuh
utusan
uu
uud
uw
uz
uzbek
uzbekistan
v
va
vac
vag
vagina
vaj
vaksin
vaksinasi
vakum
val
valencia
valent
valentine
valid
vall
valley
valu
value
vampir
van
vanc
vancouver
vand
var
vari
variabel
varian
variasi
varietas
vas
vatikan
ve
veg
vegas
veget
vegetarian
vegetasi
veh
vektor
vel
ven
vena
vendor
venesia
venez
venezuela
vent
ventilasi
ventr
venus
ver
vera
verbal
verd
verifikasi
vern
vernonia
verona
vers
versi
version
vertebrata
vertikal
very
ves
vet
veter
veteran
vh
vi
via
vib
vic
vice
vick
victor
victoria
vid
vide
video
viet
vietnam
view
vihara
vii
viii
vik
viking
viktor
vil
vila
vill
villa
village
vin
vina
vinc
vincent
vinci
viol
vip
vir
virgin
virginia
virtual
virus
vis
visa
visi
vision
vista
visu
visual
vit
vita
vital
vitamin
viv
vl
vlad
vladimir
vo
voc
vocal
vog
voice
vok
vokal
vokalis
vol
voldem
voldemort
voli
volks
volkswagen
volume
von
vonis
voor
vor
vos
voting
voya
vs
vul
vulkan
vulkanik
vv
w
wa
wabah
wac
wacana
wad
wadah
waduk
waf
wafat
wafatnya
wag
wah
wahab
wahai
wahana
wahid
wahyu
wai
wais
waj
wajah
wajahnya
wajar
wajib
wajo
wak
wakaf
wakil
wakilnya
waktu
waktunya
wal
wala
walau
walaupun
wales
walet
wali
walid
walik
walikota
walk
walker
wall
wallace
walt
walter
wam
wamena
wan
wander
wanderers
wang
wangi
wangsa
wanita
want
war
wara
waralaba
ward
warga
warganya
waris
warisan
warna
warnanya
warner
warni
warren
warri
wars
warsawa
warta
wartawan
waru
warung
was
wash
washington
wasiat
wasit
waspada
wass
wat
watak
watan
watch
water
wati
watson
watt
watu
wave
waw
wawan
wawancara
wawasan
way
wayan
wayang
wayne
wazir
wb
wc
we
wea
web
weber
website
wed
weda
week
weekly
wei
wel
welcome
well
wemb
wembley
wen
wenang
wendy
wer
werd
were
wes
wesley
west
wester
western
westminster
wet
wetan
wew
wewenang
wh
what
whe
wheel
when
where
which
whit
white
who
why
wi
wib
wibowo
wic
wid
wide
widodo
widya
wig
wij
wijaya
wik
wiki
wikip
wikipedia
wil
wilayah
wilayahnya
wild
wilh
wilhelm
will
willem
william
williams
willy
wilson
win
wina
wind
window
windows
wine
wing
wings
winston
winter
wir
wira
wiraswasta
wirausaha
wireless
wis
wisat
wisata
wisatawan
wisconsin
wisma
wisnu
wisuda
wit
wita
with
without
wiz
wo
wol
wolf
wolver
woman
women
won
wonder
wong
wonogiri
wonos
wonosari
wonosobo
woo
wood
woods
wool
wor
word
work
working
works
workshop
world
worm
wortel
would
wow
wr
wright
writ
ws
wto
wu
wujud
wujudnya
wul
wulan
wur
wuruk
ww
wwe
wwf
www
wy
x
xa
xav
xen
xi
xia
xian
xiang
xiao
xii
xiii
xin
xinjiang
xiong
xiv
xix
xl
xp
xu
xuan
xv
xvi
xvii
xx
xxi
xxx
xy
y
ya
yab
yad
yag
yah
yahoo
yahudi
yahya
yaitu
yak
yakin
yakni
yakobus
yakub
yale
yam
yama
yamaha
yamamoto
yaman
yamato
yamin
yan
yang
yani
yap
yar
yas
yasin
yat
yatim
yay
yayasan
yaz
yazid
ye
year
years
yeh
yehez
yehezkiel
yehuda
yehuwa
yel
yellow
yen
yeon
yer
yeremia
yerus
yerusalem
yes
yesaya
yesuit
yesus
yg
yi
yin
ying
ym
yo
yog
yoga
yogya
yogyakarta
yoh
yohan
yohanes
yok
yokohama
yon
yong
yonif
yoo
yoon
yordania
york
yos
yosef
yosh
yosua
you
young
your
youth
youtu
youtube
yu
yuan
yud
yudaisme
yudas
yudea
yudh
yudha
yudhoyono
yudisial
yudistira
yug
yugos
yugoslavia
yuk
yuki
yul
yuli
yun
yunan
yunani
yuni
yunus
yupiter
yur
yuri
yurisdiksi
yus
yusuf
z
za
zab
zack
zag
zah
zaid
zain
zainal
zainuddin
zaitun
zak
zakaria
zakat
zam
zaman
zamannya
zamb
zan
zar
zaragoza
zat
zay
ze
zealand
zed
zee
zel
zen
zenit
zero
zeus
zh
zhang
zhao
zhen
zheng
zhi
zhong
zhou
zhu
zi
ziarah
zid
zig
zimbab
zimbabwe
zin
zionis
zo
zomb
zon
zona
zone
zoro
zu
zubair
zuh
zul
zulkifli
zur
zurich
zw
{
}
~
¡
£
¥
§
«
¬
®
°
±
²
³
´
µ
·
¹
º
»
¼
½
¾
×
ß
æ
ð
÷
ø
þ
đ
ħ
ı
ł
ŋ
œ
ƒ
ɐ
ɑ
ɔ
ə
ɛ
ɡ
ɪ
ʁ
ʃ
ʊ
ʒ
ʔ
ʰ
ʲ
ʻ
ʼ
ʾ
ʿ
ˈ
ˌ
ː
˚
α
β
γ
δ
ε
ζ
η
θ
ι
κ
λ
μ
ν
ξ
ο
π
ρ
ς
σ
τ
υ
φ
χ
ψ
ω
а
б
в
г
д
е
ж
з
и
к
л
м
н
о
п
р
с
т
у
ф
х
ц
ч
ш
щ
ъ
ы
ь
э
ю
я
і
ј
ћ
қ
ө
ա
ե
ի
կ
յ
ն
ո
տ
ր
א
ב
ג
ד
ה
ו
ז
ח
ט
י
ך
כ
ל
ם
מ
ן
נ
ס
ע
פ
צ
ק
ר
ש
ת
،
ء
ا
ال
الا
الله
ب
ة
ت
ث
ج
ح
خ
د
ذ
ر
ز
س
ش
ص
ض
ط
ظ
ع
غ
ـ
ف
ق
ك
ل
م
ن
ه
و
ى
ي
پ
چ
ڠ
ڤ
ک
گ
ہ
ی
अ
आ
क
ग
च
ज
ड
ण
त
द
ध
न
प
ब
भ
म
य
र
ल
व
श
ष
स
ह
ক
গ
জ
ত
দ
ন
প
ব
ম
য
র
ল
শ
স
হ
க
ச
த
ப
ம
ய
ர
ல
ก
ค
ง
จ
ช
ด
ต
ท
ธ
น
บ
ป
พ
ม
ย
ร
ล
ว
ศ
ส
ห
อ
ะ
า
เ
แ
་
ა
ე
ი
ლ
ო
რ
ს
ᄀ
ᄁ
ᄂ
ᄃ
ᄄ
ᄅ
ᄆ
ᄇ
ᄈ
ᄉ
ᄊ
ᄋ
ᄌ
ᄎ
ᄏ
ᄐ
ᄑ
ᄒ
ᴡ
‐
‑
–
—
―
‖
‘
’
“
”
„
‟
†
‡
•
…
‰
′
″
‹
›
⁄
⁰
₩
€
₱
₹
℃
ℓ
™
→
−
√
∞
≈
≡
≤
≥
⋅
〜
あ
い
う
え
お
か
き
く
け
こ
さ
し
す
せ
そ
た
ち
っ
つ
て
と
な
に
の
は
ひ
ふ
ほ
ま
み
め
も
ゃ
や
よ
ら
り
る
れ
ろ
わ
を
ん
ア
ィ
イ
ウ
ェ
エ
オ
カ
キ
ク
ケ
コ
サ
シ
ス
セ
ソ
タ
チ
ッ
ツ
テ
ト
ナ
ニ
ハ
ヒ
フ
ヘ
ホ
マ
ミ
ム
メ
モ
ャ
ヤ
ュ
ョ
ラ
リ
ル
レ
ロ
ワ
ン
・
ー
一
丁
七
万
三
上
下
不
世
东
中
主
之
九
事
二
五
井
京
人
仁
仙
代
令
仲
伊
会
伯
何
佛
你
使
侯
保
信
偵
傳
元
先
光
全
八
公
六
共
兵
内
军
出
分
利
劉
力
加
動
勝
化
北
区
區
十
千
华
南
博
原
友
口
古
台
史
司
合
吉
同
名
后
君
吳
周
命
和
唐
商
四
国
國
園
土
地
城
堂
場
士
壽
夏
外
大
天
太
夫
女
如
妃
姬
子
字
孝
学
孫
學
宇
安
宋
宗
官
定
宣
宮
家
宿
寧
寶
寺
将
小
少
山
岳
島
川
州
工
市
帝
師
常
平
年
府
康
廣
建
式
张
張
後
徐
御
德
心
志
忠
思
愛
慶
成
我
戦
戰
所
手
探
政
教
敬
文
新
方
族
日
昌
明
星
春
昭
時
景
書
曹
最
會
月
有
朝
木
本
朱
李
村
来
東
松
林
株
梁
楊
楚
業
樂
橋
機
歌
正
武
殿
氏
民
水
永
江
河
治
泉
法
波
洋
洪
流
海
清
港
漢
火
無
物
特
玄
玉
王
理
生
田
男
界
白
百
的
皇
目
相
真
知
石
社
祖
神
福
秀
秋
秦
空
立
章
第
節
紀
紫
經
縣
羅
美
義
老
者
聖
胡
臣
自
興
航
良
花
英
華
萬
葉
藤
虎
行
衛
西
見
親
言
記
語
谷
起
越
趙
路
軍
通
道
遠
那
郎
郡
部
都
鄭
里
重
野
金
長
长
門
開
關
阿
陈
院
陳
陵
陽
隆
雄
集
雪
雲
電
青
韓
音
風
飛
食
香
馬
駅
高
鬼
魂
魏
黃
黄
龍
龙
ꦏ
ꦠ
ꦤ
ꦧ
ꦩ
ꦫ
ꦭ
ꦱ
ꦺ
꧀
ﷺ
！
（
）
，
：
～
￼
